{
  "version": "1.0",
  "truncation": null,
  "padding": null,
  "added_tokens": [
    {
      "id": 0,
      "content": "[UNK]",
      "single_word": false,
      "lstrip": false,
      "rstrip": false,
      "normalized": false,
      "special": true
    },
    {
      "id": 1,
      "content": "[PAD]",
      "single_word": false,
      "lstrip": false,
      "rstrip": false,
      "normalized": false,
      "special": true
    },
    {
      "id": 2,
      "content": "[SOS]",
      "single_word": false,
      "lstrip": false,
      "rstrip": false,
      "normalized": false,
      "special": true
    },
    {
      "id": 3,
      "content": "[EOS]",
      "single_word": false,
      "lstrip": false,
      "rstrip": false,
      "normalized": false,
      "special": true
    }
  ],
  "normalizer": null,
  "pre_tokenizer": {
    "type": "Whitespace"
  },
  "post_processor": null,
  "decoder": null,
  "model": {
    "type": "WordPiece",
    "unk_token": "[UNK]",
    "continuing_subword_prefix": "##",
    "max_input_chars_per_word": 100,
    "vocab": {
      "[UNK]": 0,
      "[PAD]": 1,
      "[SOS]": 2,
      "[EOS]": 3,
      "!": 4,
      "\"": 5,
      "#": 6,
      "$": 7,
      "%": 8,
      "&": 9,
      "'": 10,
      "(": 11,
      ")": 12,
      "*": 13,
      "+": 14,
      ",": 15,
      "-": 16,
      ".": 17,
      "/": 18,
      "0": 19,
      "1": 20,
      "2": 21,
      "3": 22,
      "4": 23,
      "5": 24,
      "6": 25,
      "7": 26,
      "8": 27,
      "9": 28,
      ":": 29,
      ";": 30,
      "<": 31,
      "=": 32,
      ">": 33,
      "?": 34,
      "@": 35,
      "A": 36,
      "B": 37,
      "C": 38,
      "D": 39,
      "E": 40,
      "F": 41,
      "G": 42,
      "H": 43,
      "I": 44,
      "J": 45,
      "K": 46,
      "L": 47,
      "M": 48,
      "N": 49,
      "O": 50,
      "P": 51,
      "Q": 52,
      "R": 53,
      "S": 54,
      "T": 55,
      "U": 56,
      "V": 57,
      "W": 58,
      "X": 59,
      "Y": 60,
      "Z": 61,
      "[": 62,
      "\\": 63,
      "]": 64,
      "^": 65,
      "_": 66,
      "`": 67,
      "a": 68,
      "b": 69,
      "c": 70,
      "d": 71,
      "e": 72,
      "f": 73,
      "g": 74,
      "h": 75,
      "i": 76,
      "j": 77,
      "k": 78,
      "l": 79,
      "m": 80,
      "n": 81,
      "o": 82,
      "p": 83,
      "q": 84,
      "r": 85,
      "s": 86,
      "t": 87,
      "u": 88,
      "v": 89,
      "w": 90,
      "x": 91,
      "y": 92,
      "z": 93,
      "{": 94,
      "|": 95,
      "}": 96,
      "~": 97,
      "£": 98,
      "¥": 99,
      "©": 100,
      "®": 101,
      "°": 102,
      "±": 103,
      "²": 104,
      "³": 105,
      "¹": 106,
      "º": 107,
      "¼": 108,
      "½": 109,
      "¾": 110,
      "Å": 111,
      "É": 112,
      "×": 113,
      "ß": 114,
      "à": 115,
      "á": 116,
      "â": 117,
      "ã": 118,
      "ä": 119,
      "æ": 120,
      "ç": 121,
      "è": 122,
      "é": 123,
      "ê": 124,
      "ë": 125,
      "í": 126,
      "î": 127,
      "ï": 128,
      "ñ": 129,
      "ó": 130,
      "ô": 131,
      "ö": 132,
      "÷": 133,
      "ø": 134,
      "ú": 135,
      "ü": 136,
      "ā": 137,
      "ī": 138,
      "ō": 139,
      "œ": 140,
      "ş": 141,
      "ż": 142,
      "́": 143,
      "Δ": 144,
      "α": 145,
      "β": 146,
      "γ": 147,
      "θ": 148,
      "κ": 149,
      "μ": 150,
      "ο": 151,
      "π": 152,
      "σ": 153,
      "τ": 154,
      "а": 155,
      "е": 156,
      "ׁ": 157,
      "​": 158,
      "–": 159,
      "—": 160,
      "‘": 161,
      "’": 162,
      "“": 163,
      "”": 164,
      "•": 165,
      "…": 166,
      "⁰": 167,
      "⁴": 168,
      "₂": 169,
      "€": 170,
      "₹": 171,
      "™": 172,
      "⅓": 173,
      "⅔": 174,
      "→": 175,
      "∇": 176,
      "∑": 177,
      "−": 178,
      "√": 179,
      "∧": 180,
      "∨": 181,
      "≈": 182,
      "≡": 183,
      "≤": 184,
      "≥": 185,
      "⊕": 186,
      "⋯": 187,
      "─": 188,
      "└": 189,
      "☀": 190,
      "☠": 191,
      "⛰": 192,
      "✅": 193,
      "❤": 194,
      "⭐": 195,
      "笑": 196,
      "虎": 197,
      "面": 198,
      "️": 199,
      "🇦": 200,
      "🇧": 201,
      "🇨": 202,
      "🇩": 203,
      "🇪": 204,
      "🇫": 205,
      "🇬": 206,
      "🇭": 207,
      "🇮": 208,
      "🇯": 209,
      "🇰": 210,
      "🇱": 211,
      "🇲": 212,
      "🇳": 213,
      "🇴": 214,
      "🇵": 215,
      "🇶": 216,
      "🇷": 217,
      "🇸": 218,
      "🇹": 219,
      "🇺": 220,
      "🇽": 221,
      "🇿": 222,
      "🌊": 223,
      "🌍": 224,
      "🌎": 225,
      "🌞": 226,
      "🌿": 227,
      "🍊": 228,
      "🍌": 229,
      "🍓": 230,
      "🍯": 231,
      "🎂": 232,
      "🎈": 233,
      "🎉": 234,
      "🎮": 235,
      "🎵": 236,
      "🏀": 237,
      "🐥": 238,
      "🐱": 239,
      "🐶": 240,
      "👀": 241,
      "💡": 242,
      "💦": 243,
      "📚": 244,
      "📢": 245,
      "📲": 246,
      "📺": 247,
      "🚨": 248,
      "🛍": 249,
      "🤖": 250,
      "🦸": 251,
      "##a": 252,
      "##n": 253,
      "##g": 254,
      "##o": 255,
      "##f": 256,
      "##u": 257,
      "##s": 258,
      "##i": 259,
      "##r": 260,
      "##e": 261,
      "##d": 262,
      "##m": 263,
      "##p": 264,
      "##l": 265,
      "##t": 266,
      "##h": 267,
      "##w": 268,
      "##y": 269,
      "##c": 270,
      "##b": 271,
      "##k": 272,
      "##v": 273,
      "##z": 274,
      "##I": 275,
      "##5": 276,
      "##3": 277,
      "##Z": 278,
      "##4": 279,
      "##9": 280,
      "##E": 281,
      "##S": 282,
      "##T": 283,
      "##A": 284,
      "##0": 285,
      "##.": 286,
      "##D": 287,
      "##R": 288,
      "##j": 289,
      "##6": 290,
      "##1": 291,
      "##F": 292,
      "##q": 293,
      "##B": 294,
      "##N": 295,
      "##M": 296,
      "##`": 297,
      "##x": 298,
      "##P": 299,
      "##\"": 300,
      "##C": 301,
      "##/": 302,
      "##2": 303,
      "##V": 304,
      "##]": 305,
      "##,": 306,
      "##U": 307,
      "##7": 308,
      "##_": 309,
      "##🇪": 310,
      "##*": 311,
      "##G": 312,
      "##8": 313,
      "##²": 314,
      "##!": 315,
      "##🏀": 316,
      "##H": 317,
      "##)": 318,
      "##W": 319,
      "##X": 320,
      "##Y": 321,
      "##ō": 322,
      "##O": 323,
      "##L": 324,
      "##í": 325,
      "##J": 326,
      "##>": 327,
      "##ā": 328,
      "##-": 329,
      "##ü": 330,
      "##🇱": 331,
      "##?": 332,
      "##:": 333,
      "##é": 334,
      "##”": 335,
      "##[": 336,
      "##K": 337,
      "##🇿": 338,
      "##(": 339,
      "##+": 340,
      "##🇷": 341,
      "##ï": 342,
      "##'": 343,
      "##<": 344,
      "##ö": 345,
      "##\\": 346,
      "##=": 347,
      "##è": 348,
      "##🚨": 349,
      "##π": 350,
      "##æ": 351,
      "##~": 352,
      "##🇰": 353,
      "##$": 354,
      "##{": 355,
      "##á": 356,
      "##🇫": 357,
      "##ş": 358,
      "##&": 359,
      "##🇹": 360,
      "##ã": 361,
      "##🇭": 362,
      "##ñ": 363,
      "##ó": 364,
      "##Q": 365,
      "###": 366,
      "##^": 367,
      "##💦": 368,
      "##â": 369,
      "##…": 370,
      "##🍯": 371,
      "##а": 372,
      "##;": 373,
      "##∧": 374,
      "##📚": 375,
      "##ο": 376,
      "##🎉": 377,
      "##🎂": 378,
      "##🎈": 379,
      "##}": 380,
      "##’": 381,
      "##î": 382,
      "##ê": 383,
      "##🇩": 384,
      "##́": 385,
      "##─": 386,
      "##“": 387,
      "##@": 388,
      "##%": 389,
      "##🇬": 390,
      "##🇴": 391,
      "##⛰": 392,
      "##ë": 393,
      "##🌍": 394,
      "##–": 395,
      "##🐱": 396,
      "##​": 397,
      "##ī": 398,
      "##ç": 399,
      "##🇵": 400,
      "##🇮": 401,
      "##€": 402,
      "##→": 403,
      "##ú": 404,
      "##ô": 405,
      "##−": 406,
      "##⭐": 407,
      "##£": 408,
      "##🇦": 409,
      "##🇲": 410,
      "##ø": 411,
      "##🇳": 412,
      "##ä": 413,
      "##🍌": 414,
      "##🍊": 415,
      "##🤖": 416,
      "##面": 417,
      "##虎": 418,
      "##🇺": 419,
      "##🇽": 420,
      "##е": 421,
      "##ż": 422,
      "##🇶": 423,
      "##‘": 424,
      "##ß": 425,
      "##🍓": 426,
      "##º": 427,
      "##🇸": 428,
      "##œ": 429,
      "##❤": 430,
      "##×": 431,
      "##he": 432,
      "##in": 433,
      "##er": 434,
      "##at": 435,
      "the": 436,
      "##on": 437,
      "##es": 438,
      "##nd": 439,
      "##ou": 440,
      "##ing": 441,
      "##re": 442,
      "##om": 443,
      "to": 444,
      "##en": 445,
      "##an": 446,
      "##or": 447,
      "and": 448,
      "##ed": 449,
      "##al": 450,
      "##it": 451,
      "##ar": 452,
      "in": 453,
      "of": 454,
      "##is": 455,
      "##ion": 456,
      "##ic": 457,
      "th": 458,
      "##as": 459,
      "##le": 460,
      "##el": 461,
      "##ent": 462,
      "you": 463,
      "Tom": 464,
      "is": 465,
      "##et": 466,
      "##ct": 467,
      "##ro": 468,
      "##st": 469,
      "##ve": 470,
      "##il": 471,
      "##ow": 472,
      "##id": 473,
      "that": 474,
      "##ch": 475,
      "re": 476,
      "for": 477,
      "##ot": 478,
      "##ce": 479,
      "be": 480,
      "##ol": 481,
      "##ation": 482,
      "st": 483,
      "##ay": 484,
      "##ut": 485,
      "##ur": 486,
      "on": 487,
      "##ig": 488,
      "##ir": 489,
      "The": 490,
      "##ver": 491,
      "can": 492,
      "an": 493,
      "ha": 494,
      "##im": 495,
      "##ly": 496,
      "##ith": 497,
      "##ess": 498,
      "pro": 499,
      "##se": 500,
      "it": 501,
      "or": 502,
      "##ld": 503,
      "##am": 504,
      "with": 505,
      "as": 506,
      "##ul": 507,
      "##ate": 508,
      "al": 509,
      "##ak": 510,
      "su": 511,
      "##ers": 512,
      "con": 513,
      "##ant": 514,
      "com": 515,
      "##ra": 516,
      "##if": 517,
      "wh": 518,
      "are": 519,
      "##ter": 520,
      "ne": 521,
      "##ge": 522,
      "##ri": 523,
      "##od": 524,
      "##her": 525,
      "##ad": 526,
      "##mp": 527,
      "me": 528,
      "##ment": 529,
      "do": 530,
      "##pp": 531,
      "ex": 532,
      "##ab": 533,
      "##est": 534,
      "de": 535,
      "en": 536,
      "##ould": 537,
      "##iv": 538,
      "##ive": 539,
      "was": 540,
      "your": 541,
      "##pe": 542,
      "##ain": 543,
      "Th": 544,
      "##ust": 545,
      "he": 546,
      "?.": 547,
      "##ity": 548,
      "us": 549,
      "##th": 550,
      "##ht": 551,
      "##ill": 552,
      "##us": 553,
      "##ore": 554,
      "ch": 555,
      "le": 556,
      "##ary": 557,
      "##ist": 558,
      "have": 559,
      "go": 560,
      "se": 561,
      "##ac": 562,
      "##op": 563,
      "##ies": 564,
      "sh": 565,
      "##ort": 566,
      "##rom": 567,
      "kn": 568,
      "wor": 569,
      "we": 570,
      "##ure": 571,
      "##oc": 572,
      "##ect": 573,
      "##ial": 574,
      "##os": 575,
      "ab": 576,
      "##ome": 577,
      "pl": 578,
      "imp": 579,
      "##un": 580,
      "##ions": 581,
      "This": 582,
      "##ud": 583,
      "their": 584,
      "te": 585,
      "at": 586,
      "##ake": 587,
      "##ost": 588,
      "comp": 589,
      "##ell": 590,
      "##iz": 591,
      "##ight": 592,
      "##out": 593,
      "by": 594,
      "##ine": 595,
      "##all": 596,
      "know": 597,
      "##are": 598,
      "##um": 599,
      "##em": 600,
      "not": 601,
      "##ok": 602,
      "this": 603,
      "##act": 604,
      "hel": 605,
      "inc": 606,
      "##one": 607,
      "##ff": 608,
      "##and": 609,
      "##nt": 610,
      "##ik": 611,
      "help": 612,
      "Wh": 613,
      "##age": 614,
      "##art": 615,
      "##ere": 616,
      "Mary": 617,
      "It": 618,
      "from": 619,
      "##du": 620,
      "res": 621,
      "##cess": 622,
      "##able": 623,
      "has": 624,
      "##ence": 625,
      "##og": 626,
      "all": 627,
      "##oug": 628,
      "tim": 629,
      "##ag": 630,
      "ad": 631,
      "##qu": 632,
      "##orm": 633,
      "##ther": 634,
      "lik": 635,
      "##ep": 636,
      "##ical": 637,
      "##ach": 638,
      "want": 639,
      "##ard": 640,
      "did": 641,
      "exp": 642,
      "##ie": 643,
      "##ast": 644,
      "##pt": 645,
      "##ink": 646,
      "##our": 647,
      "##ual": 648,
      "int": 649,
      "##ide": 650,
      "tr": 651,
      "whe": 652,
      "dat": 653,
      "##ind": 654,
      "We": 655,
      "##ook": 656,
      "any": 657,
      "time": 658,
      "more": 659,
      "##form": 660,
      "about": 661,
      "ac": 662,
      "In": 663,
      "cl": 664,
      "up": 665,
      "don": 666,
      "##ong": 667,
      "cont": 668,
      "work": 669,
      "##ack": 670,
      "##ance": 671,
      "##ice": 672,
      "##vel": 673,
      "##ase": 674,
      "##fer": 675,
      "will": 676,
      "man": 677,
      "You": 678,
      "fe": 679,
      "##ous": 680,
      "##ign": 681,
      "need": 682,
      "##ations": 683,
      "He": 684,
      "##ult": 685,
      "like": 686,
      "such": 687,
      "ar": 688,
      "##ces": 689,
      "his": 690,
      "app": 691,
      "my": 692,
      "data": 693,
      "##reat": 694,
      "##ans": 695,
      "out": 696,
      "other": 697,
      "##ble": 698,
      "sa": 699,
      "##ip": 700,
      "##ning": 701,
      "##ob": 702,
      "##ame": 703,
      "spe": 704,
      "##ich": 705,
      "tra": 706,
      "##end": 707,
      "pr": 708,
      "so": 709,
      "what": 710,
      "dis": 711,
      "think": 712,
      "##ry": 713,
      "##ely": 714,
      "##ound": 715,
      "##oll": 716,
      "##red": 717,
      "##ang": 718,
      "inter": 719,
      "could": 720,
      "##ific": 721,
      "##ays": 722,
      "would": 723,
      "eff": 724,
      ":.": 725,
      "##ree": 726,
      "one": 727,
      "str": 728,
      "##ap": 729,
      "##ustom": 730,
      "##ite": 731,
      "##ass": 732,
      "##ear": 733,
      "they": 734,
      "##ace": 735,
      "##ue": 736,
      "##so": 737,
      "##ough": 738,
      "new": 739,
      "prov": 740,
      "ve": 741,
      "red": 742,
      "qu": 743,
      "un": 744,
      "dif": 745,
      "##duct": 746,
      "What": 747,
      "##very": 748,
      "also": 749,
      "##ile": 750,
      "them": 751,
      "##ount": 752,
      "##ater": 753,
      "sc": 754,
      "bet": 755,
      "##ated": 756,
      "comm": 757,
      "##av": 758,
      "use": 759,
      "ev": 760,
      "##ark": 761,
      "##ition": 762,
      "custom": 763,
      "sy": 764,
      "##ents": 765,
      "which": 766,
      "pe": 767,
      "##ail": 768,
      "incl": 769,
      "des": 770,
      "didn": 771,
      "##les": 772,
      "some": 773,
      "make": 774,
      "over": 775,
      "lear": 776,
      "includ": 777,
      "sp": 778,
      "##erv": 779,
      "##stem": 780,
      "##ose": 781,
      "How": 782,
      "##ood": 783,
      "##row": 784,
      "redu": 785,
      "##aking": 786,
      "##ally": 787,
      "##nder": 788,
      "##ren": 789,
      "##alth": 790,
      "its": 791,
      "##get": 792,
      "ll": 793,
      "act": 794,
      "##hing": 795,
      "##oy": 796,
      "ind": 797,
      "used": 798,
      "##ful": 799,
      "##ery": 800,
      "##ities": 801,
      "##ress": 802,
      "##ors": 803,
      "should": 804,
      "into": 805,
      "rec": 806,
      "there": 807,
      "##ia": 808,
      "##gy": 809,
      "pre": 810,
      "##ks": 811,
      "car": 812,
      "per": 813,
      "##lect": 814,
      "had": 815,
      "##ild": 816,
      "her": 817,
      "##ru": 818,
      "bus": 819,
      "##chn": 820,
      "##ener": 821,
      "##ber": 822,
      "but": 823,
      "On": 824,
      "##ility": 825,
      "##erson": 826,
      "dec": 827,
      "how": 828,
      "##ience": 829,
      "##lic": 830,
      "inv": 831,
      "product": 832,
      "system": 833,
      "cons": 834,
      "who": 835,
      "##ople": 836,
      "##olog": 837,
      "##ving": 838,
      "##ments": 839,
      "id": 840,
      "inform": 841,
      "##ting": 842,
      "ag": 843,
      "##ange": 844,
      "under": 845,
      "get": 846,
      "differ": 847,
      "our": 848,
      "techn": 849,
      "##ory": 850,
      "##ire": 851,
      "col": 852,
      "sm": 853,
      "health": 854,
      "acc": 855,
      "##ating": 856,
      "They": 857,
      "##amp": 858,
      "##ens": 859,
      "import": 860,
      "##ased": 861,
      "does": 862,
      "**": 863,
      "##ons": 864,
      "##we": 865,
      "people": 866,
      "##ures": 867,
      "ph": 868,
      "rel": 869,
      "impro": 870,
      "##velop": 871,
      "am": 872,
      "may": 873,
      "St": 874,
      "##ft": 875,
      "bu": 876,
      "##ient": 877,
      "Do": 878,
      "when": 879,
      "##rough": 880,
      "##reate": 881,
      "##ize": 882,
      "tw": 883,
      "ke": 884,
      "been": 885,
      "process": 886,
      "em": 887,
      "part": 888,
      "##ious": 889,
      "good": 890,
      "##ergy": 891,
      "##ick": 892,
      "##xt": 893,
      "him": 894,
      "##ife": 895,
      "##iness": 896,
      "##ular": 897,
      "here": 898,
      "##ond": 899,
      "She": 900,
      "##ential": 901,
      "than": 902,
      "##alk": 903,
      "exper": 904,
      "were": 905,
      "pos": 906,
      "##ten": 907,
      "every": 908,
      "##ices": 909,
      "very": 910,
      "person": 911,
      "where": 912,
      "way": 913,
      "mod": 914,
      "##riend": 915,
      "bl": 916,
      "energy": 917,
      "##ower": 918,
      "##rib": 919,
      "through": 920,
      "##pl": 921,
      "ro": 922,
      "##ought": 923,
      "##au": 924,
      "##ms": 925,
      "##ov": 926,
      "information": 927,
      "##ates": 928,
      "##ave": 929,
      "no": 930,
      "##ise": 931,
      "co": 932,
      "##ove": 933,
      "##ict": 934,
      "##its": 935,
      "##ract": 936,
      "##ings": 937,
      "going": 938,
      "two": 939,
      "fl": 940,
      "##als": 941,
      "##ollow": 942,
      "happ": 943,
      "##ics": 944,
      "##ss": 945,
      "##ys": 946,
      "sol": 947,
      "##igh": 948,
      "##ene": 949,
      "if": 950,
      "##ck": 951,
      "develop": 952,
      "effect": 953,
      "well": 954,
      "##ord": 955,
      "add": 956,
      "important": 957,
      "##elf": 958,
      "look": 959,
      "incre": 960,
      "##pport": 961,
      "##ible": 962,
      "list": 963,
      "##te": 964,
      "##ns": 965,
      "##stand": 966,
      "home": 967,
      "med": 968,
      "take": 969,
      "##ject": 970,
      "trans": 971,
      "stud": 972,
      "##oth": 973,
      "op": 974,
      "back": 975,
      "##gr": 976,
      "follow": 977,
      "##gan": 978,
      "serv": 979,
      "business": 980,
      "soc": 981,
      "see": 982,
      "##int": 983,
      "spec": 984,
      "##thing": 985,
      "water": 986,
      "There": 987,
      "learning": 988,
      "reg": 989,
      "play": 990,
      "##anc": 991,
      "friend": 992,
      "plan": 993,
      "##bs": 994,
      "off": 995,
      "using": 996,
      "##arket": 997,
      "rem": 998,
      "##ish": 999,
      "many": 1000,
      "##ween": 1001,
      "##ather": 1002,
      "##any": 1003,
      "##day": 1004,
      "between": 1005,
      "customer": 1006,
      "di": 1007,
      "##ution": 1008,
      "Whe": 1009,
      "rep": 1010,
      "##mm": 1011,
      "##omet": 1012,
      "##iss": 1013,
      "num": 1014,
      "just": 1015,
      "long": 1016,
      "##ib": 1017,
      "while": 1018,
      "##own": 1019,
      "##ural": 1020,
      "told": 1021,
      "three": 1022,
      "understand": 1023,
      "day": 1024,
      "##ify": 1025,
      "hand": 1026,
      "##hes": 1027,
      "find": 1028,
      "##ily": 1029,
      "##ert": 1030,
      "##gg": 1031,
      "adv": 1032,
      "bec": 1033,
      "##pect": 1034,
      "provid": 1035,
      "##erm": 1036,
      "##iven": 1037,
      "reduce": 1038,
      "var": 1039,
      "##enc": 1040,
      "improve": 1041,
      "##rit": 1042,
      "ass": 1043,
      "year": 1044,
      "That": 1045,
      "##ology": 1046,
      "po": 1047,
      "##arm": 1048,
      "allow": 1049,
      "she": 1050,
      "##ized": 1051,
      "##other": 1052,
      "eas": 1053,
      "##line": 1054,
      "world": 1055,
      "fin": 1056,
      "ty": 1057,
      "set": 1058,
      "##ade": 1059,
      "met": 1060,
      "commun": 1061,
      "each": 1062,
      "most": 1063,
      "##ody": 1064,
      "##res": 1065,
      "sign": 1066,
      "sk": 1067,
      "lead": 1068,
      "these": 1069,
      "gr": 1070,
      "tell": 1071,
      "market": 1072,
      "said": 1073,
      "provide": 1074,
      "proble": 1075,
      "eng": 1076,
      "never": 1077,
      "making": 1078,
      "##hed": 1079,
      "Ch": 1080,
      "##ivid": 1081,
      "Bost": 1082,
      "Boston": 1083,
      "##irst": 1084,
      "##iron": 1085,
      "##viron": 1086,
      "life": 1087,
      "ask": 1088,
      "br": 1089,
      "read": 1090,
      "det": 1091,
      "different": 1092,
      "val": 1093,
      "model": 1094,
      "mu": 1095,
      "##ph": 1096,
      "##ware": 1097,
      "comput": 1098,
      "cle": 1099,
      "##ages": 1100,
      "##ves": 1101,
      "creat": 1102,
      "att": 1103,
      "often": 1104,
      "##ub": 1105,
      "vis": 1106,
      "##ences": 1107,
      "##ative": 1108,
      "##ock": 1109,
      "doesn": 1110,
      "design": 1111,
      "##ness": 1112,
      "##ven": 1113,
      "##urn": 1114,
      "##vironment": 1115,
      "gl": 1116,
      "##wn": 1117,
      "high": 1118,
      "pat": 1119,
      "main": 1120,
      "AI": 1121,
      "liv": 1122,
      "##enerate": 1123,
      "ec": 1124,
      "book": 1125,
      "sec": 1126,
      "right": 1127,
      "being": 1128,
      "art": 1129,
      "sur": 1130,
      "somet": 1131,
      "comple": 1132,
      "##read": 1133,
      "come": 1134,
      "resp": 1135,
      "hum": 1136,
      "feel": 1137,
      "##ature": 1138,
      "prom": 1139,
      "##ouse": 1140,
      "##ources": 1141,
      "min": 1142,
      "anal": 1143,
      "pot": 1144,
      "##uring": 1145,
      "##duc": 1146,
      "lar": 1147,
      "##ew": 1148,
      "environment": 1149,
      "examp": 1150,
      "##onom": 1151,
      "inst": 1152,
      "now": 1153,
      "much": 1154,
      "An": 1155,
      "En": 1156,
      "talk": 1157,
      "##oney": 1158,
      "##vers": 1159,
      "##ividual": 1160,
      "##ited": 1161,
      "Ad": 1162,
      "##gor": 1163,
      "ide": 1164,
      "##ction": 1165,
      "##iqu": 1166,
      "che": 1167,
      "##ues": 1168,
      "##lease": 1169,
      "##ways": 1170,
      "Why": 1171,
      "Re": 1172,
      "One": 1173,
      "##ved": 1174,
      "better": 1175,
      "##iet": 1176,
      "only": 1177,
      "##fore": 1178,
      "individual": 1179,
      "##ork": 1180,
      "organ": 1181,
      "emp": 1182,
      "made": 1183,
      "start": 1184,
      "result": 1185,
      "food": 1186,
      "##itive": 1187,
      "disc": 1188,
      "impact": 1189,
      "grow": 1190,
      "step": 1191,
      "expl": 1192,
      "##ty": 1193,
      "Ex": 1194,
      "conc": 1195,
      "dri": 1196,
      "##ll": 1197,
      "Here": 1198,
      "care": 1199,
      "even": 1200,
      "##ric": 1201,
      "##dition": 1202,
      "class": 1203,
      "Des": 1204,
      "##hip": 1205,
      "bel": 1206,
      "quest": 1207,
      "Can": 1208,
      "down": 1209,
      "create": 1210,
      "job": 1211,
      "first": 1212,
      "##up": 1213,
      "cost": 1214,
      "requ": 1215,
      "sure": 1216,
      "technology": 1217,
      "fam": 1218,
      "based": 1219,
      "pol": 1220,
      "thought": 1221,
      "count": 1222,
      "money": 1223,
      "great": 1224,
      "social": 1225,
      "tas": 1226,
      "These": 1227,
      "change": 1228,
      "If": 1229,
      "invol": 1230,
      "##ool": 1231,
      "including": 1232,
      "af": 1233,
      "power": 1234,
      "activ": 1235,
      "include": 1236,
      "something": 1237,
      "always": 1238,
      "pop": 1239,
      "##der": 1240,
      "access": 1241,
      "Pro": 1242,
      "fun": 1243,
      "pur": 1244,
      "call": 1245,
      "got": 1246,
      "decis": 1247,
      "char": 1248,
      "##iew": 1249,
      "ens": 1250,
      "My": 1251,
      "both": 1252,
      "let": 1253,
      "##ax": 1254,
      "fi": 1255,
      "must": 1256,
      "##ases": 1257,
      "##akes": 1258,
      "##achine": 1259,
      "Is": 1260,
      "user": 1261,
      "Don": 1262,
      "##gram": 1263,
      "sim": 1264,
      "potential": 1265,
      "ref": 1266,
      "chang": 1267,
      "perform": 1268,
      "personal": 1269,
      "##ines": 1270,
      "opt": 1271,
      "##ards": 1272,
      "too": 1273,
      "example": 1274,
      "following": 1275,
      "pres": 1276,
      "appro": 1277,
      "experience": 1278,
      "effic": 1279,
      "ca": 1280,
      "loc": 1281,
      "company": 1282,
      "again": 1283,
      "##angu": 1284,
      "customers": 1285,
      "##ually": 1286,
      "##crib": 1287,
      "ob": 1288,
      "why": 1289,
      "train": 1290,
      "##pend": 1291,
      "gra": 1292,
      "##ider": 1293,
      "As": 1294,
      "signific": 1295,
      "##ccess": 1296,
      "##ieve": 1297,
      "level": 1298,
      "happen": 1299,
      "##entify": 1300,
      "##cept": 1301,
      "##rench": 1302,
      "stay": 1303,
      "isn": 1304,
      "child": 1305,
      "keep": 1306,
      "given": 1307,
      "##ants": 1308,
      "##old": 1309,
      "##ause": 1310,
      "ins": 1311,
      "French": 1312,
      "still": 1313,
      "program": 1314,
      "form": 1315,
      "before": 1316,
      "team": 1317,
      "top": 1318,
      "##ization": 1319,
      "Did": 1320,
      "problem": 1321,
      "##enef": 1322,
      "number": 1323,
      "##ability": 1324,
      "small": 1325,
      "poss": 1326,
      "##ital": 1327,
      "gu": 1328,
      "communic": 1329,
      "aut": 1330,
      "ret": 1331,
      "support": 1332,
      "##led": 1333,
      "sever": 1334,
      "own": 1335,
      "##gorith": 1336,
      "##ried": 1337,
      "needs": 1338,
      "light": 1339,
      "##self": 1340,
      "langu": 1341,
      "Con": 1342,
      "##ying": 1343,
      "learn": 1344,
      "significant": 1345,
      "summ": 1346,
      "ris": 1347,
      "ear": 1348,
      "cho": 1349,
      "beh": 1350,
      "Generate": 1351,
      "##loy": 1352,
      "anything": 1353,
      "##ner": 1354,
      "mon": 1355,
      "##ries": 1356,
      "last": 1357,
      "##atural": 1358,
      "elect": 1359,
      "##atch": 1360,
      "##ever": 1361,
      "algorith": 1362,
      "air": 1363,
      "##ian": 1364,
      "dr": 1365,
      "20": 1366,
      "econom": 1367,
      "De": 1368,
      "prot": 1369,
      "##tain": 1370,
      "benef": 1371,
      "##imate": 1372,
      "##put": 1373,
      "##atures": 1374,
      "Com": 1375,
      "la": 1376,
      "av": 1377,
      "webs": 1378,
      "##ired": 1379,
      "specific": 1380,
      "##**": 1381,
      "##ank": 1382,
      "key": 1383,
      "##ically": 1384,
      "##cing": 1385,
      "bre": 1386,
      "human": 1387,
      "soft": 1388,
      "ess": 1389,
      "wa": 1390,
      "##port": 1391,
      "meet": 1392,
      "##eng": 1393,
      "Create": 1394,
      "inf": 1395,
      "##reen": 1396,
      "##ied": 1397,
      "gener": 1398,
      "end": 1399,
      "lot": 1400,
      "old": 1401,
      "##chool": 1402,
      "pass": 1403,
      "##ling": 1404,
      "won": 1405,
      "years": 1406,
      "fact": 1407,
      "##ts": 1408,
      ":**": 1409,
      "able": 1410,
      "around": 1411,
      "When": 1412,
      "##ional": 1413,
      "mem": 1414,
      "success": 1415,
      "##ee": 1416,
      "bo": 1417,
      "hard": 1418,
      ").": 1419,
      "##oup": 1420,
      "##iety": 1421,
      "##oss": 1422,
      "Un": 1423,
      "say": 1424,
      "##work": 1425,
      "19": 1426,
      "best": 1427,
      "##yc": 1428,
      "real": 1429,
      "Let": 1430,
      "manage": 1431,
      "For": 1432,
      "large": 1433,
      "##ency": 1434,
      "##ills": 1435,
      "computer": 1436,
      "today": 1437,
      "toget": 1438,
      "build": 1439,
      "together": 1440,
      "##tle": 1441,
      "##tern": 1442,
      "prof": 1443,
      "##air": 1444,
      "##cribe": 1445,
      "several": 1446,
      "really": 1447,
      "pred": 1448,
      "##nect": 1449,
      "equ": 1450,
      "##ables": 1451,
      "By": 1452,
      "##ron": 1453,
      "dist": 1454,
      "##leep": 1455,
      "machine": 1456,
      "natural": 1457,
      "partic": 1458,
      "sit": 1459,
      "online": 1460,
      "iss": 1461,
      "common": 1462,
      "show": 1463,
      "interest": 1464,
      "##ately": 1465,
      "sal": 1466,
      "house": 1467,
      "##vent": 1468,
      "Are": 1469,
      "typ": 1470,
      "##ier": 1471,
      "school": 1472,
      "increase": 1473,
      "media": 1474,
      "##ral": 1475,
      "systems": 1476,
      "found": 1477,
      "friends": 1478,
      "eat": 1479,
      "##ational": 1480,
      "##ocus": 1481,
      "temp": 1482,
      "cur": 1483,
      "tasks": 1484,
      "##ds": 1485,
      "then": 1486,
      "##ruct": 1487,
      "im": 1488,
      "##ope": 1489,
      "promot": 1490,
      "love": 1491,
      "charact": 1492,
      "rest": 1493,
      "bro": 1494,
      "service": 1495,
      "without": 1496,
      "ser": 1497,
      "##ems": 1498,
      "speak": 1499,
      "Am": 1500,
      "##ars": 1501,
      "analy": 1502,
      "wanted": 1503,
      "dev": 1504,
      "open": 1505,
      "##lement": 1506,
      "##ives": 1507,
      "language": 1508,
      "website": 1509,
      "ach": 1510,
      "##ream": 1511,
      "##ted": 1512,
      "content": 1513,
      "software": 1514,
      "contin": 1515,
      "mov": 1516,
      "ensure": 1517,
      "##icult": 1518,
      "development": 1519,
      "point": 1520,
      "meth": 1521,
      "del": 1522,
      "family": 1523,
      "consider": 1524,
      "10": 1525,
      "##here": 1526,
      "##way": 1527,
      "wait": 1528,
      "focus": 1529,
      "##ense": 1530,
      "def": 1531,
      "wr": 1532,
      "qual": 1533,
      "wee": 1534,
      "room": 1535,
      "place": 1536,
      "knew": 1537,
      "possible": 1538,
      "Over": 1539,
      "employ": 1540,
      "order": 1541,
      "phys": 1542,
      "##ggest": 1543,
      "products": 1544,
      "done": 1545,
      "left": 1546,
      "interact": 1547,
      "##aging": 1548,
      "diff": 1549,
      "sub": 1550,
      "##per": 1551,
      "asked": 1552,
      "next": 1553,
      "bra": 1554,
      "sl": 1555,
      "cor": 1556,
      "##ively": 1557,
      "text": 1558,
      "stru": 1559,
      "method": 1560,
      "ext": 1561,
      "tre": 1562,
      "offer": 1563,
      "##ublic": 1564,
      "protect": 1565,
      "chall": 1566,
      "known": 1567,
      "mat": 1568,
      "tool": 1569,
      "reducing": 1570,
      "educ": 1571,
      "wasn": 1572,
      "##wer": 1573,
      "##aug": 1574,
      "conf": 1575,
      "easy": 1576,
      "lit": 1577,
      "##oura": 1578,
      "indust": 1579,
      "difficult": 1580,
      "strate": 1581,
      "users": 1582,
      "pract": 1583,
      "features": 1584,
      "name": 1585,
      "##aut": 1586,
      "others": 1587,
      "##ogn": 1588,
      "##earch": 1589,
      "give": 1590,
      "predict": 1591,
      "various": 1592,
      "aud": 1593,
      "amount": 1594,
      "respons": 1595,
      "##view": 1596,
      "##orrow": 1597,
      "##uture": 1598,
      "individuals": 1599,
      "same": 1600,
      "ways": 1601,
      "##els": 1602,
      "dem": 1603,
      "##irt": 1604,
      "applic": 1605,
      "##ared": 1606,
      "store": 1607,
      "repres": 1608,
      "strong": 1609,
      "net": 1610,
      "contro": 1611,
      "##vern": 1612,
      "state": 1613,
      "sw": 1614,
      "connect": 1615,
      "resources": 1616,
      "However": 1617,
      "##ellig": 1618,
      "##ination": 1619,
      "fu": 1620,
      "Who": 1621,
      "essential": 1622,
      "involves": 1623,
      "Some": 1624,
      "Please": 1625,
      "##cc": 1626,
      "##ced": 1627,
      "With": 1628,
      "effective": 1629,
      "##asing": 1630,
      "writ": 1631,
      "children": 1632,
      "test": 1633,
      "future": 1634,
      "invest": 1635,
      "saf": 1636,
      "##ivity": 1637,
      "mar": 1638,
      "identify": 1639,
      "buy": 1640,
      "doing": 1641,
      "mult": 1642,
      "tom": 1643,
      "benefits": 1644,
      "clear": 1645,
      "##ze": 1646,
      "##ribut": 1647,
      "businesses": 1648,
      "accur": 1649,
      "##joy": 1650,
      "efficient": 1651,
      "##ism": 1652,
      ",.": 1653,
      "cal": 1654,
      "##pportun": 1655,
      "Describe": 1656,
      "working": 1657,
      "enc": 1658,
      "##ger": 1659,
      "break": 1660,
      "clean": 1661,
      "##ised": 1662,
      "unt": 1663,
      "services": 1664,
      "story": 1665,
      "hope": 1666,
      "minut": 1667,
      "depend": 1668,
      "##ins": 1669,
      "mus": 1670,
      "relations": 1671,
      "marketing": 1672,
      "leave": 1673,
      "students": 1674,
      "steps": 1675,
      "##aring": 1676,
      "providing": 1677,
      "mind": 1678,
      "Where": 1679,
      "idea": 1680,
      "quality": 1681,
      "changes": 1682,
      "caus": 1683,
      "Be": 1684,
      "helps": 1685,
      "##ulation": 1686,
      "behav": 1687,
      "##oh": 1688,
      "wind": 1689,
      "cook": 1690,
      "##ath": 1691,
      "meas": 1692,
      "aff": 1693,
      "opportun": 1694,
      "##lev": 1695,
      "##ets": 1696,
      "until": 1697,
      "walk": 1698,
      "object": 1699,
      "el": 1700,
      "##pr": 1701,
      "email": 1702,
      "run": 1703,
      "##bers": 1704,
      "temper": 1705,
      "live": 1706,
      "##ibility": 1707,
      "went": 1708,
      "communication": 1709,
      "sleep": 1710,
      "##ior": 1711,
      "climate": 1712,
      "##ready": 1713,
      "five": 1714,
      "oper": 1715,
      "##erc": 1716,
      "already": 1717,
      "##ients": 1718,
      "turn": 1719,
      "warm": 1720,
      "week": 1721,
      "sho": 1722,
      "Expl": 1723,
      "##obal": 1724,
      "##ique": 1725,
      "everything": 1726,
      "type": 1727,
      "Once": 1728,
      "green": 1729,
      "sat": 1730,
      "pri": 1731,
      "##ental": 1732,
      "project": 1733,
      "Su": 1734,
      "group": 1735,
      "Overall": 1736,
      "relationship": 1737,
      "public": 1738,
      "growth": 1739,
      "night": 1740,
      "after": 1741,
      "game": 1742,
      "sing": 1743,
      "##bon": 1744,
      "goals": 1745,
      "pain": 1746,
      "##ilities": 1747,
      "complex": 1748,
      "pay": 1749,
      "##ancial": 1750,
      "ans": 1751,
      "##ple": 1752,
      "##urity": 1753,
      "hist": 1754,
      "##ember": 1755,
      "##pping": 1756,
      "##ined": 1757,
      "ful": 1758,
      "cap": 1759,
      "cent": 1760,
      "determ": 1761,
      "##ix": 1762,
      "transport": 1763,
      "risk": 1764,
      "skills": 1765,
      "knows": 1766,
      "To": 1767,
      "##back": 1768,
      "dig": 1769,
      "another": 1770,
      "might": 1771,
      "stor": 1772,
      "##elligence": 1773,
      "assist": 1774,
      "quick": 1775,
      "means": 1776,
      "##osp": 1777,
      "##arget": 1778,
      "exc": 1779,
      "ability": 1780,
      "questions": 1781,
      "##arch": 1782,
      "land": 1783,
      "##less": 1784,
      "physical": 1785,
      "sun": 1786,
      "few": 1787,
      "intern": 1788,
      "positive": 1789,
      "mean": 1790,
      "audience": 1791,
      "reas": 1792,
      "##aterial": 1793,
      "present": 1794,
      "govern": 1795,
      "##ention": 1796,
      "fiel": 1797,
      "performance": 1798,
      "##ode": 1799,
      "Pl": 1800,
      "waste": 1801,
      "sources": 1802,
      "away": 1803,
      "stand": 1804,
      "##omm": 1805,
      "##ertain": 1806,
      "##iver": 1807,
      "feed": 1808,
      "##dit": 1809,
      "things": 1810,
      "enjoy": 1811,
      "looking": 1812,
      "challeng": 1813,
      "decision": 1814,
      "put": 1815,
      "win": 1816,
      "##abor": 1817,
      "city": 1818,
      "##body": 1819,
      "beaut": 1820,
      "free": 1821,
      "##ains": 1822,
      "Every": 1823,
      "less": 1824,
      "hour": 1825,
      "##acy": 1826,
      "control": 1827,
      "cr": 1828,
      "##ime": 1829,
      "##uss": 1830,
      "overall": 1831,
      "##ats": 1832,
      "mess": 1833,
      "target": 1834,
      "financial": 1835,
      "cult": 1836,
      "Use": 1837,
      "##wards": 1838,
      "carbon": 1839,
      "represent": 1840,
      "##izing": 1841,
      "##usion": 1842,
      "material": 1843,
      "stress": 1844,
      "##aper": 1845,
      "poll": 1846,
      "during": 1847,
      "lay": 1848,
      "##00": 1849,
      "sent": 1850,
      "##omes": 1851,
      "within": 1852,
      "address": 1853,
      "activities": 1854,
      "##ne": 1855,
      "anim": 1856,
      "##ularly": 1857,
      "##pped": 1858,
      "believe": 1859,
      "summary": 1860,
      "##oid": 1861,
      "ever": 1862,
      "##ret": 1863,
      "##raph": 1864,
      "Al": 1865,
      "track": 1866,
      "healthy": 1867,
      "maintain": 1868,
      "become": 1869,
      "character": 1870,
      "enough": 1871,
      "body": 1872,
      "##care": 1873,
      "allows": 1874,
      "##cessary": 1875,
      "recogn": 1876,
      "tomorrow": 1877,
      "struct": 1878,
      "prevent": 1879,
      "question": 1880,
      "Addition": 1881,
      "##oon": 1882,
      "fac": 1883,
      "research": 1884,
      "global": 1885,
      "answer": 1886,
      "##oud": 1887,
      "hy": 1888,
      "##anced": 1889,
      "travel": 1890,
      "##io": 1891,
      "sust": 1892,
      "levels": 1893,
      "mot": 1894,
      "wants": 1895,
      "those": 1896,
      "taking": 1897,
      "youn": 1898,
      "ter": 1899,
      "because": 1900,
      "Aust": 1901,
      "##ross": 1902,
      "##atform": 1903,
      "try": 1904,
      "##ificial": 1905,
      "sustain": 1906,
      "##rent": 1907,
      "role": 1908,
      "little": 1909,
      "Explain": 1910,
      "##ished": 1911,
      "range": 1912,
      "##ming": 1913,
      "mor": 1914,
      "##issions": 1915,
      "##eric": 1916,
      "ent": 1917,
      "##nds": 1918,
      "##pose": 1919,
      "Additionally": 1920,
      "account": 1921,
      "decisions": 1922,
      "happened": 1923,
      "reach": 1924,
      "lives": 1925,
      "Cl": 1926,
      "move": 1927,
      "yet": 1928,
      "Imp": 1929,
      "dog": 1930,
      "##ression": 1931,
      "comb": 1932,
      "areas": 1933,
      "Joh": 1934,
      "situ": 1935,
      "function": 1936,
      "##orts": 1937,
      "creating": 1938,
      "##arent": 1939,
      "##ysis": 1940,
      "platform": 1941,
      "minutes": 1942,
      "##enew": 1943,
      "law": 1944,
      "##ash": 1945,
      "education": 1946,
      "##ump": 1947,
      "experi": 1948,
      "happy": 1949,
      "rain": 1950,
      "leading": 1951,
      "United": 1952,
      "suggest": 1953,
      "collect": 1954,
      "##rop": 1955,
      "behavior": 1956,
      "Name": 1957,
      "saw": 1958,
      "popular": 1959,
      "##over": 1960,
      "Sh": 1961,
      "##ester": 1962,
      "provides": 1963,
      "expect": 1964,
      "##ights": 1965,
      "##olution": 1966,
      "##isf": 1967,
      "items": 1968,
      "head": 1969,
      "someone": 1970,
      "Have": 1971,
      "deep": 1972,
      "Americ": 1973,
      "##iple": 1974,
      "economic": 1975,
      "##lu": 1976,
      "understanding": 1977,
      "Eng": 1978,
      "usually": 1979,
      "##ince": 1980,
      "share": 1981,
      "##avor": 1982,
      "drink": 1983,
      "came": 1984,
      "##illed": 1985,
      "Austral": 1986,
      "##ape": 1987,
      "supp": 1988,
      "##aj": 1989,
      "require": 1990,
      "##ots": 1991,
      "##ward": 1992,
      "color": 1993,
      "value": 1994,
      "security": 1995,
      "##ffic": 1996,
      "Your": 1997,
      "healthcare": 1998,
      "Make": 1999,
      "##ript": 2000,
      "avail": 2001,
      "concept": 2002,
      "countries": 2003,
      "##terns": 2004,
      "John": 2005,
      "##ote": 2006,
      "management": 2007,
      "profess": 2008,
      "engage": 2009,
      "bas": 2010,
      "Australia": 2011,
      "dire": 2012,
      "hot": 2013,
      "##lish": 2014,
      "algorithms": 2015,
      "necessary": 2016,
      "##ists": 2017,
      "ey": 2018,
      "miss": 2019,
      "transportation": 2020,
      "sn": 2021,
      "weather": 2022,
      "##iques": 2023,
      "patterns": 2024,
      "purch": 2025,
      "const": 2026,
      "neg": 2027,
      "##ances": 2028,
      "##enewable": 2029,
      "##cial": 2030,
      "##ident": 2031,
      "intelligence": 2032,
      "Ind": 2033,
      "addition": 2034,
      "##ees": 2035,
      "##osed": 2036,
      "implement": 2037,
      "country": 2038,
      "living": 2039,
      "post": 2040,
      "log": 2041,
      "##ource": 2042,
      "##cu": 2043,
      "##ides": 2044,
      "prefer": 2045,
      "heart": 2046,
      "watch": 2047,
      "current": 2048,
      "tri": 2049,
      "algorithm": 2050,
      "seen": 2051,
      "mil": 2052,
      "times": 2053,
      "##most": 2054,
      "##itor": 2055,
      "emissions": 2056,
      "##anies": 2057,
      "Se": 2058,
      "certain": 2059,
      "##nding": 2060,
      "unique": 2061,
      "##__": 2062,
      "##iency": 2063,
      "Ar": 2064,
      "imm": 2065,
      "No": 2066,
      "month": 2067,
      "##rast": 2068,
      "phone": 2069,
      "feedback": 2070,
      "allowing": 2071,
      "pie": 2072,
      "##gin": 2073,
      "kind": 2074,
      "big": 2075,
      "self": 2076,
      "needed": 2077,
      "input": 2078,
      "flow": 2079,
      "ele": 2080,
      "##inc": 2081,
      "Af": 2082,
      "##ead": 2083,
      "called": 2084,
      "anyone": 2085,
      "dep": 2086,
      "makes": 2087,
      "##irl": 2088,
      "techniques": 2089,
      "lim": 2090,
      "autom": 2091,
      "Te": 2092,
      "cup": 2093,
      "est": 2094,
      "problems": 2095,
      "father": 2096,
      "##oot": 2097,
      "##ditions": 2098,
      "##esterday": 2099,
      "##apt": 2100,
      "expens": 2101,
      "achieve": 2102,
      "##cul": 2103,
      "search": 2104,
      "results": 2105,
      "prop": 2106,
      "Go": 2107,
      "table": 2108,
      "##agn": 2109,
      "treat": 2110,
      "action": 2111,
      "term": 2112,
      "contribut": 2113,
      "##duce": 2114,
      "teac": 2115,
      "detail": 2116,
      "##ommend": 2117,
      "short": 2118,
      "took": 2119,
      "space": 2120,
      "network": 2121,
      "##ledge": 2122,
      "hig": 2123,
      "late": 2124,
      "training": 2125,
      "lost": 2126,
      "works": 2127,
      "##rite": 2128,
      "##ourage": 2129,
      "events": 2130,
      "rob": 2131,
      "veget": 2132,
      "satisf": 2133,
      "##aster": 2134,
      "##for": 2135,
      "fil": 2136,
      "factors": 2137,
      "structure": 2138,
      "else": 2139,
      "movie": 2140,
      "camp": 2141,
      "##ern": 2142,
      "event": 2143,
      "!.": 2144,
      "wrong": 2145,
      "line": 2146,
      "quickly": 2147,
      "analysis": 2148,
      "##action": 2149,
      "\".": 2150,
      "##face": 2151,
      "emot": 2152,
      "maj": 2153,
      "##irtual": 2154,
      "wond": 2155,
      "dise": 2156,
      "remember": 2157,
      "bal": 2158,
      "##cript": 2159,
      "Comp": 2160,
      "##alu": 2161,
      "visit": 2162,
      "heat": 2163,
      "bi": 2164,
      "young": 2165,
      "##ently": 2166,
      "temperature": 2167,
      "study": 2168,
      "successful": 2169,
      "polic": 2170,
      "engine": 2171,
      "tools": 2172,
      "##ames": 2173,
      "fre": 2174,
      "books": 2175,
      "issues": 2176,
      "increasing": 2177,
      "##unch": 2178,
      "busy": 2179,
      "ideas": 2180,
      "yourself": 2181,
      "low": 2182,
      "phot": 2183,
      "##erous": 2184,
      "alone": 2185,
      "coll": 2186,
      "##ering": 2187,
      "States": 2188,
      "##ditional": 2189,
      "##lusion": 2190,
      "friendly": 2191,
      "trust": 2192,
      "yesterday": 2193,
      "nothing": 2194,
      "recommend": 2195,
      "government": 2196,
      "likely": 2197,
      "##ycle": 2198,
      "history": 2199,
      "Write": 2200,
      "girl": 2201,
      "news": 2202,
      "having": 2203,
      "##ires": 2204,
      "rece": 2205,
      "discuss": 2206,
      "prep": 2207,
      "music": 2208,
      "##ese": 2209,
      "everyone": 2210,
      "##icle": 2211,
      "listen": 2212,
      "devices": 2213,
      "dra": 2214,
      "##ale": 2215,
      "##ograph": 2216,
      "cour": 2217,
      "##mb": 2218,
      "explain": 2219,
      "simple": 2220,
      "optim": 2221,
      "sense": 2222,
      "population": 2223,
      "towards": 2224,
      "Us": 2225,
      "major": 2226,
      "days": 2227,
      "Take": 2228,
      "ap": 2229,
      "effectively": 2230,
      "electric": 2231,
      "difference": 2232,
      "**:": 2233,
      "bir": 2234,
      "paper": 2235,
      "##ffee": 2236,
      "##sc": 2237,
      "industry": 2238,
      "methods": 2239,
      "pollution": 2240,
      "building": 2241,
      "##levant": 2242,
      "##gress": 2243,
      "compet": 2244,
      "renewable": 2245,
      "##az": 2246,
      "##arth": 2247,
      "consum": 2248,
      "approach": 2249,
      "challenges": 2250,
      "morning": 2251,
      "occ": 2252,
      "##iful": 2253,
      "exerc": 2254,
      "##yle": 2255,
      "area": 2256,
      "enter": 2257,
      "##ivers": 2258,
      "bought": 2259,
      "true": 2260,
      "mist": 2261,
      "conditions": 2262,
      "couldn": 2263,
      "##ining": 2264,
      "##fort": 2265,
      "affect": 2266,
      "At": 2267,
      "soon": 2268,
      "digital": 2269,
      "##more": 2270,
      "##eep": 2271,
      "lo": 2272,
      "opportunities": 2273,
      "teacher": 2274,
      "inn": 2275,
      "gas": 2276,
      "tax": 2277,
      "visual": 2278,
      "crit": 2279,
      "##cle": 2280,
      "hours": 2281,
      "door": 2282,
      "strateg": 2283,
      "field": 2284,
      "smart": 2285,
      "##ium": 2286,
      "mo": 2287,
      "##urther": 2288,
      "knowledge": 2289,
      "##ording": 2290,
      "stop": 2291,
      "##let": 2292,
      "bring": 2293,
      "companies": 2294,
      "due": 2295,
      "gave": 2296,
      "nut": 2297,
      "##ones": 2298,
      "##lex": 2299,
      "activity": 2300,
      "beautiful": 2301,
      "press": 2302,
      "influ": 2303,
      "costs": 2304,
      "local": 2305,
      "issue": 2306,
      "early": 2307,
      "##istic": 2308,
      "includes": 2309,
      "cause": 2310,
      "leav": 2311,
      "park": 2312,
      "available": 2313,
      "coffee": 2314,
      "Jap": 2315,
      "cold": 2316,
      "Id": 2317,
      "harm": 2318,
      "##ging": 2319,
      "options": 2320,
      "Japan": 2321,
      "face": 2322,
      "##imately": 2323,
      "materials": 2324,
      "sound": 2325,
      "Earth": 2326,
      "multiple": 2327,
      "hab": 2328,
      "Sc": 2329,
      "employees": 2330,
      "web": 2331,
      "code": 2332,
      "drive": 2333,
      "arg": 2334,
      "bad": 2335,
      "##vert": 2336,
      "price": 2337,
      "All": 2338,
      "traditional": 2339,
      "scient": 2340,
      "Inc": 2341,
      "wonder": 2342,
      "parent": 2343,
      "medical": 2344,
      "save": 2345,
      "check": 2346,
      "view": 2347,
      "sustainable": 2348,
      "##raid": 2349,
      "##gred": 2350,
      "values": 2351,
      "leg": 2352,
      "trying": 2353,
      "ready": 2354,
      "30": 2355,
      "##ided": 2356,
      "afraid": 2357,
      "demand": 2358,
      "vari": 2359,
      "Person": 2360,
      "easier": 2361,
      "relevant": 2362,
      "generate": 2363,
      "Tell": 2364,
      "against": 2365,
      "##ising": 2366,
      "select": 2367,
      "married": 2368,
      "Res": 2369,
      "##utions": 2370,
      "artificial": 2371,
      "##aur": 2372,
      "enh": 2373,
      "cell": 2374,
      "designed": 2375,
      "swim": 2376,
      "Give": 2377,
      "favor": 2378,
      "efficiency": 2379,
      "lower": 2380,
      "##ane": 2381,
      "increased": 2382,
      "heard": 2383,
      "advant": 2384,
      "##ification": 2385,
      "wouldn": 2386,
      "fore": 2387,
      "loss": 2388,
      "Int": 2389,
      "##land": 2390,
      "getting": 2391,
      "##resh": 2392,
      "typically": 2393,
      "situation": 2394,
      "##ories": 2395,
      "plant": 2396,
      "past": 2397,
      "##idence": 2398,
      "##house": 2399,
      "##word": 2400,
      "thir": 2401,
      "effects": 2402,
      "setting": 2403,
      "elements": 2404,
      "progress": 2405,
      "analyze": 2406,
      "pers": 2407,
      "points": 2408,
      "May": 2409,
      "among": 2410,
      "##obile": 2411,
      "types": 2412,
      "##gredients": 2413,
      "says": 2414,
      "##oint": 2415,
      "avoid": 2416,
      "##ctor": 2417,
      "bed": 2418,
      "##iment": 2419,
      "age": 2420,
      "war": 2421,
      "solution": 2422,
      "hur": 2423,
      "mental": 2424,
      "##ither": 2425,
      "##fect": 2426,
      "##erve": 2427,
      "##tion": 2428,
      "Fin": 2429,
      "return": 2430,
      "plants": 2431,
      "##hor": 2432,
      "models": 2433,
      "Prov": 2434,
      "please": 2435,
      "inte": 2436,
      "easily": 2437,
      "nature": 2438,
      "##ung": 2439,
      "topic": 2440,
      "minim": 2441,
      "source": 2442,
      "thing": 2443,
      "meaning": 2444,
      "related": 2445,
      "List": 2446,
      "bot": 2447,
      "upd": 2448,
      "hear": 2449,
      "applications": 2450,
      "Inst": 2451,
      "Identify": 2452,
      "goal": 2453,
      "##astic": 2454,
      "##orn": 2455,
      "non": 2456,
      "##ah": 2457,
      "##uck": 2458,
      "##lt": 2459,
      "brand": 2460,
      "##by": 2461,
      "almost": 2462,
      "importance": 2463,
      "ra": 2464,
      "side": 2465,
      "outc": 2466,
      "##mosp": 2467,
      "near": 2468,
      "##itation": 2469,
      "##ush": 2470,
      "fr": 2471,
      "relationships": 2472,
      "##osy": 2473,
      "##hen": 2474,
      "along": 2475,
      "comes": 2476,
      "##reng": 2477,
      "longer": 2478,
      "letter": 2479,
      "##ney": 2480,
      "variety": 2481,
      "##ips": 2482,
      "matter": 2483,
      "boy": 2484,
      "##ug": 2485,
      "displ": 2486,
      "writing": 2487,
      "foot": 2488,
      "##oci": 2489,
      "party": 2490,
      "full": 2491,
      "experiences": 2492,
      "cry": 2493,
      "gen": 2494,
      "internet": 2495,
      "technolog": 2496,
      "started": 2497,
      "##othes": 2498,
      "adapt": 2499,
      "ten": 2500,
      "prob": 2501,
      "prim": 2502,
      "processing": 2503,
      "sales": 2504,
      "##pri": 2505,
      "direct": 2506,
      "jour": 2507,
      "conclusion": 2508,
      "purpose": 2509,
      "intro": 2510,
      "review": 2511,
      "valu": 2512,
      "safe": 2513,
      "far": 2514,
      "##uth": 2515,
      "##osing": 2516,
      "sens": 2517,
      "##por": 2518,
      "economy": 2519,
      "Red": 2520,
      "##just": 2521,
      "location": 2522,
      "mother": 2523,
      "##ata": 2524,
      "atmosp": 2525,
      "##oke": 2526,
      "##oor": 2527,
      "##ration": 2528,
      "himself": 2529,
      "achie": 2530,
      "abs": 2531,
      "parents": 2532,
      "wom": 2533,
      "vide": 2534,
      "haven": 2535,
      "date": 2536,
      "cru": 2537,
      "mom": 2538,
      "pack": 2539,
      "##aken": 2540,
      "Keep": 2541,
      "virtual": 2542,
      "attract": 2543,
      "collabor": 2544,
      "##ety": 2545,
      "##aces": 2546,
      "arri": 2547,
      "appropri": 2548,
      "compon": 2549,
      "whether": 2550,
      "lif": 2551,
      "higher": 2552,
      "cut": 2553,
      "society": 2554,
      "meeting": 2555,
      "##rr": 2556,
      "negative": 2557,
      "pict": 2558,
      "##ke": 2559,
      "regular": 2560,
      "tried": 2561,
      "App": 2562,
      "##be": 2563,
      "##ike": 2564,
      "strategy": 2565,
      "par": 2566,
      "wide": 2567,
      "animals": 2568,
      "New": 2569,
      "promote": 2570,
      "professional": 2571,
      "strategies": 2572,
      "##ision": 2573,
      "tree": 2574,
      "priv": 2575,
      "fit": 2576,
      "##ator": 2577,
      "message": 2578,
      "words": 2579,
      "##ilar": 2580,
      "four": 2581,
      "lov": 2582,
      "Another": 2583,
      "choice": 2584,
      "statement": 2585,
      "perfect": 2586,
      "rich": 2587,
      "improving": 2588,
      "egg": 2589,
      "oil": 2590,
      "streng": 2591,
      "anymore": 2592,
      "shopping": 2593,
      "terms": 2594,
      "restaur": 2595,
      "tou": 2596,
      "creative": 2597,
      "careful": 2598,
      "##avig": 2599,
      "practices": 2600,
      "arr": 2601,
      "processes": 2602,
      "begin": 2603,
      "So": 2604,
      "##ox": 2605,
      "##ified": 2606,
      "measures": 2607,
      "card": 2608,
      "playing": 2609,
      "bat": 2610,
      "bud": 2611,
      "forg": 2612,
      "associ": 2613,
      "attention": 2614,
      "Many": 2615,
      "comfort": 2616,
      "##br": 2617,
      "seem": 2618,
      "ang": 2619,
      "##rupt": 2620,
      "task": 2621,
      "US": 2622,
      "diet": 2623,
      "##gest": 2624,
      "##erg": 2625,
      "innov": 2626,
      "##side": 2627,
      "##me": 2628,
      "##wor": 2629,
      "##ister": 2630,
      "##ests": 2631,
      "community": 2632,
      "determine": 2633,
      "images": 2634,
      "),": 2635,
      "fire": 2636,
      "rout": 2637,
      "decided": 2638,
      "rate": 2639,
      "traffic": 2640,
      "fast": 2641,
      "reason": 2642,
      "##icles": 2643,
      "##ored": 2644,
      "Develop": 2645,
      "respect": 2646,
      "Data": 2647,
      "##ality": 2648,
      "vol": 2649,
      "corre": 2650,
      "members": 2651,
      "After": 2652,
      "##atic": 2653,
      "article": 2654,
      "truth": 2655,
      "detect": 2656,
      "once": 2657,
      "Ne": 2658,
      "##ton": 2659,
      "##ows": 2660,
      "colors": 2661,
      "second": 2662,
      "belie": 2663,
      "fru": 2664,
      "##ring": 2665,
      "differences": 2666,
      "further": 2667,
      "tot": 2668,
      "##augh": 2669,
      "##aign": 2670,
      "##gar": 2671,
      "produce": 2672,
      "hands": 2673,
      "motiv": 2674,
      "word": 2675,
      "likes": 2676,
      "special": 2677,
      "Design": 2678,
      "regul": 2679,
      "greenhouse": 2680,
      "dang": 2681,
      "patient": 2682,
      "veh": 2683,
      "uses": 2684,
      "##iate": 2685,
      "##elt": 2686,
      "monitor": 2687,
      "atmosphere": 2688,
      "production": 2689,
      "exercise": 2690,
      "tur": 2691,
      "##volution": 2692,
      "##idd": 2693,
      "talking": 2694,
      "species": 2695,
      "##ibr": 2696,
      "sell": 2697,
      "##istics": 2698,
      "application": 2699,
      "##de": 2700,
      "##oming": 2701,
      "##light": 2702,
      "brother": 2703,
      "appropriate": 2704,
      "##ato": 2705,
      "##oms": 2706,
      "evalu": 2707,
      "driving": 2708,
      "refers": 2709,
      "programs": 2710,
      "mobile": 2711,
      "##rew": 2712,
      "takes": 2713,
      "bur": 2714,
      "##aly": 2715,
      "case": 2716,
      "size": 2717,
      "##itc": 2718,
      "docu": 2719,
      "dest": 2720,
      "adjust": 2721,
      "thinking": 2722,
      "record": 2723,
      "cool": 2724,
      "across": 2725,
      "road": 2726,
      "surpr": 2727,
      "continu": 2728,
      "##app": 2729,
      "planning": 2730,
      "budget": 2731,
      "looks": 2732,
      "##ycling": 2733,
      "campaign": 2734,
      "##ids": 2735,
      "engaging": 2736,
      "speed": 2737,
      "contain": 2738,
      "aware": 2739,
      "##ules": 2740,
      "Add": 2741,
      "powerful": 2742,
      "##izations": 2743,
      "##aling": 2744,
      "saving": 2745,
      "spread": 2746,
      "student": 2747,
      "subject": 2748,
      "page": 2749,
      "##ude": 2750,
      "science": 2751,
      "Custom": 2752,
      "complete": 2753,
      "tired": 2754,
      "##gen": 2755,
      "stra": 2756,
      "offers": 2757,
      "solar": 2758,
      "since": 2759,
      "##where": 2760,
      "##ball": 2761,
      "helping": 2762,
      "##amer": 2763,
      "##aily": 2764,
      "whole": 2765,
      "agree": 2766,
      "choose": 2767,
      "navig": 2768,
      "##cer": 2769,
      "waiting": 2770,
      "crucial": 2771,
      "##orry": 2772,
      "English": 2773,
      "Fr": 2774,
      "##etic": 2775,
      "##ructions": 2776,
      "Reg": 2777,
      "occur": 2778,
      "Given": 2779,
      "mill": 2780,
      "decre": 2781,
      "vegetables": 2782,
      "exist": 2783,
      "deg": 2784,
      "single": 2785,
      "##emic": 2786,
      "write": 2787,
      "safety": 2788,
      "fall": 2789,
      "fix": 2790,
      "storage": 2791,
      "##aged": 2792,
      "consist": 2793,
      "feeling": 2794,
      "argu": 2795,
      "Provide": 2796,
      "cir": 2797,
      "Cont": 2798,
      "##ex": 2799,
      "12": 2800,
      "least": 2801,
      "##ipe": 2802,
      "black": 2803,
      "sche": 2804,
      "Our": 2805,
      "Soc": 2806,
      "weight": 2807,
      "environmental": 2808,
      "Cons": 2809,
      "reli": 2810,
      "TV": 2811,
      "ice": 2812,
      "##inner": 2813,
      "##rie": 2814,
      "productivity": 2815,
      "solve": 2816,
      "concer": 2817,
      "daily": 2818,
      "And": 2819,
      "err": 2820,
      "##aught": 2821,
      "trees": 2822,
      "cate": 2823,
      "port": 2824,
      "##imes": 2825,
      "Or": 2826,
      "song": 2827,
      "##iving": 2828,
      "##aches": 2829,
      "datab": 2830,
      "blue": 2831,
      "actions": 2832,
      "lived": 2833,
      "##cription": 2834,
      "bar": 2835,
      "pan": 2836,
      "income": 2837,
      "organization": 2838,
      "favorite": 2839,
      "numbers": 2840,
      "cred": 2841,
      "ago": 2842,
      "remain": 2843,
      "##uce": 2844,
      "##icious": 2845,
      "convers": 2846,
      "fresh": 2847,
      "ingredients": 2848,
      "##cean": 2849,
      "##verage": 2850,
      "sus": 2851,
      "##oun": 2852,
      "##ters": 2853,
      "pret": 2854,
      "personalized": 2855,
      "accurate": 2856,
      "ill": 2857,
      "vac": 2858,
      "##iod": 2859,
      "##onse": 2860,
      "gard": 2861,
      "##amed": 2862,
      "reasons": 2863,
      "appl": 2864,
      "integr": 2865,
      "chat": 2866,
      "American": 2867,
      "##ably": 2868,
      "feature": 2869,
      "capt": 2870,
      "##elves": 2871,
      "Set": 2872,
      "town": 2873,
      "sea": 2874,
      "cars": 2875,
      "continue": 2876,
      "bag": 2877,
      "##sequ": 2878,
      "express": 2879,
      "died": 2880,
      "summer": 2881,
      "coming": 2882,
      "polit": 2883,
      "total": 2884,
      "compl": 2885,
      "While": 2886,
      "planet": 2887,
      "concerns": 2888,
      "dress": 2889,
      "201": 2890,
      "depending": 2891,
      "##selves": 2892,
      "associated": 2893,
      "##oice": 2894,
      "##oring": 2895,
      "18": 2896,
      "##ges": 2897,
      "ident": 2898,
      "Does": 2899,
      "ground": 2900,
      "looked": 2901,
      "report": 2902,
      "white": 2903,
      "characters": 2904,
      "measure": 2905,
      "##lying": 2906,
      "considered": 2907,
      "responsible": 2908,
      "hold": 2909,
      "reading": 2910,
      "image": 2911,
      "##par": 2912,
      "vary": 2913,
      "stat": 2914,
      "developing": 2915,
      "##ech": 2916,
      "communicate": 2917,
      "##ication": 2918,
      "box": 2919,
      "particularly": 2920,
      "Tra": 2921,
      "##works": 2922,
      "##orpor": 2923,
      "eyes": 2924,
      "bit": 2925,
      "either": 2926,
      "##use": 2927,
      "##place": 2928,
      "culture": 2929,
      "His": 2930,
      "requires": 2931,
      "##ishing": 2932,
      "brow": 2933,
      "##ift": 2934,
      "platforms": 2935,
      "trip": 2936,
      "breat": 2937,
      "block": 2938,
      "particip": 2939,
      "##cy": 2940,
      "relax": 2941,
      "response": 2942,
      "dark": 2943,
      "##uro": 2944,
      "Sp": 2945,
      "calcul": 2946,
      "doctor": 2947,
      "##actions": 2948,
      "Cho": 2949,
      "##ched": 2950,
      "datas": 2951,
      "contact": 2952,
      "solving": 2953,
      "opin": 2954,
      "significantly": 2955,
      "prior": 2956,
      "police": 2957,
      "dream": 2958,
      "##ept": 2959,
      "##oyal": 2960,
      "balance": 2961,
      "Tr": 2962,
      "##acks": 2963,
      "sorry": 2964,
      "##ltimately": 2965,
      "journey": 2966,
      "quant": 2967,
      "technologies": 2968,
      "##verse": 2969,
      "cloud": 2970,
      "strength": 2971,
      "fail": 2972,
      "valuable": 2973,
      "primary": 2974,
      "touch": 2975,
      "##outh": 2976,
      "seems": 2977,
      "squ": 2978,
      "Rec": 2979,
      "similar": 2980,
      "secure": 2981,
      "base": 2982,
      "##mit": 2983,
      "behind": 2984,
      "##ront": 2985,
      "##ury": 2986,
      "flex": 2987,
      "rise": 2988,
      "##pper": 2989,
      "##not": 2990,
      "##bo": 2991,
      "##ison": 2992,
      "##iction": 2993,
      "interesting": 2994,
      "##iting": 2995,
      "Lear": 2996,
      "taken": 2997,
      "##obody": 2998,
      "Enc": 2999,
      "slow": 3000,
      "Find": 3001,
      "princ": 3002,
      "solutions": 3003,
      "pressure": 3004,
      "position": 3005,
      "office": 3006,
      "orig": 3007,
      "proper": 3008,
      "plastic": 3009,
      "##reet": 3010,
      "cra": 3011,
      "Suggest": 3012,
      "##ann": 3013,
      "##aid": 3014,
      "blood": 3015,
      "camer": 3016,
      "eating": 3017,
      "##umption": 3018,
      "correct": 3019,
      "Both": 3020,
      "predictions": 3021,
      "course": 3022,
      "rad": 3023,
      "explore": 3024,
      "preferences": 3025,
      "forget": 3026,
      "##ructure": 3027,
      "eth": 3028,
      "ut": 3029,
      "wild": 3030,
      "##vey": 3031,
      "surv": 3032,
      "trends": 3033,
      "purchase": 3034,
      "Machine": 3035,
      "layer": 3036,
      "swe": 3037,
      "Rem": 3038,
      "bank": 3039,
      "men": 3040,
      "warming": 3041,
      "Ph": 3042,
      "deb": 3043,
      "appear": 3044,
      "##izes": 3045,
      "period": 3046,
      "numerous": 3047,
      "glass": 3048,
      "recognition": 3049,
      "Pre": 3050,
      "device": 3051,
      "frequ": 3052,
      "15": 3053,
      "opportunity": 3054,
      "##med": 3055,
      "exact": 3056,
      "according": 3057,
      "Sm": 3058,
      "additional": 3059,
      "Choose": 3060,
      "wid": 3061,
      "advanced": 3062,
      "milk": 3063,
      "ur": 3064,
      "helped": 3065,
      "unc": 3066,
      "Start": 3067,
      "dinner": 3068,
      "prec": 3069,
      "div": 3070,
      "dead": 3071,
      "farm": 3072,
      "##ec": 3073,
      "note": 3074,
      "satisfaction": 3075,
      "enhance": 3076,
      "But": 3077,
      "teach": 3078,
      "advance": 3079,
      "GP": 3080,
      "init": 3081,
      "sugar": 3082,
      "cat": 3083,
      "##zing": 3084,
      "accuracy": 3085,
      "tast": 3086,
      "##ises": 3087,
      "heav": 3088,
      "aren": 3089,
      "conte": 3090,
      "##ended": 3091,
      "snow": 3092,
      "Mon": 3093,
      "Thank": 3094,
      "restaurant": 3095,
      "Man": 3096,
      "dam": 3097,
      "involve": 3098,
      "hair": 3099,
      "obs": 3100,
      "##itle": 3101,
      "mix": 3102,
      "felt": 3103,
      "Mond": 3104,
      "moment": 3105,
      "##ilt": 3106,
      "##imin": 3107,
      "consequ": 3108,
      "respond": 3109,
      "chance": 3110,
      "player": 3111,
      "components": 3112,
      "].": 3113,
      "voice": 3114,
      "peace": 3115,
      "Would": 3116,
      "stock": 3117,
      "spend": 3118,
      "caused": 3119,
      "began": 3120,
      "author": 3121,
      "habit": 3122,
      "Pe": 3123,
      "##ina": 3124,
      "outside": 3125,
      "ste": 3126,
      "advent": 3127,
      "computers": 3128,
      "basic": 3129,
      "##nam": 3130,
      "rather": 3131,
      "##hem": 3132,
      "output": 3133,
      "written": 3134,
      "Everyone": 3135,
      "##hood": 3136,
      "consumption": 3137,
      "informed": 3138,
      "engagement": 3139,
      "faster": 3140,
      "##ouble": 3141,
      "constant": 3142,
      "blog": 3143,
      "##used": 3144,
      "feelings": 3145,
      "trained": 3146,
      "##osystem": 3147,
      "Col": 3148,
      "fair": 3149,
      "##une": 3150,
      "Impro": 3151,
      "##atives": 3152,
      "cover": 3153,
      "estab": 3154,
      "loyal": 3155,
      "##epend": 3156,
      "##dule": 3157,
      "First": 3158,
      "close": 3159,
      "reflect": 3160,
      "expenses": 3161,
      "outcomes": 3162,
      "##rees": 3163,
      "##ancing": 3164,
      "gain": 3165,
      "sto": 3166,
      "contrast": 3167,
      "##ronic": 3168,
      "critical": 3169,
      "##vious": 3170,
      "organizations": 3171,
      "gather": 3172,
      "speech": 3173,
      "memory": 3174,
      "cities": 3175,
      "wife": 3176,
      "##rap": 3177,
      "provided": 3178,
      "##iversity": 3179,
      "Dis": 3180,
      "colle": 3181,
      "expensive": 3182,
      "plans": 3183,
      "##ctions": 3184,
      "Art": 3185,
      "##und": 3186,
      "##dom": 3187,
      "cannot": 3188,
      "industries": 3189,
      "##ived": 3190,
      "forgot": 3191,
      "##room": 3192,
      "##othing": 3193,
      "##ooth": 3194,
      "ecosystem": 3195,
      "practice": 3196,
      "origin": 3197,
      "##aw": 3198,
      "##ossil": 3199,
      "promoting": 3200,
      "amounts": 3201,
      "bott": 3202,
      "Euro": 3203,
      "rele": 3204,
      "became": 3205,
      "computing": 3206,
      "Social": 3207,
      "Bl": 3208,
      "draw": 3209,
      "death": 3210,
      "propert": 3211,
      "style": 3212,
      "running": 3213,
      "humans": 3214,
      "details": 3215,
      "Come": 3216,
      "##ground": 3217,
      "chem": 3218,
      "##ned": 3219,
      "##round": 3220,
      "##str": 3221,
      "famous": 3222,
      "programming": 3223,
      "center": 3224,
      "insights": 3225,
      "graph": 3226,
      "causing": 3227,
      "garden": 3228,
      "shape": 3229,
      "prices": 3230,
      "improved": 3231,
      "eggs": 3232,
      "later": 3233,
      "rules": 3234,
      "##fast": 3235,
      "led": 3236,
      "##zy": 3237,
      "upon": 3238,
      "investment": 3239,
      "serious": 3240,
      "database": 3241,
      "aim": 3242,
      "groups": 3243,
      "Learning": 3244,
      "ball": 3245,
      "link": 3246,
      "lunch": 3247,
      "password": 3248,
      "novel": 3249,
      "Finally": 3250,
      "gone": 3251,
      "regularly": 3252,
      "conflic": 3253,
      "diseases": 3254,
      "policy": 3255,
      "Could": 3256,
      "##alf": 3257,
      "##rec": 3258,
      "highly": 3259,
      "hyd": 3260,
      "##ason": 3261,
      "##ellent": 3262,
      "disease": 3263,
      "##iation": 3264,
      "exam": 3265,
      "modern": 3266,
      "ensuring": 3267,
      "birth": 3268,
      "mount": 3269,
      "ant": 3270,
      "quite": 3271,
      "brought": 3272,
      "##ume": 3273,
      "advert": 3274,
      "desired": 3275,
      "Monday": 3276,
      "doll": 3277,
      "forward": 3278,
      "suit": 3279,
      "contribute": 3280,
      "##aughter": 3281,
      "cheese": 3282,
      "##____": 3283,
      "consequences": 3284,
      "##come": 3285,
      "accept": 3286,
      "202": 3287,
      "turned": 3288,
      "produc": 3289,
      "clos": 3290,
      "changing": 3291,
      "diagn": 3292,
      "Just": 3293,
      "##ager": 3294,
      "vehicles": 3295,
      "Will": 3296,
      "refer": 3297,
      "##oking": 3298,
      "sand": 3299,
      "##oph": 3300,
      "instead": 3301,
      "wish": 3302,
      "interp": 3303,
      "hor": 3304,
      "deliver": 3305,
      "Emp": 3306,
      "forms": 3307,
      "impacts": 3308,
      "Customer": 3309,
      "##ership": 3310,
      "myself": 3311,
      "##ervation": 3312,
      "##print": 3313,
      "Incre": 3314,
      "Europe": 3315,
      "greater": 3316,
      "##ding": 3317,
      "conven": 3318,
      "Get": 3319,
      "Le": 3320,
      "##scape": 3321,
      "efforts": 3322,
      "fuels": 3323,
      "testing": 3324,
      "neural": 3325,
      "commit": 3326,
      "gar": 3327,
      "aspect": 3328,
      "context": 3329,
      "):": 3330,
      "rights": 3331,
      "insp": 3332,
      "games": 3333,
      "hosp": 3334,
      "tall": 3335,
      "ge": 3336,
      "##anks": 3337,
      "fossil": 3338,
      "##ulate": 3339,
      "##illing": 3340,
      "anybody": 3341,
      "transform": 3342,
      "##ged": 3343,
      "painting": 3344,
      "mistake": 3345,
      "catch": 3346,
      "apprec": 3347,
      "display": 3348,
      "robot": 3349,
      "cand": 3350,
      "##abilities": 3351,
      "window": 3352,
      "##uf": 3353,
      "smaller": 3354,
      "advantages": 3355,
      "fund": 3356,
      "##ites": 3357,
      "##unk": 3358,
      "stream": 3359,
      "wearing": 3360,
      "larger": 3361,
      "picture": 3362,
      "schedule": 3363,
      "final": 3364,
      "Canad": 3365,
      "##airs": 3366,
      "electricity": 3367,
      "##hold": 3368,
      "##oses": 3369,
      "manner": 3370,
      "##ches": 3371,
      "interface": 3372,
      "instructions": 3373,
      "encourage": 3374,
      "hyp": 3375,
      "eye": 3376,
      "categor": 3377,
      "##irus": 3378,
      "finding": 3379,
      "examples": 3380,
      "sister": 3381,
      "Sec": 3382,
      "conduct": 3383,
      "general": 3384,
      "son": 3385,
      "sick": 3386,
      "piece": 3387,
      "emotions": 3388,
      "ce": 3389,
      "##ocol": 3390,
      "scen": 3391,
      "##enced": 3392,
      "##oub": 3393,
      "encoura": 3394,
      "##rastructure": 3395,
      "chatb": 3396,
      "Wor": 3397,
      "seek": 3398,
      "changed": 3399,
      "India": 3400,
      "maintaining": 3401,
      "required": 3402,
      "threat": 3403,
      "##iding": 3404,
      "operations": 3405,
      "complain": 3406,
      "Her": 3407,
      "ocean": 3408,
      "##oxide": 3409,
      "Pr": 3410,
      "beach": 3411,
      "indic": 3412,
      "networks": 3413,
      "##ufact": 3414,
      "Out": 3415,
      "cream": 3416,
      "##of": 3417,
      "##phone": 3418,
      "advice": 3419,
      "##iveness": 3420,
      "leaving": 3421,
      "##ruction": 3422,
      "risks": 3423,
      "Comm": 3424,
      "mag": 3425,
      "##itch": 3426,
      "tea": 3427,
      "grand": 3428,
      "mass": 3429,
      "shap": 3430,
      "commonly": 3431,
      "cooking": 3432,
      "##ival": 3433,
      "surface": 3434,
      "immed": 3435,
      "paid": 3436,
      "##ceed": 3437,
      "deli": 3438,
      "breakfast": 3439,
      "fish": 3440,
      "played": 3441,
      "Didn": 3442,
      "Germ": 3443,
      "##iced": 3444,
      "##oad": 3445,
      "##ram": 3446,
      "independ": 3447,
      "earth": 3448,
      "mach": 3449,
      "##con": 3450,
      "path": 3451,
      "Nobody": 3452,
      "handle": 3453,
      "organized": 3454,
      "fell": 3455,
      "##duction": 3456,
      "built": 3457,
      "throughout": 3458,
      "growing": 3459,
      "ox": 3460,
      "##umm": 3461,
      "soil": 3462,
      "butter": 3463,
      "glad": 3464,
      "discover": 3465,
      "force": 3466,
      "spent": 3467,
      "starting": 3468,
      "surround": 3469,
      "Acc": 3470,
      "objects": 3471,
      "cy": 3472,
      "##hel": 3473,
      "states": 3474,
      "average": 3475,
      "causes": 3476,
      "Techn": 3477,
      "awareness": 3478,
      "salt": 3479,
      "batter": 3480,
      "lab": 3481,
      "##icial": 3482,
      "assistant": 3483,
      "woman": 3484,
      "##chan": 3485,
      "arch": 3486,
      "plays": 3487,
      "bread": 3488,
      "fra": 3489,
      "tail": 3490,
      "##icro": 3491,
      "goods": 3492,
      "implementing": 3493,
      "tips": 3494,
      "##go": 3495,
      "##man": 3496,
      "anx": 3497,
      "##ission": 3498,
      "Const": 3499,
      "##force": 3500,
      "dataset": 3501,
      "bul": 3502,
      "infrastructure": 3503,
      "leaves": 3504,
      "Health": 3505,
      "recipe": 3506,
      "dioxide": 3507,
      "named": 3508,
      "tables": 3509,
      "wear": 3510,
      "combination": 3511,
      "limited": 3512,
      "Each": 3513,
      "spending": 3514,
      "recycling": 3515,
      "foods": 3516,
      "World": 3517,
      "sky": 3518,
      "ed": 3519,
      "fight": 3520,
      "vill": 3521,
      "incorpor": 3522,
      "interview": 3523,
      "resulting": 3524,
      "particular": 3525,
      "apolog": 3526,
      "kiss": 3527,
      "mel": 3528,
      "hung": 3529,
      "##book": 3530,
      "##ops": 3531,
      "evidence": 3532,
      "treatment": 3533,
      "credit": 3534,
      "hasn": 3535,
      "##ength": 3536,
      "afford": 3537,
      "Em": 3538,
      "##pecial": 3539,
      "##aps": 3540,
      "smooth": 3541,
      "bright": 3542,
      "es": 3543,
      "ru": 3544,
      "##head": 3545,
      "scale": 3546,
      "million": 3547,
      "Which": 3548,
      "players": 3549,
      "remind": 3550,
      "essay": 3551,
      "vers": 3552,
      "##aves": 3553,
      "extre": 3554,
      "mood": 3555,
      "War": 3556,
      "mis": 3557,
      "useful": 3558,
      "hospital": 3559,
      "Cal": 3560,
      "##itude": 3561,
      "forest": 3562,
      "sentence": 3563,
      "chemical": 3564,
      "##idge": 3565,
      "phr": 3566,
      "instance": 3567,
      "thoughts": 3568,
      "angry": 3569,
      "release": 3570,
      "From": 3571,
      "pand": 3572,
      "effort": 3573,
      "fields": 3574,
      "loved": 3575,
      "mechan": 3576,
      "##ivil": 3577,
      "manufact": 3578,
      "description": 3579,
      "studying": 3580,
      "loyalty": 3581,
      "active": 3582,
      "shouldn": 3583,
      "languages": 3584,
      "Ass": 3585,
      "cake": 3586,
      "##set": 3587,
      "altern": 3588,
      "appe": 3589,
      "comfortable": 3590,
      "Based": 3591,
      "pick": 3592,
      "##ously": 3593,
      "probably": 3594,
      "##ute": 3595,
      "##ocks": 3596,
      "worked": 3597,
      "emerg": 3598,
      "analyzing": 3599,
      "entire": 3600,
      "Che": 3601,
      "##ony": 3602,
      "ones": 3603,
      "##atoes": 3604,
      "##ken": 3605,
      "##itect": 3606,
      "dish": 3607,
      "Med": 3608,
      "rap": 3609,
      "##mpt": 3610,
      "front": 3611,
      "##yth": 3612,
      "footprint": 3613,
      "camera": 3614,
      "employee": 3615,
      "shoes": 3616,
      "lat": 3617,
      "delicious": 3618,
      "bic": 3619,
      "cre": 3620,
      "cit": 3621,
      "lose": 3622,
      "##atory": 3623,
      "beauty": 3624,
      "animal": 3625,
      "pretty": 3626,
      "exactly": 3627,
      "rates": 3628,
      "tal": 3629,
      "##ny": 3630,
      "arrived": 3631,
      "routine": 3632,
      "##zz": 3633,
      "goes": 3634,
      "accom": 3635,
      "brain": 3636,
      "surprised": 3637,
      "stri": 3638,
      "##elling": 3639,
      "clothes": 3640,
      "finished": 3641,
      "created": 3642,
      "Analy": 3643,
      "jobs": 3644,
      "months": 3645,
      "political": 3646,
      "filled": 3647,
      "flowers": 3648,
      "##mbol": 3649,
      "##chain": 3650,
      "Intern": 3651,
      "assess": 3652,
      "attend": 3653,
      "000": 3654,
      "tick": 3655,
      "ver": 3656,
      "wall": 3657,
      "##cent": 3658,
      "option": 3659,
      "receive": 3660,
      "thirty": 3661,
      "video": 3662,
      "pen": 3663,
      "##ured": 3664,
      "##ibilities": 3665,
      "temperatures": 3666,
      "supply": 3667,
      "delivery": 3668,
      "##ators": 3669,
      "##aries": 3670,
      "interactive": 3671,
      "watching": 3672,
      "##lines": 3673,
      "##erce": 3674,
      "##iring": 3675,
      "poor": 3676,
      "characteristics": 3677,
      "hurt": 3678,
      "pow": 3679,
      "##ucle": 3680,
      "valid": 3681,
      "Summ": 3682,
      "hon": 3683,
      "##ighb": 3684,
      "scientific": 3685,
      "##board": 3686,
      "six": 3687,
      "##enge": 3688,
      "describe": 3689,
      "apart": 3690,
      "excellent": 3691,
      "pieces": 3692,
      "bow": 3693,
      "bill": 3694,
      "theory": 3695,
      "transactions": 3696,
      "secret": 3697,
      "install": 3698,
      "Personal": 3699,
      "sports": 3700,
      "agric": 3701,
      "located": 3702,
      "agricult": 3703,
      "mit": 3704,
      "revolution": 3705,
      "##tenance": 3706,
      "divers": 3707,
      "interests": 3708,
      "opp": 3709,
      "##overy": 3710,
      "##tics": 3711,
      "anywhere": 3712,
      "accident": 3713,
      "imag": 3714,
      "entertain": 3715,
      "document": 3716,
      "themselves": 3717,
      "series": 3718,
      "hop": 3719,
      "100": 3720,
      "fruits": 3721,
      "cross": 3722,
      "##fl": 3723,
      "diverse": 3724,
      "Look": 3725,
      "fig": 3726,
      "cultural": 3727,
      "dangerous": 3728,
      "rapid": 3729,
      "norm": 3730,
      "condition": 3731,
      "sharing": 3732,
      "experiment": 3733,
      "pandemic": 3734,
      "Bu": 3735,
      "Tw": 3736,
      "subs": 3737,
      "career": 3738,
      "symbol": 3739,
      "policies": 3740,
      "Car": 3741,
      "##itar": 3742,
      "outd": 3743,
      "thank": 3744,
      "Det": 3745,
      "dy": 3746,
      "title": 3747,
      "##friend": 3748,
      "remote": 3749,
      "strugg": 3750,
      "recognize": 3751,
      "kept": 3752,
      "wine": 3753,
      "##den": 3754,
      "##aced": 3755,
      "pepper": 3756,
      "hate": 3757,
      "##ygen": 3758,
      "##rial": 3759,
      "##icken": 3760,
      "serve": 3761,
      "expected": 3762,
      "expand": 3763,
      "background": 3764,
      "histor": 3765,
      "Using": 3766,
      "lifest": 3767,
      "managing": 3768,
      "interested": 3769,
      "machines": 3770,
      "##bed": 3771,
      "equal": 3772,
      "requirements": 3773,
      "emotional": 3774,
      "architect": 3775,
      "neighb": 3776,
      "sometimes": 3777,
      "Rep": 3778,
      "jo": 3779,
      "##iling": 3780,
      "distance": 3781,
      "hungry": 3782,
      "Water": 3783,
      "sil": 3784,
      "ton": 3785,
      "separ": 3786,
      "inside": 3787,
      "passed": 3788,
      "listening": 3789,
      "nutri": 3790,
      "dry": 3791,
      "largest": 3792,
      "perspect": 3793,
      "adop": 3794,
      "carefully": 3795,
      "##af": 3796,
      "Av": 3797,
      "Qu": 3798,
      "##pecially": 3799,
      "gases": 3800,
      "anxiety": 3801,
      "especially": 3802,
      "half": 3803,
      "libr": 3804,
      "##ipped": 3805,
      "meat": 3806,
      "above": 3807,
      "skin": 3808,
      "absor": 3809,
      "enab": 3810,
      "limit": 3811,
      "fat": 3812,
      "##eth": 3813,
      "worth": 3814,
      "extract": 3815,
      "Bra": 3816,
      "##eria": 3817,
      "advantage": 3818,
      "argument": 3819,
      "vast": 3820,
      "##icing": 3821,
      "worry": 3822,
      "flu": 3823,
      "citiz": 3824,
      "Was": 3825,
      "born": 3826,
      "die": 3827,
      "max": 3828,
      "##ober": 3829,
      "guide": 3830,
      "##cast": 3831,
      "resol": 3832,
      "finally": 3833,
      "decrease": 3834,
      "sides": 3835,
      "developed": 3836,
      "assign": 3837,
      "patients": 3838,
      "America": 3839,
      "##lation": 3840,
      "exec": 3841,
      "season": 3842,
      "China": 3843,
      "collaboration": 3844,
      "reliable": 3845,
      "GPT": 3846,
      "sum": 3847,
      "meal": 3848,
      "##ipment": 3849,
      "keeping": 3850,
      "mathem": 3851,
      "operating": 3852,
      "Sy": 3853,
      "##pite": 3854,
      "##estation": 3855,
      "explor": 3856,
      "lapt": 3857,
      "older": 3858,
      "connected": 3859,
      "accurately": 3860,
      "widely": 3861,
      "caught": 3862,
      "##oles": 3863,
      "logo": 3864,
      "##itchen": 3865,
      "##iers": 3866,
      "usage": 3867,
      "involved": 3868,
      "equation": 3869,
      "Trans": 3870,
      "ethical": 3871,
      "##ket": 3872,
      "##isms": 3873,
      "disapp": 3874,
      "##ological": 3875,
      "challenge": 3876,
      "navigate": 3877,
      "dom": 3878,
      "sets": 3879,
      "movies": 3880,
      "breaks": 3881,
      "challenging": 3882,
      "##het": 3883,
      "trouble": 3884,
      "trade": 3885,
      "People": 3886,
      "classification": 3887,
      "calm": 3888,
      "##atively": 3889,
      "send": 3890,
      "focused": 3891,
      "##uc": 3892,
      "##equ": 3893,
      "medic": 3894,
      "boost": 3895,
      "capital": 3896,
      "variables": 3897,
      "##rist": 3898,
      "##life": 3899,
      "asleep": 3900,
      "defin": 3901,
      "luck": 3902,
      "lifestyle": 3903,
      "York": 3904,
      "complet": 3905,
      "taste": 3906,
      "Oct": 3907,
      "Prom": 3908,
      "crop": 3909,
      "iP": 3910,
      "thinks": 3911,
      "parts": 3912,
      "moving": 3913,
      "Pres": 3914,
      "##poon": 3915,
      "follows": 3916,
      "interactions": 3917,
      "Implement": 3918,
      "Artificial": 3919,
      "tour": 3920,
      "##ians": 3921,
      "##hest": 3922,
      "ate": 3923,
      "harmful": 3924,
      "nice": 3925,
      "deal": 3926,
      "reven": 3927,
      "walking": 3928,
      "damage": 3929,
      "fa": 3930,
      "October": 3931,
      "kitchen": 3932,
      "dollars": 3933,
      "ded": 3934,
      "divid": 3935,
      "##fs": 3936,
      "##ban": 3937,
      "conv": 3938,
      "##osition": 3939,
      "workers": 3940,
      "circ": 3941,
      "site": 3942,
      "Redu": 3943,
      "maxim": 3944,
      "Fe": 3945,
      "##ugg": 3946,
      "##rypt": 3947,
      "driven": 3948,
      "Apple": 3949,
      "existing": 3950,
      "bab": 3951,
      "wood": 3952,
      "incent": 3953,
      "dishes": 3954,
      "recent": 3955,
      "mine": 3956,
      "invent": 3957,
      "electr": 3958,
      "200": 3959,
      "laws": 3960,
      "tonight": 3961,
      ",\"": 3962,
      "princip": 3963,
      "##reed": 3964,
      "unl": 3965,
      "carry": 3966,
      "videos": 3967,
      "Now": 3968,
      "killed": 3969,
      "##vant": 3970,
      "##asc": 3971,
      "##andom": 3972,
      "generally": 3973,
      "##ply": 3974,
      "wealth": 3975,
      "Stay": 3976,
      "Japanese": 3977,
      "birthday": 3978,
      "bicycle": 3979,
      "##ID": 3980,
      "##rug": 3981,
      "adventure": 3982,
      "cele": 3983,
      "##eration": 3984,
      "exch": 3985,
      "vision": 3986,
      "Maybe": 3987,
      "accessible": 3988,
      "privacy": 3989,
      "savings": 3990,
      "oxygen": 3991,
      "Educ": 3992,
      "prote": 3993,
      "##amm": 3994,
      "talked": 3995,
      "private": 3996,
      "shirt": 3997,
      "adm": 3998,
      "sold": 3999,
      "broke": 4000,
      "presentation": 4001,
      "habits": 4002,
      "suspect": 4003,
      "length": 4004,
      "pun": 4005,
      "reduced": 4006,
      "advertising": 4007,
      "Try": 4008,
      "river": 4009,
      "item": 4010,
      "abilities": 4011,
      "##izz": 4012,
      "describ": 4013,
      "previous": 4014,
      "##upid": 4015,
      "flexibility": 4016,
      "Market": 4017,
      "##nis": 4018,
      "incred": 4019,
      "screen": 4020,
      "communities": 4021,
      "##iel": 4022,
      "emb": 4023,
      "11": 4024,
      "prin": 4025,
      "cells": 4026,
      "influence": 4027,
      "Encourage": 4028,
      "ble": 4029,
      "cards": 4030,
      "floor": 4031,
      "discount": 4032,
      "##lla": 4033,
      "benefit": 4034,
      "heavy": 4035,
      "##uly": 4036,
      "Christ": 4037,
      "completely": 4038,
      "daughter": 4039,
      "fine": 4040,
      "lack": 4041,
      "##itize": 4042,
      "stupid": 4043,
      "creativity": 4044,
      "stored": 4045,
      "minute": 4046,
      "##ole": 4047,
      "##ogle": 4048,
      "shows": 4049,
      "efficiently": 4050,
      "Google": 4051,
      "Compare": 4052,
      "homes": 4053,
      "ple": 4054,
      "##ont": 4055,
      "##arize": 4056,
      "station": 4057,
      "##ached": 4058,
      "maintenance": 4059,
      "Sal": 4060,
      "##load": 4061,
      "##val": 4062,
      "##inct": 4063,
      "lights": 4064,
      "##ography": 4065,
      "vacation": 4066,
      "latest": 4067,
      "##urance": 4068,
      "homework": 4069,
      "board": 4070,
      "Plan": 4071,
      "pet": 4072,
      "roll": 4073,
      "theme": 4074,
      "technical": 4075,
      "guid": 4076,
      "Climate": 4077,
      "conversation": 4078,
      "##hens": 4079,
      "##ctors": 4080,
      "##urs": 4081,
      "##irm": 4082,
      "shared": 4083,
      "closed": 4084,
      "errors": 4085,
      "Me": 4086,
      "##ands": 4087,
      "leader": 4088,
      "learned": 4089,
      "cleaning": 4090,
      "recommendations": 4091,
      "innovation": 4092,
      "Per": 4093,
      "nucle": 4094,
      "##verty": 4095,
      "sequ": 4096,
      "disrupt": 4097,
      "poverty": 4098,
      "responsibility": 4099,
      "mathemat": 4100,
      "##rief": 4101,
      "opinion": 4102,
      "util": 4103,
      "chann": 4104,
      "classes": 4105,
      "equipment": 4106,
      "##iddle": 4107,
      "##iances": 4108,
      "CO": 4109,
      "##ulations": 4110,
      "broken": 4111,
      "Everybody": 4112,
      "film": 4113,
      "##ounter": 4114,
      "17": 4115,
      "strange": 4116,
      "cyber": 4117,
      ";.": 4118,
      "gold": 4119,
      "##has": 4120,
      "achieved": 4121,
      "Rob": 4122,
      "ann": 4123,
      "Through": 4124,
      "uns": 4125,
      "remove": 4126,
      "Dec": 4127,
      "connection": 4128,
      "Aut": 4129,
      "Great": 4130,
      "giving": 4131,
      "##lications": 4132,
      "fuel": 4133,
      "fitness": 4134,
      "degrees": 4135,
      "25": 4136,
      "Net": 4137,
      "baking": 4138,
      "##osis": 4139,
      "Mod": 4140,
      "##eli": 4141,
      "allowed": 4142,
      "projects": 4143,
      "##orth": 4144,
      "##rote": 4145,
      "print": 4146,
      "famil": 4147,
      "hat": 4148,
      "##onstr": 4149,
      "approx": 4150,
      "hardware": 4151,
      "hypothes": 4152,
      "During": 4153,
      "kids": 4154,
      "yog": 4155,
      "##idents": 4156,
      "##ervised": 4157,
      "mole": 4158,
      "##aff": 4159,
      "stage": 4160,
      "presence": 4161,
      "Amaz": 4162,
      "suppl": 4163,
      "women": 4164,
      "doub": 4165,
      "greatly": 4166,
      "sweet": 4167,
      "OK": 4168,
      "##enty": 4169,
      "desk": 4170,
      "represents": 4171,
      "identifying": 4172,
      "emails": 4173,
      "minimize": 4174,
      "properly": 4175,
      "noise": 4176,
      "international": 4177,
      "##nthes": 4178,
      "##ribution": 4179,
      "third": 4180,
      "sup": 4181,
      "remains": 4182,
      "collection": 4183,
      "bottom": 4184,
      "Sim": 4185,
      "shel": 4186,
      "offering": 4187,
      "tracking": 4188,
      "regulations": 4189,
      "hit": 4190,
      "##lished": 4191,
      "##iled": 4192,
      "protection": 4193,
      "persu": 4194,
      "magn": 4195,
      "##ened": 4196,
      "except": 4197,
      "liked": 4198,
      "Amazon": 4199,
      "pul": 4200,
      "sort": 4201,
      "wrote": 4202,
      "chain": 4203,
      "educational": 4204,
      "laug": 4205,
      "##pare": 4206,
      "gets": 4207,
      "prompt": 4208,
      "virus": 4209,
      "##ded": 4210,
      "##omen": 4211,
      "##nderstand": 4212,
      "adding": 4213,
      "organic": 4214,
      "choices": 4215,
      "mistakes": 4216,
      "button": 4217,
      "effectiveness": 4218,
      "mitig": 4219,
      "query": 4220,
      "Def": 4221,
      "fundam": 4222,
      "Ev": 4223,
      "gro": 4224,
      "samp": 4225,
      "repe": 4226,
      "Inter": 4227,
      "messages": 4228,
      "situations": 4229,
      "bowl": 4230,
      "Ens": 4231,
      "mi": 4232,
      "exh": 4233,
      "driver": 4234,
      "movement": 4235,
      "Remember": 4236,
      "bond": 4237,
      "inj": 4238,
      "weekend": 4239,
      "tennis": 4240,
      "Cle": 4241,
      "Not": 4242,
      "fost": 4243,
      "lock": 4244,
      "increases": 4245,
      "weeks": 4246,
      "liter": 4247,
      "fully": 4248,
      "square": 4249,
      "Improved": 4250,
      "wal": 4251,
      "quiet": 4252,
      "websites": 4253,
      "competition": 4254,
      "accompl": 4255,
      "##to": 4256,
      "##atically": 4257,
      "added": 4258,
      "drunk": 4259,
      "library": 4260,
      "principles": 4261,
      "celebr": 4262,
      "##abet": 4263,
      "sauce": 4264,
      "format": 4265,
      "opened": 4266,
      "concepts": 4267,
      "match": 4268,
      "ran": 4269,
      "##sy": 4270,
      "##amet": 4271,
      "arm": 4272,
      "##nesses": 4273,
      "concern": 4274,
      "evening": 4275,
      "reality": 4276,
      "##ternoon": 4277,
      "Intro": 4278,
      "Sol": 4279,
      "regard": 4280,
      "suitable": 4281,
      "fraud": 4282,
      "Ec": 4283,
      "cycle": 4284,
      "rely": 4285,
      "##inary": 4286,
      "dance": 4287,
      "##rate": 4288,
      "shown": 4289,
      "transfer": 4290,
      "extra": 4291,
      "winter": 4292,
      "sensitive": 4293,
      "iPh": 4294,
      "50": 4295,
      "Afric": 4296,
      "updates": 4297,
      "loves": 4298,
      "Increased": 4299,
      "phrase": 4300,
      "Act": 4301,
      "ultimately": 4302,
      "vital": 4303,
      "star": 4304,
      "##umb": 4305,
      "helpful": 4306,
      "introduc": 4307,
      "Germany": 4308,
      "Sar": 4309,
      "##now": 4310,
      "enables": 4311,
      "commerce": 4312,
      "selection": 4313,
      "baby": 4314,
      "##oting": 4315,
      "##anges": 4316,
      "medium": 4317,
      "belong": 4318,
      "purs": 4319,
      "demonstr": 4320,
      "##iors": 4321,
      "region": 4322,
      "emphas": 4323,
      "powered": 4324,
      "Organ": 4325,
      "ecosystems": 4326,
      "aspects": 4327,
      "convey": 4328,
      "evol": 4329,
      "finish": 4330,
      "##ython": 4331,
      "drug": 4332,
      "##ius": 4333,
      "shar": 4334,
      "central": 4335,
      "evaluate": 4336,
      "Determ": 4337,
      "revenue": 4338,
      "##cient": 4339,
      "stick": 4340,
      "clock": 4341,
      "##ensity": 4342,
      "expectations": 4343,
      "robots": 4344,
      "citizens": 4345,
      "wat": 4346,
      "sty": 4347,
      "chicken": 4348,
      "blockchain": 4349,
      "High": 4350,
      "##eless": 4351,
      "Research": 4352,
      "Jack": 4353,
      "kill": 4354,
      "##iol": 4355,
      "topics": 4356,
      "saying": 4357,
      "entertainment": 4358,
      "lying": 4359,
      "##ensive": 4360,
      "happiness": 4361,
      "improvement": 4362,
      "functions": 4363,
      "##ognitive": 4364,
      "determined": 4365,
      "conflict": 4366,
      "diversity": 4367,
      "##ered": 4368,
      "string": 4369,
      "score": 4370,
      "User": 4371,
      "sounds": 4372,
      "achieving": 4373,
      "Commun": 4374,
      "sad": 4375,
      "##arily": 4376,
      "ideal": 4377,
      "standard": 4378,
      "immedi": 4379,
      "conver": 4380,
      "gradu": 4381,
      "century": 4382,
      "assistance": 4383,
      "rice": 4384,
      "sle": 4385,
      "##rep": 4386,
      "##ilit": 4387,
      "##usive": 4388,
      "relig": 4389,
      "##encing": 4390,
      "##mbre": 4391,
      "wildlife": 4392,
      "village": 4393,
      "civil": 4394,
      "ride": 4395,
      "##vest": 4396,
      "compared": 4397,
      "Brit": 4398,
      "super": 4399,
      "weak": 4400,
      "expression": 4401,
      "##ava": 4402,
      "fulf": 4403,
      "hotel": 4404,
      "identity": 4405,
      "##gn": 4406,
      "##unning": 4407,
      "##ibly": 4408,
      "attack": 4409,
      "swimming": 4410,
      "stopped": 4411,
      "nutrients": 4412,
      "element": 4413,
      "##asure": 4414,
      "storm": 4415,
      "sympt": 4416,
      "Energy": 4417,
      "##nthesis": 4418,
      "immediately": 4419,
      "umbre": 4420,
      "##rics": 4421,
      "workplace": 4422,
      "##ashion": 4423,
      "legal": 4424,
      "proud": 4425,
      "leads": 4426,
      "analytics": 4427,
      "detailed": 4428,
      "received": 4429,
      "appliances": 4430,
      "iPhone": 4431,
      "host": 4432,
      "reduces": 4433,
      "reaching": 4434,
      "hous": 4435,
      "##eds": 4436,
      "contains": 4437,
      "asking": 4438,
      "variable": 4439,
      "aw": 4440,
      "##ners": 4441,
      "distract": 4442,
      "##athy": 4443,
      "consumer": 4444,
      "load": 4445,
      "borrow": 4446,
      "map": 4447,
      "expert": 4448,
      "poem": 4449,
      "engaged": 4450,
      "consumers": 4451,
      "observ": 4452,
      "##ses": 4453,
      "chart": 4454,
      "teas": 4455,
      "click": 4456,
      "simply": 4457,
      "error": 4458,
      "interpret": 4459,
      "Gl": 4460,
      "##anation": 4461,
      "##itam": 4462,
      "##arr": 4463,
      "impress": 4464,
      "becomes": 4465,
      "organize": 4466,
      "infect": 4467,
      "speaks": 4468,
      "depends": 4469,
      "competitive": 4470,
      "afternoon": 4471,
      "sitting": 4472,
      "stronger": 4473,
      "satisfied": 4474,
      "scientists": 4475,
      "fruit": 4476,
      "advancements": 4477,
      "Im": 4478,
      "lie": 4479,
      "##ai": 4480,
      "##aim": 4481,
      "##orestation": 4482,
      "street": 4483,
      "profit": 4484,
      "##gment": 4485,
      "##ternal": 4486,
      "frame": 4487,
      "apologize": 4488,
      "approximately": 4489,
      "continues": 4490,
      "reviews": 4491,
      "agriculture": 4492,
      "architecture": 4493,
      "laptop": 4494,
      "Ultimately": 4495,
      "king": 4496,
      "pros": 4497,
      "sched": 4498,
      "capable": 4499,
      "stores": 4500,
      "profession": 4501,
      "Instead": 4502,
      "pictures": 4503,
      "ban": 4504,
      "har": 4505,
      "tele": 4506,
      "compre": 4507,
      "colum": 4508,
      "guitar": 4509,
      "walked": 4510,
      "Good": 4511,
      "lines": 4512,
      "##ils": 4513,
      "##advant": 4514,
      "speaking": 4515,
      "becoming": 4516,
      "promised": 4517,
      "direction": 4518,
      "Regular": 4519,
      "hydro": 4520,
      "historical": 4521,
      "hypothesis": 4522,
      "Somet": 4523,
      "bath": 4524,
      "hun": 4525,
      "##agers": 4526,
      "generated": 4527,
      "foreign": 4528,
      "quantum": 4529,
      "candid": 4530,
      "joy": 4531,
      "**.": 4532,
      "moved": 4533,
      "sentiment": 4534,
      "engineering": 4535,
      "beginning": 4536,
      "Monitor": 4537,
      "honest": 4538,
      "mark": 4539,
      "concent": 4540,
      "documents": 4541,
      "Consider": 4542,
      "Par": 4543,
      "slic": 4544,
      "##oons": 4545,
      "##ird": 4546,
      "layers": 4547,
      "bags": 4548,
      "original": 4549,
      "Construct": 4550,
      "fashion": 4551,
      "##erate": 4552,
      "beg": 4553,
      "technique": 4554,
      "keys": 4555,
      "prepared": 4556,
      "bound": 4557,
      "coat": 4558,
      "below": 4559,
      "potentially": 4560,
      "France": 4561,
      "##ocolate": 4562,
      "cop": 4563,
      "##iles": 4564,
      "clim": 4565,
      "willing": 4566,
      "itself": 4567,
      "innovative": 4568,
      "Technology": 4569,
      "dynam": 4570,
      "symptoms": 4571,
      "resist": 4572,
      "initial": 4573,
      "enabling": 4574,
      "Determine": 4575,
      "##rad": 4576,
      "section": 4577,
      "buying": 4578,
      "records": 4579,
      "##sych": 4580,
      "\",": 4581,
      "Vis": 4582,
      "gam": 4583,
      "ju": 4584,
      "##ley": 4585,
      "worried": 4586,
      "smoking": 4587,
      "factor": 4588,
      "basket": 4589,
      "eventually": 4590,
      "chatbot": 4591,
      "##going": 4592,
      "umbrella": 4593,
      "pu": 4594,
      "##ellow": 4595,
      "meditation": 4596,
      "interaction": 4597,
      "Part": 4598,
      "rock": 4599,
      "##band": 4600,
      "actually": 4601,
      "request": 4602,
      "directly": 4603,
      "Park": 4604,
      "coup": 4605,
      "convenient": 4606,
      "Har": 4607,
      "cod": 4608,
      "choosing": 4609,
      "freed": 4610,
      "probability": 4611,
      "##ades": 4612,
      "feet": 4613,
      "promise": 4614,
      ".\"": 4615,
      "clothing": 4616,
      "scared": 4617,
      "developers": 4618,
      "Support": 4619,
      "monitoring": 4620,
      "college": 4621,
      "released": 4622,
      "align": 4623,
      "##ffect": 4624,
      "##angle": 4625,
      "##xture": 4626,
      "rising": 4627,
      "broad": 4628,
      "urban": 4629,
      "exchange": 4630,
      "showed": 4631,
      "motion": 4632,
      "linear": 4633,
      "straight": 4634,
      "consistent": 4635,
      "label": 4636,
      "creation": 4637,
      "Opt": 4638,
      "contract": 4639,
      "apple": 4640,
      "disp": 4641,
      "subst": 4642,
      "mountain": 4643,
      "scenar": 4644,
      "Check": 4645,
      "Pri": 4646,
      "labor": 4647,
      "followed": 4648,
      "##iverse": 4649,
      "Build": 4650,
      "El": 4651,
      "Off": 4652,
      "gift": 4653,
      "##rim": 4654,
      "parties": 4655,
      "stories": 4656,
      "establish": 4657,
      "Pract": 4658,
      "dro": 4659,
      "##rig": 4660,
      "##inst": 4661,
      "##ams": 4662,
      "places": 4663,
      "outcome": 4664,
      "campaigns": 4665,
      "##cious": 4666,
      "ther": 4667,
      "Online": 4668,
      "Stud": 4669,
      "Char": 4670,
      "According": 4671,
      "Life": 4672,
      "##urt": 4673,
      "upset": 4674,
      "##encies": 4675,
      "generations": 4676,
      "optimize": 4677,
      "Tok": 4678,
      "cognitive": 4679,
      "meals": 4680,
      "enable": 4681,
      "letters": 4682,
      "capabilities": 4683,
      "Sarah": 4684,
      "aid": 4685,
      "cases": 4686,
      "objectives": 4687,
      "South": 4688,
      "generation": 4689,
      "property": 4690,
      "##redict": 4691,
      "visually": 4692,
      "depart": 4693,
      "Intelligence": 4694,
      "More": 4695,
      "random": 4696,
      "##ders": 4697,
      "##ulner": 4698,
      "classroom": 4699,
      "##idden": 4700,
      "Spe": 4701,
      "##ief": 4702,
      "Despite": 4703,
      "happening": 4704,
      "staying": 4705,
      "highest": 4706,
      "Sw": 4707,
      "##itions": 4708,
      "opinions": 4709,
      "Fl": 4710,
      "pub": 4711,
      "island": 4712,
      "Thanks": 4713,
      "##agon": 4714,
      "happens": 4715,
      "instit": 4716,
      "distribut": 4717,
      "facilit": 4718,
      "Cost": 4719,
      "Dear": 4720,
      "grew": 4721,
      "hus": 4722,
      "##uff": 4723,
      "reward": 4724,
      "##ifications": 4725,
      "distinct": 4726,
      "appreciate": 4727,
      "Avoid": 4728,
      "16": 4729,
      "##coming": 4730,
      "##ilos": 4731,
      "chocolate": 4732,
      "##aving": 4733,
      "memories": 4734,
      "categories": 4735,
      "channels": 4736,
      "Mar": 4737,
      "ahead": 4738,
      "hol": 4739,
      "vitam": 4740,
      "##nic": 4741,
      "##gers": 4742,
      "##ifying": 4743,
      "Work": 4744,
      "Yes": 4745,
      "##rict": 4746,
      "chronic": 4747,
      "tend": 4748,
      "Class": 4749,
      "brows": 4750,
      "sandw": 4751,
      "Even": 4752,
      "Op": 4753,
      "sunlight": 4754,
      "prioritize": 4755,
      "mixture": 4756,
      "burn": 4757,
      "appoint": 4758,
      "Comput": 4759,
      "member": 4760,
      "girlfriend": 4761,
      "genetic": 4762,
      "continued": 4763,
      "constantly": 4764,
      "rule": 4765,
      "comprehens": 4766,
      "Time": 4767,
      "core": 4768,
      "vibr": 4769,
      "##yo": 4770,
      "acad": 4771,
      "apps": 4772,
      "##ension": 4773,
      "assistants": 4774,
      "miles": 4775,
      "balanced": 4776,
      "battery": 4777,
      "Internet": 4778,
      "rapidly": 4779,
      "Since": 4780,
      "##yond": 4781,
      "suff": 4782,
      "##ender": 4783,
      "regression": 4784,
      "visitors": 4785,
      "garlic": 4786,
      "##eries": 4787,
      "Step": 4788,
      "prepare": 4789,
      "Ensure": 4790,
      "brief": 4791,
      "flavor": 4792,
      "birds": 4793,
      "bike": 4794,
      "vulner": 4795,
      "##urch": 4796,
      "##hers": 4797,
      "teams": 4798,
      "focuses": 4799,
      "confidence": 4800,
      "##osynthesis": 4801,
      "manager": 4802,
      "telling": 4803,
      "##rene": 4804,
      "clearly": 4805,
      "Select": 4806,
      "Manage": 4807,
      "##ey": 4808,
      "##0s": 4809,
      "atom": 4810,
      "Its": 4811,
      "fear": 4812,
      "coast": 4813,
      "realized": 4814,
      "cooked": 4815,
      "extrem": 4816,
      "Tokyo": 4817,
      "husband": 4818,
      "overw": 4819,
      "regions": 4820,
      "standing": 4821,
      "relaxation": 4822,
      "##mission": 4823,
      "plenty": 4824,
      "held": 4825,
      "apples": 4826,
      "##ounds": 4827,
      "grav": 4828,
      "schools": 4829,
      "governments": 4830,
      "missing": 4831,
      "Effect": 4832,
      "flood": 4833,
      "cast": 4834,
      "viol": 4835,
      "##stood": 4836,
      "prison": 4837,
      "everybody": 4838,
      "responses": 4839,
      "increasingly": 4840,
      "##emp": 4841,
      "##antic": 4842,
      "standards": 4843,
      "teaching": 4844,
      "##elihood": 4845,
      "traits": 4846,
      "passion": 4847,
      "facts": 4848,
      "distribution": 4849,
      "depth": 4850,
      "properties": 4851,
      "medicine": 4852,
      "cash": 4853,
      "##mon": 4854,
      "##eline": 4855,
      "behaviors": 4856,
      "facing": 4857,
      "purchases": 4858,
      "automation": 4859,
      "##ographic": 4860,
      "manufacturing": 4861,
      "NL": 4862,
      "SE": 4863,
      "Test": 4864,
      "hers": 4865,
      "oven": 4866,
      "tow": 4867,
      "ancient": 4868,
      "##rive": 4869,
      "collected": 4870,
      "seemed": 4871,
      "stunning": 4872,
      "conservation": 4873,
      "electron": 4874,
      "cris": 4875,
      "cultures": 4876,
      "join": 4877,
      "##reprene": 4878,
      "13": 4879,
      "Ab": 4880,
      "Air": 4881,
      "pizz": 4882,
      "rent": 4883,
      "##aks": 4884,
      "external": 4885,
      "designing": 4886,
      "survey": 4887,
      "Product": 4888,
      "launch": 4889,
      "responsibilities": 4890,
      "Creat": 4891,
      "fro": 4892,
      "wel": 4893,
      "##leg": 4894,
      "##ula": 4895,
      "suc": 4896,
      "decor": 4897,
      "bridge": 4898,
      "lawy": 4899,
      "photo": 4900,
      "initi": 4901,
      "Analyze": 4902,
      "fundamental": 4903,
      "Java": 4904,
      "Ob": 4905,
      "ir": 4906,
      "tone": 4907,
      "##ana": 4908,
      "beer": 4909,
      "King": 4910,
      "jud": 4911,
      "jump": 4912,
      "phen": 4913,
      "##NA": 4914,
      "##roll": 4915,
      "intu": 4916,
      "overcome": 4917,
      "suggestions": 4918,
      "degree": 4919,
      "disappoint": 4920,
      "fault": 4921,
      "protein": 4922,
      "fed": 4923,
      "##ask": 4924,
      "##iday": 4925,
      "implications": 4926,
      "manip": 4927,
      "completed": 4928,
      "payment": 4929,
      "biod": 4930,
      "overwhel": 4931,
      "pian": 4932,
      "waves": 4933,
      "##ray": 4934,
      "alive": 4935,
      "##phones": 4936,
      "empty": 4937,
      "connections": 4938,
      "cups": 4939,
      "Govern": 4940,
      "phenomen": 4941,
      "North": 4942,
      "gent": 4943,
      "middle": 4944,
      "##ipping": 4945,
      "##tering": 4946,
      "decide": 4947,
      "smell": 4948,
      "flour": 4949,
      "reput": 4950,
      "brown": 4951,
      "##undred": 4952,
      "ticket": 4953,
      "Summarize": 4954,
      "normal": 4955,
      "Put": 4956,
      "##iar": 4957,
      "##mas": 4958,
      "cancer": 4959,
      "keyword": 4960,
      "exciting": 4961,
      "layout": 4962,
      "outdoor": 4963,
      "24": 4964,
      "Sun": 4965,
      "##ux": 4966,
      "##eral": 4967,
      "##rible": 4968,
      "myst": 4969,
      "##fulness": 4970,
      "calls": 4971,
      "server": 4972,
      "structured": 4973,
      "succeed": 4974,
      "Serv": 4975,
      "psych": 4976,
      "##ado": 4977,
      "disadvant": 4978,
      "concert": 4979,
      "stayed": 4980,
      "controll": 4981,
      "landscape": 4982,
      "Sure": 4983,
      "Tod": 4984,
      "dial": 4985,
      "diction": 4986,
      "though": 4987,
      "carp": 4988,
      "retur": 4989,
      "missed": 4990,
      "edge": 4991,
      "##eren": 4992,
      "actively": 4993,
      "destination": 4994,
      "Disc": 4995,
      "##hent": 4996,
      "##cessing": 4997,
      "flight": 4998,
      "protecting": 4999,
      "drinking": 5000,
      "figure": 5001,
      "Pol": 5002,
      "Virtual": 5003,
      "##ror": 5004,
      "meant": 5005,
      "obtain": 5006,
      "autonom": 5007,
      "defined": 5008,
      "courses": 5009,
      "smartphone": 5010,
      "fing": 5011,
      "ol": 5012,
      "pages": 5013,
      "seat": 5014,
      "shop": 5015,
      "instant": 5016,
      "possess": 5017,
      "##ossible": 5018,
      "radio": 5019,
      "emergency": 5020,
      "Christmas": 5021,
      "Hum": 5022,
      "##anch": 5023,
      "beyond": 5024,
      "truly": 5025,
      "accounts": 5026,
      "drinks": 5027,
      "pic": 5028,
      "stim": 5029,
      "wash": 5030,
      "predictive": 5031,
      "estim": 5032,
      "Reduce": 5033,
      "burning": 5034,
      "juice": 5035,
      "biodiversity": 5036,
      "Co": 5037,
      "Gra": 5038,
      "##iking": 5039,
      "resolution": 5040,
      "Everything": 5041,
      "younger": 5042,
      "produced": 5043,
      "mitigate": 5044,
      "extremely": 5045,
      "Access": 5046,
      "crow": 5047,
      "gun": 5048,
      "##istical": 5049,
      "shot": 5050,
      "refused": 5051,
      "retrie": 5052,
      "sleeping": 5053,
      "00": 5054,
      "mut": 5055,
      "##cel": 5056,
      "##anging": 5057,
      "lighting": 5058,
      "196": 5059,
      "crying": 5060,
      "universe": 5061,
      "themes": 5062,
      "spam": 5063,
      "markets": 5064,
      "retail": 5065,
      "practical": 5066,
      "taxes": 5067,
      "returned": 5068,
      "System": 5069,
      "pizza": 5070,
      "Up": 5071,
      "rot": 5072,
      "##dden": 5073,
      "claim": 5074,
      "outline": 5075,
      "beneficial": 5076,
      "slight": 5077,
      "teaspoon": 5078,
      "den": 5079,
      "throw": 5080,
      "Stop": 5081,
      "starts": 5082,
      "exploring": 5083,
      "Natural": 5084,
      "##seum": 5085,
      "sudden": 5086,
      "alloc": 5087,
      "percent": 5088,
      "encrypt": 5089,
      "pollut": 5090,
      "characterized": 5091,
      "experienced": 5092,
      "independent": 5093,
      "doubt": 5094,
      "gentle": 5095,
      "gives": 5096,
      "nerv": 5097,
      "##orter": 5098,
      "stars": 5099,
      "creates": 5100,
      "Exp": 5101,
      "concise": 5102,
      "populations": 5103,
      "meets": 5104,
      "bottle": 5105,
      "survive": 5106,
      "herself": 5107,
      "\":": 5108,
      "Coll": 5109,
      "names": 5110,
      "##ios": 5111,
      "##cks": 5112,
      "##iration": 5113,
      "##osen": 5114,
      "compare": 5115,
      "spin": 5116,
      "raise": 5117,
      "principle": 5118,
      "Follow": 5119,
      "kid": 5120,
      "##order": 5121,
      "selling": 5122,
      "2021": 5123,
      "NLP": 5124,
      "micro": 5125,
      "pool": 5126,
      "Deep": 5127,
      "availability": 5128,
      "depression": 5129,
      "arrest": 5130,
      "menu": 5131,
      "neighbor": 5132,
      "Gr": 5133,
      "Enh": 5134,
      "earl": 5135,
      "absorb": 5136,
      "Evalu": 5137,
      "hob": 5138,
      "weren": 5139,
      "Their": 5140,
      "orange": 5141,
      "height": 5142,
      "##active": 5143,
      "amb": 5144,
      "investing": 5145,
      "automatically": 5146,
      "sequence": 5147,
      "mouth": 5148,
      "desert": 5149,
      "agreed": 5150,
      "speaker": 5151,
      "deforestation": 5152,
      "dogs": 5153,
      "##abetes": 5154,
      "Main": 5155,
      "ign": 5156,
      "proced": 5157,
      "doctors": 5158,
      "adult": 5159,
      "Without": 5160,
      "mission": 5161,
      "Open": 5162,
      "Most": 5163,
      "##iber": 5164,
      "##aked": 5165,
      "finance": 5166,
      "operate": 5167,
      "component": 5168,
      "academic": 5169,
      "Face": 5170,
      "Gener": 5171,
      "II": 5172,
      "wed": 5173,
      "##\".": 5174,
      "##VID": 5175,
      "reus": 5176,
      "crime": 5177,
      "targeted": 5178,
      "appealing": 5179,
      "accomplish": 5180,
      "Today": 5181,
      "hundred": 5182,
      "repl": 5183,
      "impossible": 5184,
      "smile": 5185,
      "ensures": 5186,
      "update": 5187,
      "incentives": 5188,
      "comprehensive": 5189,
      "yellow": 5190,
      "##fit": 5191,
      "##mer": 5192,
      "##icip": 5193,
      "##veys": 5194,
      "atte": 5195,
      "coop": 5196,
      "Smart": 5197,
      "Ag": 5198,
      "Sl": 5199,
      "rating": 5200,
      "##mark": 5201,
      "quit": 5202,
      "skill": 5203,
      "organisms": 5204,
      "explanation": 5205,
      "switch": 5206,
      "paint": 5207,
      "Play": 5208,
      "Next": 5209,
      "alternative": 5210,
      "Econom": 5211,
      "inqu": 5212,
      "internal": 5213,
      "supposed": 5214,
      "arrive": 5215,
      "failure": 5216,
      "seeking": 5217,
      "vibrant": 5218,
      "##asive": 5219,
      "##road": 5220,
      "##agraph": 5221,
      "confident": 5222,
      "##elligent": 5223,
      "believed": 5224,
      "motivated": 5225,
      "COVID": 5226,
      "liqu": 5227,
      "rank": 5228,
      "##rition": 5229,
      "reaction": 5230,
      "##ference": 5231,
      "plane": 5232,
      "eaten": 5233,
      "colleag": 5234,
      "British": 5235,
      "lawyer": 5236,
      "14": 5237,
      "fishing": 5238,
      "vote": 5239,
      "recently": 5240,
      "understood": 5241,
      "optimization": 5242,
      "forecast": 5243,
      "survival": 5244,
      "2020": 5245,
      "powder": 5246,
      "piano": 5247,
      "Elect": 5248,
      "mal": 5249,
      "wet": 5250,
      "##case": 5251,
      "##inist": 5252,
      "apply": 5253,
      "unp": 5254,
      "processed": 5255,
      "Therefore": 5256,
      "museum": 5257,
      "##ube": 5258,
      "highlight": 5259,
      "simpl": 5260,
      "promotes": 5261,
      "##levision": 5262,
      "representative": 5263,
      "urg": 5264,
      "habitats": 5265,
      "divided": 5266,
      "dictionary": 5267,
      "taught": 5268,
      "##uis": 5269,
      "knife": 5270,
      "obst": 5271,
      "household": 5272,
      "flexible": 5273,
      "Ve": 5274,
      "##fall": 5275,
      "engines": 5276,
      "Br": 5277,
      "Day": 5278,
      "ship": 5279,
      "acqu": 5280,
      "spl": 5281,
      "eco": 5282,
      "approaches": 5283,
      "recommended": 5284,
      "paragraph": 5285,
      "motivation": 5286,
      "Dr": 5287,
      "dim": 5288,
      "et": 5289,
      "nod": 5290,
      "##iance": 5291,
      "##arely": 5292,
      "intended": 5293,
      "Chines": 5294,
      "Enjoy": 5295,
      "capture": 5296,
      "Canadian": 5297,
      "Chinese": 5298,
      "##oors": 5299,
      "spoke": 5300,
      "Conc": 5301,
      "##vention": 5302,
      "turning": 5303,
      "President": 5304,
      "couple": 5305,
      "Friend": 5306,
      "##uge": 5307,
      "##parent": 5308,
      "##ores": 5309,
      "rev": 5310,
      "stret": 5311,
      "spaces": 5312,
      "regret": 5313,
      "promotions": 5314,
      "industrial": 5315,
      "elimin": 5316,
      "slowly": 5317,
      "hidden": 5318,
      "mention": 5319,
      "##iture": 5320,
      "##hern": 5321,
      "##duces": 5322,
      "##asters": 5323,
      "##erving": 5324,
      "philos": 5325,
      "retain": 5326,
      "faced": 5327,
      "puzz": 5328,
      "Practice": 5329,
      "Has": 5330,
      "Ut": 5331,
      "dow": 5332,
      "roles": 5333,
      "diabetes": 5334,
      "classify": 5335,
      "20th": 5336,
      "danger": 5337,
      "Contin": 5338,
      "applied": 5339,
      "Phys": 5340,
      "frequently": 5341,
      "Employ": 5342,
      "Second": 5343,
      "Ge": 5344,
      "Micro": 5345,
      "##icting": 5346,
      "shut": 5347,
      "resil": 5348,
      "resource": 5349,
      "studies": 5350,
      "visited": 5351,
      "meaningful": 5352,
      "strengths": 5353,
      "Marketing": 5354,
      "supplies": 5355,
      "##ameters": 5356,
      "Collabor": 5357,
      "edit": 5358,
      "fill": 5359,
      "furn": 5360,
      "push": 5361,
      "##pond": 5362,
      "##co": 5363,
      "twice": 5364,
      "coord": 5365,
      "sensors": 5366,
      "vehicle": 5367,
      "occurs": 5368,
      "fixed": 5369,
      "statistical": 5370,
      "Canada": 5371,
      "perspective": 5372,
      "##ef": 5373,
      "##elines": 5374,
      "particles": 5375,
      "views": 5376,
      "dynamic": 5377,
      "laugh": 5378,
      "tie": 5379,
      "deals": 5380,
      "notes": 5381,
      "transl": 5382,
      "Exper": 5383,
      "insurance": 5384,
      "authent": 5385,
      "navigation": 5386,
      "##________": 5387,
      "lucky": 5388,
      "Bre": 5389,
      "Lond": 5390,
      "forces": 5391,
      "staff": 5392,
      "Revolution": 5393,
      "##hetic": 5394,
      "London": 5395,
      "Further": 5396,
      "round": 5397,
      "wire": 5398,
      "rewards": 5399,
      "forests": 5400,
      "suns": 5401,
      "##fully": 5402,
      "transition": 5403,
      "attribut": 5404,
      "investig": 5405,
      "currently": 5406,
      "glasses": 5407,
      "City": 5408,
      "icon": 5409,
      "lic": 5410,
      "##ek": 5411,
      "##itely": 5412,
      "ongoing": 5413,
      "##estic": 5414,
      "reduction": 5415,
      "Union": 5416,
      "democ": 5417,
      "structures": 5418,
      "wonderful": 5419,
      "intuitive": 5420,
      "##oo": 5421,
      "##mal": 5422,
      "##icks": 5423,
      "##ache": 5424,
      "spir": 5425,
      "colon": 5426,
      "instru": 5427,
      "friendship": 5428,
      "detection": 5429,
      "surprise": 5430,
      "affordable": 5431,
      "professionals": 5432,
      "boss": 5433,
      "national": 5434,
      "pair": 5435,
      "##na": 5436,
      "##oving": 5437,
      "##ma": 5438,
      "##oves": 5439,
      "Someone": 5440,
      "Education": 5441,
      "Mex": 5442,
      "##cery": 5443,
      "##itors": 5444,
      "yours": 5445,
      "shorter": 5446,
      "logical": 5447,
      "crypt": 5448,
      "crazy": 5449,
      "execut": 5450,
      "freedom": 5451,
      "Bel": 5452,
      "Gu": 5453,
      "National": 5454,
      "##gory": 5455,
      "##illa": 5456,
      "Read": 5457,
      "fired": 5458,
      "Ask": 5459,
      "addressing": 5460,
      "affected": 5461,
      "teachers": 5462,
      "Collect": 5463,
      "sample": 5464,
      "sandwich": 5465,
      "washing": 5466,
      "discovery": 5467,
      "performing": 5468,
      "entreprene": 5469,
      "graphics": 5470,
      "Mexic": 5471,
      "Python": 5472,
      "escape": 5473,
      "pus": 5474,
      "wis": 5475,
      "inequ": 5476,
      "notice": 5477,
      "clust": 5478,
      "ends": 5479,
      "tomatoes": 5480,
      "windows": 5481,
      "correctly": 5482,
      "##holders": 5483,
      "stir": 5484,
      "television": 5485,
      "discounts": 5486,
      "nuclear": 5487,
      "begins": 5488,
      "500": 5489,
      "##alse": 5490,
      "onto": 5491,
      "Ingredients": 5492,
      "waited": 5493,
      "purchasing": 5494,
      "beliefs": 5495,
      "dialog": 5496,
      "Ret": 5497,
      "je": 5498,
      "shower": 5499,
      "##osure": 5500,
      "noticed": 5501,
      "solid": 5502,
      "airport": 5503,
      "construct": 5504,
      "implemented": 5505,
      "mountains": 5506,
      "exploration": 5507,
      "mur": 5508,
      "##nown": 5509,
      "##rated": 5510,
      "##poons": 5511,
      "Prot": 5512,
      "offered": 5513,
      "##cules": 5514,
      "talent": 5515,
      "earlier": 5516,
      "lies": 5517,
      "##anes": 5518,
      "rein": 5519,
      "forced": 5520,
      "Invest": 5521,
      "Environment": 5522,
      "buildings": 5523,
      "susp": 5524,
      "breath": 5525,
      "##rimination": 5526,
      "picnic": 5527,
      "Pot": 5528,
      "native": 5529,
      "##ino": 5530,
      "##atur": 5531,
      "##arter": 5532,
      "stability": 5533,
      "##ateful": 5534,
      "##oken": 5535,
      "invited": 5536,
      "realistic": 5537,
      "prediction": 5538,
      "sustainability": 5539,
      "##fficient": 5540,
      "photosynthesis": 5541,
      "participate": 5542,
      "molecules": 5543,
      "Facebook": 5544,
      "lon": 5545,
      "##time": 5546,
      "##ero": 5547,
      "excess": 5548,
      "##osal": 5549,
      "recip": 5550,
      "electronic": 5551,
      "breaking": 5552,
      "198": 5553,
      "combined": 5554,
      "Show": 5555,
      "Define": 5556,
      "Management": 5557,
      "olive": 5558,
      "##ler": 5559,
      "##DP": 5560,
      "likelihood": 5561,
      "Hey": 5562,
      "scal": 5563,
      "guy": 5564,
      "representing": 5565,
      "Model": 5566,
      "eight": 5567,
      "##ros": 5568,
      "replace": 5569,
      "##ama": 5570,
      "managed": 5571,
      "consult": 5572,
      "194": 5573,
      "crops": 5574,
      "Global": 5575,
      "Wind": 5576,
      "pal": 5577,
      "##itary": 5578,
      "##amless": 5579,
      "chosen": 5580,
      "Ins": 5581,
      "providers": 5582,
      "suggests": 5583,
      "files": 5584,
      "argue": 5585,
      "pursu": 5586,
      "Cook": 5587,
      "##pan": 5588,
      "##ouds": 5589,
      "tor": 5590,
      "##alax": 5591,
      "enem": 5592,
      "##acing": 5593,
      "Exerc": 5594,
      "purp": 5595,
      "European": 5596,
      "convenience": 5597,
      "mathematical": 5598,
      "Green": 5599,
      "sight": 5600,
      "heating": 5601,
      "seeds": 5602,
      "presents": 5603,
      "photos": 5604,
      "##azing": 5605,
      "influenc": 5606,
      "Two": 5607,
      "##ield": 5608,
      "yoga": 5609,
      "sharp": 5610,
      "Est": 5611,
      "kil": 5612,
      "thous": 5613,
      "reached": 5614,
      "beat": 5615,
      "societ": 5616,
      "guess": 5617,
      "generating": 5618,
      "Place": 5619,
      "Bus": 5620,
      "dut": 5621,
      "pace": 5622,
      "und": 5623,
      "##inated": 5624,
      "##stract": 5625,
      "decl": 5626,
      "grateful": 5627,
      "##loyment": 5628,
      "cou": 5629,
      "drop": 5630,
      "race": 5631,
      "##rol": 5632,
      "seven": 5633,
      "##formation": 5634,
      "accel": 5635,
      "greatest": 5636,
      "severe": 5637,
      "199": 5638,
      "Sund": 5639,
      "bringing": 5640,
      "calculate": 5641,
      "uncertain": 5642,
      "Dep": 5643,
      "Last": 5644,
      "##yd": 5645,
      "##entral": 5646,
      "chair": 5647,
      "multi": 5648,
      "Att": 5649,
      "Soft": 5650,
      "breathing": 5651,
      "Gree": 5652,
      "file": 5653,
      "gre": 5654,
      "soup": 5655,
      "##iforn": 5656,
      "Str": 5657,
      "bird": 5658,
      "Instructions": 5659,
      "introduced": 5660,
      "##yp": 5661,
      "##ening": 5662,
      "compar": 5663,
      "intelligent": 5664,
      "##anged": 5665,
      "Before": 5666,
      "visualization": 5667,
      "diagnosis": 5668,
      "##forcement": 5669,
      "Californ": 5670,
      "institutions": 5671,
      "Understand": 5672,
      "##arge": 5673,
      "##olf": 5674,
      "arms": 5675,
      "unw": 5676,
      "finds": 5677,
      "memor": 5678,
      "corner": 5679,
      "determination": 5680,
      "Alice": 5681,
      "newsp": 5682,
      "settings": 5683,
      "accordingly": 5684,
      "circum": 5685,
      "families": 5686,
      "obstac": 5687,
      "California": 5688,
      "Hel": 5689,
      "cuis": 5690,
      "mad": 5691,
      "rom": 5692,
      "##uries": 5693,
      "##sec": 5694,
      "##unte": 5695,
      "clients": 5696,
      "##rency": 5697,
      "handling": 5698,
      "multip": 5699,
      "nuts": 5700,
      "straw": 5701,
      "resolve": 5702,
      "dedic": 5703,
      "Sk": 5704,
      "ment": 5705,
      "wider": 5706,
      "##itution": 5707,
      "##pected": 5708,
      "empathy": 5709,
      "showing": 5710,
      "sentences": 5711,
      "Company": 5712,
      "minimum": 5713,
      "encouraging": 5714,
      "separate": 5715,
      "Paris": 5716,
      "scenario": 5717,
      "nervous": 5718,
      "mid": 5719,
      "##gon": 5720,
      "##water": 5721,
      "##inations": 5722,
      "##isk": 5723,
      "stages": 5724,
      "Three": 5725,
      "seamless": 5726,
      "supporting": 5727,
      "195": 5728,
      "salary": 5729,
      "updated": 5730,
      "raw": 5731,
      "continuous": 5732,
      "apartment": 5733,
      "incredibly": 5734,
      "grocery": 5735,
      "inquir": 5736,
      "cats": 5737,
      "##ulated": 5738,
      "convert": 5739,
      "##ifically": 5740,
      "uncle": 5741,
      "root": 5742,
      "serves": 5743,
      "charge": 5744,
      "physics": 5745,
      "chatbots": 5746,
      "Imag": 5747,
      "Mars": 5748,
      "tun": 5749,
      "##oom": 5750,
      "depl": 5751,
      "blank": 5752,
      "##mma": 5753,
      "representation": 5754,
      "successfully": 5755,
      "restaurants": 5756,
      "arrested": 5757,
      "Alex": 5758,
      "DNA": 5759,
      "Sur": 5760,
      "fly": 5761,
      "shift": 5762,
      "removing": 5763,
      "classic": 5764,
      ":**.": 5765,
      "liquid": 5766,
      "Exercise": 5767,
      "Aren": 5768,
      "##sect": 5769,
      "ended": 5770,
      "difficulty": 5771,
      "capac": 5772,
      "engineer": 5773,
      "array": 5774,
      "links": 5775,
      "distractions": 5776,
      "wedding": 5777,
      "cher": 5778,
      "##arian": 5779,
      "##rots": 5780,
      "neut": 5781,
      "cleaner": 5782,
      "banking": 5783,
      "Introduction": 5784,
      "Governments": 5785,
      "Rel": 5786,
      "moon": 5787,
      "sess": 5788,
      "##iff": 5789,
      "lean": 5790,
      "##ception": 5791,
      "chopped": 5792,
      "collecting": 5793,
      "##scap": 5794,
      "millions": 5795,
      "##mitted": 5796,
      "encourages": 5797,
      "furniture": 5798,
      "clouds": 5799,
      "##ipitation": 5800,
      "unex": 5801,
      "hero": 5802,
      "##upervised": 5803,
      "locations": 5804,
      "foundation": 5805,
      "dependent": 5806,
      "facial": 5807,
      "technological": 5808,
      "powers": 5809,
      "returns": 5810,
      "deploy": 5811,
      "God": 5812,
      "Turn": 5813,
      "ast": 5814,
      "fold": 5815,
      "gender": 5816,
      "##oned": 5817,
      "unf": 5818,
      "trend": 5819,
      "triangle": 5820,
      "participants": 5821,
      "conflicts": 5822,
      "coding": 5823,
      "colleagues": 5824,
      "Well": 5825,
      "##ncy": 5826,
      "##iments": 5827,
      "orders": 5828,
      "teeth": 5829,
      "soccer": 5830,
      "discrimination": 5831,
      "Conf": 5832,
      "define": 5833,
      "preventing": 5834,
      "terrible": 5835,
      "volume": 5836,
      "appearance": 5837,
      "farming": 5838,
      "##parency": 5839,
      "Other": 5840,
      "Predict": 5841,
      "tight": 5842,
      "##bal": 5843,
      "##rets": 5844,
      "scene": 5845,
      "descript": 5846,
      "reader": 5847,
      "attacks": 5848,
      "restrict": 5849,
      "functionality": 5850,
      "appears": 5851,
      "murder": 5852,
      "inh": 5853,
      "pricing": 5854,
      "conserve": 5855,
      "brings": 5856,
      "##ocked": 5857,
      "paying": 5858,
      "hurry": 5859,
      "crisis": 5860,
      "pollutants": 5861,
      "bact": 5862,
      "fert": 5863,
      "##wers": 5864,
      "acid": 5865,
      "repair": 5866,
      "Adv": 5867,
      "refrig": 5868,
      "salad": 5869,
      "negot": 5870,
      "dreams": 5871,
      "expertise": 5872,
      "purposes": 5873,
      "Bar": 5874,
      "],": 5875,
      "##rel": 5876,
      "neur": 5877,
      "equipped": 5878,
      "considering": 5879,
      "Indust": 5880,
      "avoiding": 5881,
      "watched": 5882,
      "counter": 5883,
      "wit": 5884,
      "##pread": 5885,
      "thick": 5886,
      "##itement": 5887,
      "official": 5888,
      "metrics": 5889,
      "Compose": 5890,
      "scientist": 5891,
      "remaining": 5892,
      "extreme": 5893,
      "Business": 5894,
      "Ver": 5895,
      "resear": 5896,
      "disasters": 5897,
      "drives": 5898,
      "Africa": 5899,
      "electronics": 5900,
      "disadvantages": 5901,
      "slightly": 5902,
      "Dig": 5903,
      "ease": 5904,
      "placed": 5905,
      "workout": 5906,
      "evolution": 5907,
      "ourselves": 5908,
      "serving": 5909,
      "keeps": 5910,
      "##idespread": 5911,
      "introduce": 5912,
      "baseball": 5913,
      "debt": 5914,
      "discovered": 5915,
      "perspectives": 5916,
      "basketball": 5917,
      "Langu": 5918,
      "font": 5919,
      "##pro": 5920,
      "digit": 5921,
      "Cloud": 5922,
      "posts": 5923,
      "girls": 5924,
      "forever": 5925,
      "precipitation": 5926,
      "maximum": 5927,
      "electrons": 5928,
      "##raft": 5929,
      "##tered": 5930,
      "timeline": 5931,
      "unable": 5932,
      "productive": 5933,
      "underlying": 5934,
      "version": 5935,
      "Autom": 5936,
      "Bring": 5937,
      "See": 5938,
      "widespread": 5939,
      "##ott": 5940,
      "##agram": 5941,
      "unk": 5942,
      "military": 5943,
      "nutrition": 5944,
      "absol": 5945,
      "threats": 5946,
      "candidate": 5947,
      "Furthermore": 5948,
      "thus": 5949,
      "stood": 5950,
      "studied": 5951,
      "profound": 5952,
      "introduction": 5953,
      "collaborate": 5954,
      "arrange": 5955,
      "destro": 5956,
      "dressed": 5957,
      "calculated": 5958,
      "covered": 5959,
      "shapes": 5960,
      "Jacks": 5961,
      "##faces": 5962,
      "reactions": 5963,
      "outl": 5964,
      "chess": 5965,
      "presented": 5966,
      "##ropical": 5967,
      "criteria": 5968,
      "category": 5969,
      "tailored": 5970,
      "keywords": 5971,
      "Lim": 5972,
      "van": 5973,
      "##nal": 5974,
      "thor": 5975,
      "proof": 5976,
      "##odies": 5977,
      "##osite": 5978,
      "backup": 5979,
      "advised": 5980,
      "leadership": 5981,
      "pattern": 5982,
      "funny": 5983,
      "cookies": 5984,
      "motor": 5985,
      "exercises": 5986,
      "schedul": 5987,
      "Util": 5988,
      "Imagine": 5989,
      "##ello": 5990,
      "conscious": 5991,
      "served": 5992,
      "fiber": 5993,
      "drought": 5994,
      "harder": 5995,
      "Begin": 5996,
      "objective": 5997,
      "complexity": 5998,
      "traveling": 5999,
      "songs": 6000,
      "Communication": 6001,
      "cuisine": 6002,
      "Ocean": 6003,
      "wake": 6004,
      "##ED": 6005,
      "##idential": 6006,
      "timely": 6007,
      "unemp": 6008,
      "metal": 6009,
      "##vironments": 6010,
      "branch": 6011,
      "grown": 6012,
      "hoping": 6013,
      "styles": 6014,
      "dialogue": 6015,
      "Form": 6016,
      "dur": 6017,
      "penc": 6018,
      "sizes": 6019,
      "##omp": 6020,
      "stake": 6021,
      "orient": 6022,
      "saved": 6023,
      "##soft": 6024,
      "spoken": 6025,
      "blame": 6026,
      "articles": 6027,
      "lasting": 6028,
      "marine": 6029,
      "answers": 6030,
      "excitement": 6031,
      "nearby": 6032,
      "frust": 6033,
      "frequent": 6034,
      "frequency": 6035,
      "linked": 6036,
      "producing": 6037,
      "horse": 6038,
      "electrical": 6039,
      "21": 6040,
      "master": 6041,
      "##haps": 6042,
      "##hered": 6043,
      "##ceans": 6044,
      "##ildren": 6045,
      "musical": 6046,
      "singing": 6047,
      "innoc": 6048,
      "Development": 6049,
      "surrounded": 6050,
      "Microsoft": 6051,
      "##father": 6052,
      "Then": 6053,
      "feels": 6054,
      "organizing": 6055,
      "Plant": 6056,
      "##ommod": 6057,
      "movements": 6058,
      "influenced": 6059,
      "illness": 6060,
      "repeat": 6061,
      "unexpected": 6062,
      "45": 6063,
      "##zen": 6064,
      "##itter": 6065,
      "##raw": 6066,
      "##though": 6067,
      "established": 6068,
      "housing": 6069,
      "bills": 6070,
      "od": 6071,
      "##alysis": 6072,
      "environments": 6073,
      "##asts": 6074,
      "arise": 6075,
      "##asses": 6076,
      "##weet": 6077,
      "improvements": 6078,
      "environmentally": 6079,
      "summar": 6080,
      "opening": 6081,
      "crimin": 6082,
      "continuously": 6083,
      "incorporating": 6084,
      "regardless": 6085,
      "dedicated": 6086,
      "hide": 6087,
      "##ait": 6088,
      "##zed": 6089,
      "strict": 6090,
      "predicting": 6091,
      "Engine": 6092,
      "construction": 6093,
      "automate": 6094,
      "camping": 6095,
      "consuming": 6096,
      "status": 6097,
      "incorporate": 6098,
      "kissed": 6099,
      "estimated": 6100,
      "dimens": 6101,
      "Conclusion": 6102,
      "circumst": 6103,
      "nose": 6104,
      "vict": 6105,
      "##olen": 6106,
      "##ustain": 6107,
      "everyday": 6108,
      "##oved": 6109,
      "##riting": 6110,
      "Being": 6111,
      "implementation": 6112,
      "philosoph": 6113,
      "Sub": 6114,
      "lake": 6115,
      "via": 6116,
      "##bre": 6117,
      "##asy": 6118,
      "stolen": 6119,
      "produces": 6120,
      "##ppers": 6121,
      "unaut": 6122,
      "discip": 6123,
      "Examp": 6124,
      "##horized": 6125,
      "packed": 6126,
      "refriger": 6127,
      "Language": 6128,
      "unauthorized": 6129,
      "End": 6130,
      "Serve": 6131,
      "mail": 6132,
      "rid": 6133,
      "tag": 6134,
      "##ps": 6135,
      "blind": 6136,
      "artist": 6137,
      "Indian": 6138,
      "illust": 6139,
      "2013": 6140,
      "magic": 6141,
      "walls": 6142,
      "convin": 6143,
      "guidelines": 6144,
      "hes": 6145,
      "reb": 6146,
      "##ull": 6147,
      "abroad": 6148,
      "##umes": 6149,
      "##astics": 6150,
      "units": 6151,
      "recover": 6152,
      "consists": 6153,
      "healthier": 6154,
      "Assist": 6155,
      "printer": 6156,
      "foster": 6157,
      "Optim": 6158,
      "unknown": 6159,
      "Renewable": 6160,
      "vot": 6161,
      "readers": 6162,
      "excl": 6163,
      "enjoyed": 6164,
      "Companies": 6165,
      "etc": 6166,
      "Eating": 6167,
      "##can": 6168,
      "onion": 6169,
      "decline": 6170,
      "ages": 6171,
      "specifically": 6172,
      "justice": 6173,
      "visibility": 6174,
      "functional": 6175,
      "biggest": 6176,
      "##key": 6177,
      "laughing": 6178,
      "Something": 6179,
      "concentration": 6180,
      "autonomous": 6181,
      "inequality": 6182,
      "Big": 6183,
      "thin": 6184,
      "##eles": 6185,
      "##anted": 6186,
      "overview": 6187,
      "smoke": 6188,
      "signs": 6189,
      "owners": 6190,
      "bias": 6191,
      "affects": 6192,
      "attractive": 6193,
      "regulate": 6194,
      "consistently": 6195,
      "bulbs": 6196,
      "administ": 6197,
      "split": 6198,
      "Physical": 6199,
      "Software": 6200,
      "zero": 6201,
      "##gu": 6202,
      "##atile": 6203,
      "desire": 6204,
      "State": 6205,
      "flat": 6206,
      "potatoes": 6207,
      "Review": 6208,
      "employment": 6209,
      "corpor": 6210,
      "tests": 6211,
      "operation": 6212,
      "storing": 6213,
      "vegetable": 6214,
      "legs": 6215,
      "volunte": 6216,
      "Evaluate": 6217,
      "Bet": 6218,
      "ring": 6219,
      "sod": 6220,
      "##ratic": 6221,
      "##vable": 6222,
      "##RO": 6223,
      "thr": 6224,
      "Things": 6225,
      "spot": 6226,
      "Connect": 6227,
      "messaging": 6228,
      "selecting": 6229,
      "habitat": 6230,
      "incredible": 6231,
      "initiatives": 6232,
      "cow": 6233,
      "fats": 6234,
      "honey": 6235,
      "pock": 6236,
      "##asion": 6237,
      "stocks": 6238,
      "##imal": 6239,
      "resume": 6240,
      "muscle": 6241,
      "monthly": 6242,
      "Regularly": 6243,
      "Security": 6244,
      "embra": 6245,
      "disappointed": 6246,
      "Dem": 6247,
      "Nothing": 6248,
      "amp": 6249,
      "weap": 6250,
      "actual": 6251,
      "planets": 6252,
      "Whether": 6253,
      "funds": 6254,
      "primarily": 6255,
      "committed": 6256,
      "inventory": 6257,
      "laughed": 6258,
      "kingdom": 6259,
      "Human": 6260,
      "influencers": 6261,
      "jack": 6262,
      "losing": 6263,
      "oceans": 6264,
      "##gra": 6265,
      "church": 6266,
      "queries": 6267,
      "smiled": 6268,
      "##respond": 6269,
      "Ang": 6270,
      "hardly": 6271,
      "calories": 6272,
      "recognized": 6273,
      "immune": 6274,
      "valued": 6275,
      "datasets": 6276,
      "peaceful": 6277,
      "magical": 6278,
      "tablespoons": 6279,
      "persuasive": 6280,
      "gaming": 6281,
      "reputation": 6282,
      "circumstances": 6283,
      "Home": 6284,
      "##iable": 6285,
      "##bit": 6286,
      "isol": 6287,
      "whose": 6288,
      "##umber": 6289,
      "Web": 6290,
      "amazing": 6291,
      "transparent": 6292,
      "leaders": 6293,
      "##backs": 6294,
      "experiencing": 6295,
      "statistics": 6296,
      "##agonist": 6297,
      "distributed": 6298,
      "Effective": 6299,
      "reusable": 6300,
      "cooperation": 6301,
      "thorough": 6302,
      "bold": 6303,
      "##wide": 6304,
      "##wise": 6305,
      "therap": 6306,
      "beans": 6307,
      "abstract": 6308,
      "##apor": 6309,
      "scar": 6310,
      "somewhere": 6311,
      "seeing": 6312,
      "programmed": 6313,
      "earn": 6314,
      "ordered": 6315,
      "correspond": 6316,
      "visiting": 6317,
      "##ographics": 6318,
      "raised": 6319,
      "cutting": 6320,
      "cameras": 6321,
      "closer": 6322,
      "independence": 6323,
      "struggle": 6324,
      "guidance": 6325,
      "Public": 6326,
      "Were": 6327,
      "elev": 6328,
      "##coh": 6329,
      "Analysis": 6330,
      "Prof": 6331,
      "##elsius": 6332,
      "Science": 6333,
      "arguments": 6334,
      "quantity": 6335,
      "misu": 6336,
      "researc": 6337,
      "##cohol": 6338,
      "bell": 6339,
      "cart": 6340,
      "false": 6341,
      "congest": 6342,
      "##avors": 6343,
      "Also": 6344,
      "deeper": 6345,
      "immers": 6346,
      "discussing": 6347,
      "precision": 6348,
      "complaints": 6349,
      "##ugging": 6350,
      "bother": 6351,
      "fool": 6352,
      "clar": 6353,
      "accommod": 6354,
      "relatively": 6355,
      "improves": 6356,
      "calling": 6357,
      "rainfor": 6358,
      "package": 6359,
      "turns": 6360,
      "vacc": 6361,
      "horiz": 6362,
      "immediate": 6363,
      "definitely": 6364,
      "copy": 6365,
      "vitamins": 6366,
      "welcome": 6367,
      "obstacles": 6368,
      "{.": 6369,
      "##fol": 6370,
      "teen": 6371,
      "intense": 6372,
      "somebody": 6373,
      "recyc": 6374,
      "repro": 6375,
      "personality": 6376,
      "math": 6377,
      "loan": 6378,
      "percentage": 6379,
      "inquiries": 6380,
      "Bo": 6381,
      "Celsius": 6382,
      "tooth": 6383,
      "dealing": 6384,
      "##ago": 6385,
      "prem": 6386,
      "obvious": 6387,
      "taxi": 6388,
      "GDP": 6389,
      "Lily": 6390,
      "Taking": 6391,
      "joke": 6392,
      "tough": 6393,
      "worse": 6394,
      "recycle": 6395,
      "recovery": 6396,
      "reports": 6397,
      "guests": 6398,
      "enhancing": 6399,
      "Encoura": 6400,
      "stole": 6401,
      "convince": 6402,
      "exhib": 6403,
      "Clean": 6404,
      "ow": 6405,
      "stable": 6406,
      "haz": 6407,
      "##ocur": 6408,
      "compass": 6409,
      "##anches": 6410,
      "skilled": 6411,
      "concl": 6412,
      "Program": 6413,
      "kindness": 6414,
      "Users": 6415,
      "parameters": 6416,
      "billion": 6417,
      "Solar": 6418,
      "fulfill": 6419,
      "Best": 6420,
      "Pour": 6421,
      "filling": 6422,
      "iron": 6423,
      "##top": 6424,
      "lend": 6425,
      "segment": 6426,
      "phones": 6427,
      "##teen": 6428,
      "Any": 6429,
      "calend": 6430,
      "warmth": 6431,
      "barri": 6432,
      "commitment": 6433,
      "capacity": 6434,
      "hesit": 6435,
      "Call": 6436,
      "Of": 6437,
      "##iov": 6438,
      "##estern": 6439,
      "chances": 6440,
      "intervention": 6441,
      "meetings": 6442,
      "treasure": 6443,
      "musc": 6444,
      "functioning": 6445,
      "preparing": 6446,
      "displays": 6447,
      "panels": 6448,
      "Output": 6449,
      "##ascular": 6450,
      "phenomenon": 6451,
      "Jackson": 6452,
      "40": 6453,
      "courage": 6454,
      "##iny": 6455,
      "##aration": 6456,
      "##arant": 6457,
      "devast": 6458,
      "prepro": 6459,
      "Inte": 6460,
      "Calcul": 6461,
      "holiday": 6462,
      "gravity": 6463,
      "Service": 6464,
      "Digital": 6465,
      "300": 6466,
      "der": 6467,
      "dust": 6468,
      "##racy": 6469,
      "sending": 6470,
      "shipping": 6471,
      "unit": 6472,
      "included": 6473,
      "branches": 6474,
      "##pending": 6475,
      "Conduct": 6476,
      "strengt": 6477,
      "bottles": 6478,
      "streaming": 6479,
      "penal": 6480,
      "opposite": 6481,
      "column": 6482,
      "resilience": 6483,
      "stakeholders": 6484,
      "##iovascular": 6485,
      "sou": 6486,
      "##lor": 6487,
      "##icate": 6488,
      "flag": 6489,
      "drank": 6490,
      "197": 6491,
      "runs": 6492,
      "payments": 6493,
      "colorful": 6494,
      "discussion": 6495,
      "aims": 6496,
      "shaping": 6497,
      "Economic": 6498,
      "stretch": 6499,
      "Rom": 6500,
      "fiction": 6501,
      "##otic": 6502,
      "followers": 6503,
      "worldwide": 6504,
      "tells": 6505,
      "grad": 6506,
      "profile": 6507,
      "##herent": 6508,
      "addressed": 6509,
      "suggested": 6510,
      "optimal": 6511,
      "literature": 6512,
      "demonstrate": 6513,
      "sliced": 6514,
      "encryption": 6515,
      "neighborhood": 6516,
      "Ant": 6517,
      "Cate": 6518,
      "Sustain": 6519,
      "rat": 6520,
      "sel": 6521,
      "sink": 6522,
      "##NN": 6523,
      "##orus": 6524,
      "Those": 6525,
      "diss": 6526,
      "##venience": 6527,
      "significance": 6528,
      "formula": 6529,
      "marry": 6530,
      "enjoyable": 6531,
      "automated": 6532,
      "smartphones": 6533,
      "turb": 6534,
      "passwords": 6535,
      "delivering": 6536,
      "inspire": 6537,
      "revolutionized": 6538,
      "Moreover": 6539,
      "carpool": 6540,
      "procedures": 6541,
      "license": 6542,
      "seldom": 6543,
      "narr": 6544,
      "tension": 6545,
      "##cies": 6546,
      "##etitive": 6547,
      "##oli": 6548,
      "compost": 6549,
      "ads": 6550,
      "exposure": 6551,
      "interrupt": 6552,
      "unne": 6553,
      "##lication": 6554,
      "numer": 6555,
      "Chat": 6556,
      "economies": 6557,
      "protocol": 6558,
      "lessons": 6559,
      "checking": 6560,
      "nearly": 6561,
      "forgotten": 6562,
      "supervised": 6563,
      "Offer": 6564,
      "Bat": 6565,
      "mir": 6566,
      "##oT": 6567,
      "##ias": 6568,
      "##mother": 6569,
      "##ER": 6570,
      "##TM": 6571,
      "##heit": 6572,
      "thrive": 6573,
      "react": 6574,
      "##uts": 6575,
      "Think": 6576,
      "##isters": 6577,
      "composed": 6578,
      "Italy": 6579,
      "handed": 6580,
      "download": 6581,
      "grains": 6582,
      "equations": 6583,
      "holding": 6584,
      "tailor": 6585,
      "Network": 6586,
      "Computer": 6587,
      "Emma": 6588,
      "Know": 6589,
      "``": 6590,
      "ep": 6591,
      "##aust": 6592,
      "##gl": 6593,
      "##lights": 6594,
      "##eter": 6595,
      "##rooms": 6596,
      "##igration": 6597,
      "##ector": 6598,
      "trig": 6599,
      "fewer": 6600,
      "##renheit": 6601,
      "however": 6602,
      "flower": 6603,
      "transparency": 6604,
      "boat": 6605,
      "eats": 6606,
      "faces": 6607,
      "##ahrenheit": 6608,
      "angle": 6609,
      "closely": 6610,
      "##connect": 6611,
      "Clear": 6612,
      "department": 6613,
      "published": 6614,
      "controlled": 6615,
      "```": 6616,
      "Gather": 6617,
      "IoT": 6618,
      "diced": 6619,
      "firm": 6620,
      "##sis": 6621,
      "##iated": 6622,
      "##ym": 6623,
      "reve": 6624,
      "dates": 6625,
      "##ansion": 6626,
      "vegan": 6627,
      "commands": 6628,
      "grass": 6629,
      "classical": 6630,
      "minimal": 6631,
      "brothers": 6632,
      "cooling": 6633,
      "deadlines": 6634,
      "melting": 6635,
      "chemicals": 6636,
      "facilitate": 6637,
      "Enhanced": 6638,
      "Back": 6639,
      "Having": 6640,
      "Min": 6641,
      "####": 6642,
      "##iter": 6643,
      "##unt": 6644,
      "intensity": 6645,
      "roof": 6646,
      "creatures": 6647,
      "gluc": 6648,
      "typical": 6649,
      "tempor": 6650,
      "investments": 6651,
      "contributions": 6652,
      "packaging": 6653,
      "periods": 6654,
      "Black": 6655,
      "Twitter": 6656,
      "slept": 6657,
      "nodes": 6658,
      "##ipp": 6659,
      "##ype": 6660,
      "##ctic": 6661,
      "possibilities": 6662,
      "combat": 6663,
      "##incer": 6664,
      "definition": 6665,
      "Reducing": 6666,
      "describes": 6667,
      "weaknesses": 6668,
      "Food": 6669,
      "Self": 6670,
      "double": 6671,
      "loud": 6672,
      "nit": 6673,
      "##iant": 6674,
      "##lishing": 6675,
      "##orial": 6676,
      "neck": 6677,
      "Children": 6678,
      "miner": 6679,
      "instruction": 6680,
      "moves": 6681,
      "digest": 6682,
      "emotion": 6683,
      "battle": 6684,
      "divor": 6685,
      "drawing": 6686,
      "##flow": 6687,
      "destroy": 6688,
      "congestion": 6689,
      "disag": 6690,
      "##ometers": 6691,
      "provider": 6692,
      "formed": 6693,
      "passeng": 6694,
      "painted": 6695,
      "reflects": 6696,
      "releases": 6697,
      "wallet": 6698,
      "Building": 6699,
      "glucose": 6700,
      "Cong": 6701,
      "Fahrenheit": 6702,
      "Russ": 6703,
      "tropical": 6704,
      "##ingu": 6705,
      "##ctu": 6706,
      "##irty": 6707,
      "alert": 6708,
      "alcohol": 6709,
      "##ifier": 6710,
      "inclusive": 6711,
      "idi": 6712,
      "informative": 6713,
      "supports": 6714,
      "moral": 6715,
      "England": 6716,
      "displace": 6717,
      "Content": 6718,
      "adults": 6719,
      "Strong": 6720,
      "romantic": 6721,
      "Max": 6722,
      "band": 6723,
      "huge": 6724,
      "stre": 6725,
      "comments": 6726,
      "sector": 6727,
      "##okes": 6728,
      "spr": 6729,
      "roast": 6730,
      "##ighter": 6731,
      "Resp": 6732,
      "failed": 6733,
      "Prepare": 6734,
      "inspired": 6735,
      "grandmother": 6736,
      "coastal": 6737,
      "downt": 6738,
      "unemployment": 6739,
      "##ulating": 6740,
      "interconnect": 6741,
      "thereby": 6742,
      "retire": 6743,
      "contributing": 6744,
      "visuals": 6745,
      "##appy": 6746,
      "Reduced": 6747,
      "Creating": 6748,
      "memorable": 6749,
      "pencil": 6750,
      "Encouraging": 6751,
      "Di": 6752,
      "Egy": 6753,
      "##fu": 6754,
      "##ties": 6755,
      "##omb": 6756,
      "rect": 6757,
      "plastics": 6758,
      "##ails": 6759,
      "accidents": 6760,
      "posit": 6761,
      "investors": 6762,
      "encounter": 6763,
      "robust": 6764,
      "moments": 6765,
      "believes": 6766,
      "integration": 6767,
      "golden": 6768,
      "telephone": 6769,
      "bacteria": 6770,
      "Egypt": 6771,
      "60": 6772,
      "Mem": 6773,
      "fif": 6774,
      "##eem": 6775,
      "##roid": 6776,
      "##atever": 6777,
      "suitc": 6778,
      "##apers": 6779,
      "sport": 6780,
      "##licit": 6781,
      "adds": 6782,
      "Processing": 6783,
      "##ercial": 6784,
      "excited": 6785,
      "boys": 6786,
      "shelter": 6787,
      "columns": 6788,
      "boundaries": 6789,
      "vulnerable": 6790,
      "spinach": 6791,
      "urgent": 6792,
      "newspaper": 6793,
      "Nature": 6794,
      "ath": 6795,
      "hom": 6796,
      "hiding": 6797,
      "##inating": 6798,
      "asse": 6799,
      "univers": 6800,
      "designs": 6801,
      "protected": 6802,
      "answered": 6803,
      "Should": 6804,
      "hurric": 6805,
      "seconds": 6806,
      "Control": 6807,
      "portfol": 6808,
      "radiation": 6809,
      "seriously": 6810,
      "mathematics": 6811,
      "##itable": 6812,
      "##ara": 6813,
      "threw": 6814,
      "bear": 6815,
      "aside": 6816,
      "##ustling": 6817,
      "transaction": 6818,
      "mining": 6819,
      "landmark": 6820,
      "entered": 6821,
      "genre": 6822,
      "databases": 6823,
      "divide": 6824,
      "heavily": 6825,
      "interpre": 6826,
      "transformed": 6827,
      "neighbors": 6828,
      "Harry": 6829,
      "Mexico": 6830,
      "unnecessary": 6831,
      "Cor": 6832,
      "Cur": 6833,
      "Mult": 6834,
      "density": 6835,
      "dirty": 6836,
      "##yl": 6837,
      "##inate": 6838,
      "reaches": 6839,
      "##iratory": 6840,
      "##aint": 6841,
      "Inf": 6842,
      "spring": 6843,
      "##ancy": 6844,
      "owner": 6845,
      "football": 6846,
      "motivate": 6847,
      "falls": 6848,
      "Brainst": 6849,
      "criminal": 6850,
      "Brainstorm": 6851,
      "San": 6852,
      "tact": 6853,
      "ult": 6854,
      "##rates": 6855,
      "##point": 6856,
      "manual": 6857,
      "##obe": 6858,
      "shoulder": 6859,
      "carrots": 6860,
      "completing": 6861,
      "deeply": 6862,
      "farmers": 6863,
      "aimed": 6864,
      "referred": 6865,
      "German": 6866,
      "edges": 6867,
      "manufactur": 6868,
      "authentication": 6869,
      "refrigerator": 6870,
      "Chatb": 6871,
      "',": 6872,
      "Title": 6873,
      "bored": 6874,
      "lad": 6875,
      "partner": 6876,
      "writer": 6877,
      "combine": 6878,
      "inputs": 6879,
      "treatments": 6880,
      "shaped": 6881,
      "tickets": 6882,
      "Sunday": 6883,
      "Utilize": 6884,
      "Mus": 6885,
      "hole": 6886,
      "nor": 6887,
      "nobody": 6888,
      "row": 6889,
      "##tical": 6890,
      "##akers": 6891,
      "workforce": 6892,
      "visible": 6893,
      "drivers": 6894,
      "##hips": 6895,
      "polar": 6896,
      "strategic": 6897,
      "losses": 6898,
      "container": 6899,
      "taller": 6900,
      "fighting": 6901,
      "'.": 6902,
      "Ac": 6903,
      "Lead": 6904,
      "Tim": 6905,
      "kit": 6906,
      "tut": 6907,
      "##reg": 6908,
      "##ulent": 6909,
      "lemon": 6910,
      "knowing": 6911,
      "prime": 6912,
      "election": 6913,
      "popularity": 6914,
      "searching": 6915,
      "moist": 6916,
      "reliance": 6917,
      "International": 6918,
      "atomic": 6919,
      "spirit": 6920,
      "Calculate": 6921,
      "Power": 6922,
      "greet": 6923,
      "##iences": 6924,
      "ine": 6925,
      "##uses": 6926,
      "##que": 6927,
      "upcoming": 6928,
      "blocks": 6929,
      "formation": 6930,
      "represented": 6931,
      "journal": 6932,
      "2019": 6933,
      "craft": 6934,
      "Promote": 6935,
      "labeled": 6936,
      "SEO": 6937,
      "iconic": 6938,
      "Environmental": 6939,
      "##rosion": 6940,
      "Examples": 6941,
      "calendar": 6942,
      "Integr": 6943,
      "Hold": 6944,
      "Loc": 6945,
      "Trees": 6946,
      "lied": 6947,
      "##gs": 6948,
      "##ifts": 6949,
      "truck": 6950,
      "##raction": 6951,
      "##cking": 6952,
      "Chic": 6953,
      "surveys": 6954,
      "manageable": 6955,
      "route": 6956,
      "falling": 6957,
      "described": 6958,
      "yogurt": 6959,
      "Classify": 6960,
      "Object": 6961,
      "attemp": 6962,
      "Understanding": 6963,
      "minerals": 6964,
      "bodies": 6965,
      "gall": 6966,
      "##stairs": 6967,
      "##ifies": 6968,
      "##ocado": 6969,
      "##udd": 6970,
      "compelling": 6971,
      "Only": 6972,
      "occup": 6973,
      "circle": 6974,
      "tablespoon": 6975,
      "reminders": 6976,
      "alternatives": 6977,
      "browser": 6978,
      "researchers": 6979,
      "Chicago": 6980,
      "Val": 6981,
      "golf": 6982,
      "##AM": 6983,
      "##alous": 6984,
      "composition": 6985,
      "script": 6986,
      "developments": 6987,
      "protagonist": 6988,
      "equality": 6989,
      "subt": 6990,
      "treated": 6991,
      "explained": 6992,
      "cardiovascular": 6993,
      "circu": 6994,
      "Transport": 6995,
      "Discuss": 6996,
      "Better": 6997,
      "Mat": 6998,
      "Non": 6999,
      "rural": 7000,
      "##erb": 7001,
      "##rogen": 7002,
      "stuff": 7003,
      "sem": 7004,
      "fees": 7005,
      "commercial": 7006,
      "grab": 7007,
      "retention": 7008,
      "practicing": 7009,
      "responsive": 7010,
      "tested": 7011,
      "putting": 7012,
      "biases": 7013,
      "competitors": 7014,
      "similarities": 7015,
      "anticip": 7016,
      "talks": 7017,
      "religious": 7018,
      "muscles": 7019,
      "Aug": 7020,
      "##athered": 7021,
      "##arming": 7022,
      "raining": 7023,
      "evaluating": 7024,
      "authority": 7025,
      "##ophistic": 7026,
      "entrepreneurs": 7027,
      "La": 7028,
      "cycling": 7029,
      "rac": 7030,
      "##storm": 7031,
      "wears": 7032,
      "comprom": 7033,
      "##aching": 7034,
      "disaster": 7035,
      "unfor": 7036,
      "deserve": 7037,
      "acting": 7038,
      "perce": 7039,
      "chest": 7040,
      "sale": 7041,
      "mindfulness": 7042,
      "integrated": 7043,
      "gathering": 7044,
      "suspicious": 7045,
      "numerical": 7046,
      "Mount": 7047,
      "##oe": 7048,
      "##lin": 7049,
      "##ilty": 7050,
      "feat": 7051,
      "wellbe": 7052,
      "translation": 7053,
      "regards": 7054,
      "Isn": 7055,
      "guilty": 7056,
      "entry": 7057,
      "proposed": 7058,
      "Outline": 7059,
      "Constitution": 7060,
      "printing": 7061,
      "African": 7062,
      "religion": 7063,
      "hobby": 7064,
      "wellbeing": 7065,
      "Nations": 7066,
      "hates": 7067,
      "wave": 7068,
      "##oes": 7069,
      "##overs": 7070,
      "##iam": 7071,
      "plot": 7072,
      "##allow": 7073,
      "Street": 7074,
      "insert": 7075,
      "confirm": 7076,
      "enjoying": 7077,
      "Impact": 7078,
      "Americans": 7079,
      "containers": 7080,
      "earthqu": 7081,
      "duty": 7082,
      "interconnected": 7083,
      "Care": 7084,
      "Never": 7085,
      "School": 7086,
      "hire": 7087,
      "##nership": 7088,
      "##rect": 7089,
      "alt": 7090,
      "##amps": 7091,
      "##orders": 7092,
      "lots": 7093,
      "brave": 7094,
      "Share": 7095,
      "Install": 7096,
      "Instagram": 7097,
      "surroundings": 7098,
      "Washing": 7099,
      "locked": 7100,
      "hydrogen": 7101,
      "Help": 7102,
      "neurons": 7103,
      "portfolio": 7104,
      "Cour": 7105,
      "Civil": 7106,
      "Hist": 7107,
      "Sir": 7108,
      "bree": 7109,
      "border": 7110,
      "fest": 7111,
      "##iest": 7112,
      "##zil": 7113,
      "##cending": 7114,
      "stead": 7115,
      "onions": 7116,
      "##udes": 7117,
      "allerg": 7118,
      "##icked": 7119,
      "Change": 7120,
      "brush": 7121,
      "refine": 7122,
      "preserve": 7123,
      "formal": 7124,
      "factory": 7125,
      "extensive": 7126,
      "landf": 7127,
      "achievements": 7128,
      "mixed": 7129,
      "indicates": 7130,
      "Brazil": 7131,
      "mentioned": 7132,
      "Experience": 7133,
      "misunderstand": 7134,
      "?\".": 7135,
      "Haw": 7136,
      "ID": 7137,
      "Jane": 7138,
      "Light": 7139,
      "mer": 7140,
      "##right": 7141,
      "##mond": 7142,
      "insect": 7143,
      "doors": 7144,
      "plate": 7145,
      "##uality": 7146,
      "phase": 7147,
      "whenever": 7148,
      "medication": 7149,
      "meters": 7150,
      "ski": 7151,
      "funding": 7152,
      "##fficiency": 7153,
      "selected": 7154,
      "forgive": 7155,
      "adjustments": 7156,
      "Phot": 7157,
      "accepted": 7158,
      "massive": 7159,
      "surrounding": 7160,
      "picked": 7161,
      "shelf": 7162,
      "Making": 7163,
      "hiking": 7164,
      "##wall": 7165,
      "fort": 7166,
      "weights": 7167,
      "impression": 7168,
      "##umin": 7169,
      "planned": 7170,
      "advoc": 7171,
      "respiratory": 7172,
      "elected": 7173,
      "majority": 7174,
      "consume": 7175,
      "divis": 7176,
      "Salt": 7177,
      "puzzle": 7178,
      "cryptocur": 7179,
      "Protect": 7180,
      "immersive": 7181,
      "3D": 7182,
      "fant": 7183,
      "sophistic": 7184,
      "##anas": 7185,
      "##orge": 7186,
      "##eling": 7187,
      "confer": 7188,
      "expansion": 7189,
      "dating": 7190,
      "Information": 7191,
      "applying": 7192,
      "emer": 7193,
      "flavors": 7194,
      "Asia": 7195,
      "consideration": 7196,
      "caps": 7197,
      "Providing": 7198,
      "decreased": 7199,
      "integrity": 7200,
      "Smith": 7201,
      "explores": 7202,
      "familiar": 7203,
      "bonds": 7204,
      "finger": 7205,
      "neutral": 7206,
      "Cr": 7207,
      "Mind": 7208,
      "binary": 7209,
      "fits": 7210,
      "sisters": 7211,
      "##bul": 7212,
      "##onic": 7213,
      "toy": 7214,
      "##charge": 7215,
      "##mented": 7216,
      "tech": 7217,
      "accessed": 7218,
      "lesson": 7219,
      "parking": 7220,
      "evaluation": 7221,
      "GPS": 7222,
      "validation": 7223,
      "domain": 7224,
      "Implementing": 7225,
      "Sometimes": 7226,
      "soda": 7227,
      "pocket": 7228,
      "27": 7229,
      "Rest": 7230,
      "Sn": 7231,
      "owe": 7232,
      "##ench": 7233,
      "##aker": 7234,
      "##rain": 7235,
      "##ria": 7236,
      "hearing": 7237,
      "leaks": 7238,
      "childhood": 7239,
      "slice": 7240,
      "basis": 7241,
      "Neural": 7242,
      "conducting": 7243,
      "grandfather": 7244,
      "revolutionize": 7245,
      "Decision": 7246,
      "injured": 7247,
      "overwhelmed": 7248,
      "streets": 7249,
      "Hello": 7250,
      "Oh": 7251,
      "Pay": 7252,
      "banks": 7253,
      "##mber": 7254,
      "Ital": 7255,
      "residents": 7256,
      "sheet": 7257,
      "metap": 7258,
      "startup": 7259,
      "supported": 7260,
      "realize": 7261,
      "defe": 7262,
      "crust": 7263,
      "preferred": 7264,
      "##aneously": 7265,
      "achievable": 7266,
      "scheme": 7267,
      "conversion": 7268,
      "exhaust": 7269,
      "attributes": 7270,
      "Below": 7271,
      "jealous": 7272,
      "Industrial": 7273,
      "toast": 7274,
      "inch": 7275,
      "strang": 7276,
      "permission": 7277,
      "experts": 7278,
      "understands": 7279,
      "modeling": 7280,
      "193": 7281,
      "extend": 7282,
      "discussed": 7283,
      "Scient": 7284,
      "Incorpor": 7285,
      "##bye": 7286,
      "debate": 7287,
      "streamline": 7288,
      "blend": 7289,
      "Similar": 7290,
      "celebrate": 7291,
      "climb": 7292,
      "disagree": 7293,
      "featuring": 7294,
      "()": 7295,
      "Ans": 7296,
      "Benef": 7297,
      "June": 7298,
      "Sup": 7299,
      "erosion": 7300,
      "##inter": 7301,
      "thesis": 7302,
      "shad": 7303,
      "quote": 7304,
      "##berries": 7305,
      "relat": 7306,
      "patience": 7307,
      "earning": 7308,
      "controls": 7309,
      "certainly": 7310,
      "trusted": 7311,
      "##lands": 7312,
      "boyfriend": 7313,
      "portion": 7314,
      "Sales": 7315,
      "evolving": 7316,
      "observed": 7317,
      "Prior": 7318,
      "instrument": 7319,
      "kilometers": 7320,
      "passengers": 7321,
      "Ext": 7322,
      "Wait": 7323,
      "fry": 7324,
      "voting": 7325,
      "##bits": 7326,
      "##icy": 7327,
      "##ented": 7328,
      "##aste": 7329,
      "ups": 7330,
      "##ears": 7331,
      "acts": 7332,
      "experiments": 7333,
      "solved": 7334,
      "advances": 7335,
      "signal": 7336,
      "servers": 7337,
      "texture": 7338,
      "recommendation": 7339,
      "appreciation": 7340,
      "maximize": 7341,
      "##alaxy": 7342,
      "vanilla": 7343,
      "convinced": 7344,
      "Sleep": 7345,
      "fab": 7346,
      "liber": 7347,
      "tap": 7348,
      "##like": 7349,
      "##atisf": 7350,
      "seas": 7351,
      "atoms": 7352,
      "club": 7353,
      "otherwise": 7354,
      "command": 7355,
      "teamwork": 7356,
      "passport": 7357,
      "boiling": 7358,
      "showcase": 7359,
      "width": 7360,
      "##stronom": 7361,
      "advertise": 7362,
      "limitations": 7363,
      "introducing": 7364,
      "Organize": 7365,
      "gradually": 7366,
      "frozen": 7367,
      "lonely": 7368,
      "dimensional": 7369,
      "Line": 7370,
      "rays": 7371,
      "till": 7372,
      "##ares": 7373,
      "aband": 7374,
      "scr": 7375,
      "carried": 7376,
      "thanks": 7377,
      "##plane": 7378,
      "remot": 7379,
      "answering": 7380,
      "reasoning": 7381,
      "existence": 7382,
      "Training": 7383,
      "Media": 7384,
      "symbols": 7385,
      "punish": 7386,
      "magnetic": 7387,
      "Break": 7388,
      "administr": 7389,
      "Categor": 7390,
      "Italian": 7391,
      "Gats": 7392,
      "Law": 7393,
      "PM": 7394,
      "Pac": 7395,
      "Rome": 7396,
      "cater": 7397,
      "da": 7398,
      "gathered": 7399,
      "rough": 7400,
      "##alle": 7401,
      "##ashed": 7402,
      "proport": 7403,
      "##ushed": 7404,
      "clut": 7405,
      "recall": 7406,
      "focusing": 7407,
      "defend": 7408,
      "robotics": 7409,
      "strive": 7410,
      "expanding": 7411,
      "drugs": 7412,
      "houses": 7413,
      "impressed": 7414,
      "fertil": 7415,
      "oriented": 7416,
      "Gatsby": 7417,
      "35": 7418,
      "Fire": 7419,
      "Key": 7420,
      "baked": 7421,
      "eld": 7422,
      "gently": 7423,
      "node": 7424,
      "virt": 7425,
      "##ikely": 7426,
      "explicit": 7427,
      "unus": 7428,
      "hadn": 7429,
      "##ints": 7430,
      "repetitive": 7431,
      "##arsh": 7432,
      "traveled": 7433,
      "Customers": 7434,
      "Setting": 7435,
      "advancement": 7436,
      "Personalization": 7437,
      "agricultural": 7438,
      "punished": 7439,
      "Visual": 7440,
      "appointments": 7441,
      "suddenly": 7442,
      "Greek": 7443,
      "breeze": 7444,
      "Eth": 7445,
      "LED": 7446,
      "eager": 7447,
      "##night": 7448,
      "##gi": 7449,
      "##ein": 7450,
      "##OS": 7451,
      "##arrow": 7452,
      "stro": 7453,
      "stuck": 7454,
      "comment": 7455,
      "inches": 7456,
      "intric": 7457,
      "syn": 7458,
      "peppers": 7459,
      "learns": 7460,
      "promin": 7461,
      "curious": 7462,
      "indicate": 7463,
      "fraudulent": 7464,
      "schedules": 7465,
      "comparison": 7466,
      "##incerely": 7467,
      "Washington": 7468,
      "il": 7469,
      "##bow": 7470,
      "##isy": 7471,
      "##irts": 7472,
      "##abit": 7473,
      "Head": 7474,
      "invite": 7475,
      "attitude": 7476,
      "secrets": 7477,
      "Ref": 7478,
      "proposal": 7479,
      "warning": 7480,
      "absent": 7481,
      "containing": 7482,
      "identified": 7483,
      "Span": 7484,
      "imagine": 7485,
      "uncertainty": 7486,
      "corresponding": 7487,
      "recycled": 7488,
      "displacement": 7489,
      "Word": 7490,
      "aer": 7491,
      "hiring": 7492,
      "lux": 7493,
      "pig": 7494,
      "vent": 7495,
      "##ae": 7496,
      "##wh": 7497,
      "##igue": 7498,
      "cancel": 7499,
      "##usions": 7500,
      "weird": 7501,
      "##outhern": 7502,
      "traditions": 7503,
      "##erved": 7504,
      "Chorus": 7505,
      "##ocking": 7506,
      "guarant": 7507,
      "profits": 7508,
      "Engage": 7509,
      "adjusting": 7510,
      "Emily": 7511,
      "thermost": 7512,
      "mutual": 7513,
      "innocent": 7514,
      "remotely": 7515,
      "Hi": 7516,
      "RAM": 7517,
      "Search": 7518,
      "dense": 7519,
      "##otal": 7520,
      "necess": 7521,
      "chlor": 7522,
      "emit": 7523,
      "lists": 7524,
      "endang": 7525,
      "nearest": 7526,
      "volcan": 7527,
      "politics": 7528,
      "gained": 7529,
      "Block": 7530,
      "concerned": 7531,
      "resistance": 7532,
      "Continu": 7533,
      "CP": 7534,
      "drow": 7535,
      "ome": 7536,
      "pairs": 7537,
      "rh": 7538,
      "tower": 7539,
      "##utely": 7540,
      "Third": 7541,
      "agent": 7542,
      "##weight": 7543,
      "##gged": 7544,
      "safely": 7545,
      "logic": 7546,
      "limits": 7547,
      "estimate": 7548,
      "persist": 7549,
      "reasonable": 7550,
      "mechanics": 7551,
      "Quant": 7552,
      "converting": 7553,
      "80": 7554,
      "James": 7555,
      "laughter": 7556,
      "pump": 7557,
      "tit": 7558,
      "woke": 7559,
      "enth": 7560,
      "##elled": 7561,
      "Star": 7562,
      "goodbye": 7563,
      "roots": 7564,
      "findings": 7565,
      "signed": 7566,
      "signals": 7567,
      "Supp": 7568,
      "networking": 7569,
      "listened": 7570,
      "affecting": 7571,
      "perfectly": 7572,
      "Franc": 7573,
      "exceptional": 7574,
      "illeg": 7575,
      "Lack": 7576,
      "Mark": 7577,
      "mort": 7578,
      "tire": 7579,
      "##uum": 7580,
      "##;.": 7581,
      "##erious": 7582,
      "customs": 7583,
      "partnership": 7584,
      "humid": 7585,
      "grows": 7586,
      "accessibility": 7587,
      "charging": 7588,
      "passing": 7589,
      "192": 7590,
      "brands": 7591,
      "statements": 7592,
      "receives": 7593,
      "subjects": 7594,
      "illnesses": 7595,
      "catching": 7596,
      "appeal": 7597,
      "struggling": 7598,
      "rolling": 7599,
      "pull": 7600,
      "scheduling": 7601,
      "Transportation": 7602,
      "=\"": 7603,
      "Pat": 7604,
      "River": 7605,
      "dough": 7606,
      "##och": 7607,
      "##bies": 7608,
      "beef": 7609,
      "suited": 7610,
      "##tery": 7611,
      "tears": 7612,
      "##inkle": 7613,
      "flash": 7614,
      "preserving": 7615,
      "smallest": 7616,
      "endless": 7617,
      "##airy": 7618,
      "targets": 7619,
      "minimizing": 7620,
      "strain": 7621,
      "magaz": 7622,
      "subscription": 7623,
      "adoption": 7624,
      "Throughout": 7625,
      "unsupervised": 7626,
      "fulfilling": 7627,
      "suffering": 7628,
      "enemy": 7629,
      "descriptions": 7630,
      "exclusive": 7631,
      "devastating": 7632,
      "Efficiency": 7633,
      "Fresh": 7634,
      "FRO": 7635,
      "Jan": 7636,
      "Job": 7637,
      "dancing": 7638,
      "##isc": 7639,
      "worst": 7640,
      "despite": 7641,
      "spark": 7642,
      "Stat": 7643,
      "grid": 7644,
      "highlights": 7645,
      "simult": 7646,
      "ending": 7647,
      "winds": 7648,
      "Success": 7649,
      "combines": 7650,
      "suggestion": 7651,
      "snacks": 7652,
      "parks": 7653,
      "Financial": 7654,
      "arranged": 7655,
      "steam": 7656,
      "adopted": 7657,
      "burned": 7658,
      "appointment": 7659,
      "compassion": 7660,
      "Answer": 7661,
      "Spanish": 7662,
      "Met": 7663,
      "Pass": 7664,
      "barely": 7665,
      "nation": 7666,
      "##etary": 7667,
      "##essert": 7668,
      "exceed": 7669,
      "##izable": 7670,
      "hasht": 7671,
      "university": 7672,
      "overl": 7673,
      "invention": 7674,
      "Adapt": 7675,
      "inflation": 7676,
      "singer": 7677,
      "territ": 7678,
      "teaches": 7679,
      "Remove": 7680,
      "utilizing": 7681,
      "slices": 7682,
      "stimul": 7683,
      "Benefits": 7684,
      "Pacific": 7685,
      "Francis": 7686,
      "Cut": 7687,
      "Sov": 7688,
      "nations": 7689,
      "pour": 7690,
      "##pet": 7691,
      "##omed": 7692,
      "##ette": 7693,
      "##roat": 7694,
      "##htaking": 7695,
      "##ums": 7696,
      "coal": 7697,
      "##othermal": 7698,
      "humor": 7699,
      "Exc": 7700,
      "classified": 7701,
      "charged": 7702,
      "winning": 7703,
      "discussions": 7704,
      "integer": 7705,
      "attractions": 7706,
      "collaborative": 7707,
      "occurred": 7708,
      "assignments": 7709,
      "Perhaps": 7710,
      "wireless": 7711,
      "societies": 7712,
      "Soviet": 7713,
      "Spr": 7714,
      "Saf": 7715,
      "cas": 7716,
      "horm": 7717,
      "nine": 7718,
      "recharge": 7719,
      "therefore": 7720,
      "president": 7721,
      "qualities": 7722,
      "difficulties": 7723,
      "belief": 7724,
      "installed": 7725,
      "outdoors": 7726,
      "walks": 7727,
      "restrictions": 7728,
      "],.": 7729,
      "odd": 7730,
      "rainforest": 7731,
      "Gold": 7732,
      "fasc": 7733,
      "##down": 7734,
      "##host": 7735,
      "##LE": 7736,
      "theories": 7737,
      "##esity": 7738,
      "##izer": 7739,
      "outlines": 7740,
      "##rencies": 7741,
      "##ressed": 7742,
      "relief": 7743,
      "mode": 7744,
      "varies": 7745,
      "##phins": 7746,
      "University": 7747,
      "analyzed": 7748,
      "accountability": 7749,
      "Text": 7750,
      "##azz": 7751,
      "critic": 7752,
      "pasta": 7753,
      "destruction": 7754,
      "roads": 7755,
      "measured": 7756,
      "breathtaking": 7757,
      "melted": 7758,
      "Email": 7759,
      "mechanisms": 7760,
      "hopes": 7761,
      "pleased": 7762,
      "belongs": 7763,
      "pursue": 7764,
      "evolve": 7765,
      "overwhelming": 7766,
      "jacket": 7767,
      "barriers": 7768,
      "retirement": 7769,
      "75": 7770,
      "July": 7771,
      "Port": 7772,
      "Send": 7773,
      "rose": 7774,
      "##lig": 7775,
      "##box": 7776,
      "toile": 7777,
      "##eding": 7778,
      "##lets": 7779,
      "##ether": 7780,
      "##olic": 7781,
      "##unately": 7782,
      "Whose": 7783,
      "##inder": 7784,
      "smarter": 7785,
      "infl": 7786,
      "physically": 7787,
      "connectivity": 7788,
      "planting": 7789,
      "bedroom": 7790,
      "versatile": 7791,
      "soldiers": 7792,
      "vitamin": 7793,
      "Kingdom": 7794,
      "soul": 7795,
      "FROM": 7796,
      "Dist": 7797,
      "Fi": 7798,
      "Flex": 7799,
      "dip": 7800,
      "lung": 7801,
      "narrow": 7802,
      "pink": 7803,
      "rows": 7804,
      "##ien": 7805,
      "##cue": 7806,
      "##SS": 7807,
      "##ald": 7808,
      "##isp": 7809,
      "comparing": 7810,
      "client": 7811,
      "managers": 7812,
      "register": 7813,
      "resulted": 7814,
      "audio": 7815,
      "USA": 7816,
      "responding": 7817,
      "phrases": 7818,
      "verify": 7819,
      "dedication": 7820,
      "announ": 7821,
      "framework": 7822,
      "landfills": 7823,
      "Blockchain": 7824,
      "90": 7825,
      "Los": 7826,
      "Watch": 7827,
      "rub": 7828,
      "##CT": 7829,
      "##edia": 7830,
      "##etime": 7831,
      "##illet": 7832,
      "##otes": 7833,
      "cond": 7834,
      "whatever": 7835,
      "troub": 7836,
      "##ritious": 7837,
      "poison": 7838,
      "Altern": 7839,
      "regulating": 7840,
      "participation": 7841,
      "priority": 7842,
      "priorities": 7843,
      "unlikely": 7844,
      "proteins": 7845,
      "pulled": 7846,
      "emphasis": 7847,
      "manipulate": 7848,
      "crowd": 7849,
      "blanket": 7850,
      "hesitate": 7851,
      "suitcase": 7852,
      "simultaneously": 7853,
      "Cap": 7854,
      "Event": 7855,
      "Fam": 7856,
      "Fill": 7857,
      "ric": 7858,
      "##mates": 7859,
      "toys": 7860,
      "almond": 7861,
      "weigh": 7862,
      "##ogether": 7863,
      "exposed": 7864,
      "##irect": 7865,
      "##enses": 7866,
      "stands": 7867,
      "facilities": 7868,
      "rainfall": 7869,
      "harmony": 7870,
      "consistency": 7871,
      "Personalized": 7872,
      "observations": 7873,
      "retrieve": 7874,
      "pushing": 7875,
      "Estab": 7876,
      "narrative": 7877,
      "protocols": 7878,
      "bench": 7879,
      "cab": 7880,
      "python": 7881,
      "##king": 7882,
      "##know": 7883,
      "##sever": 7884,
      "washed": 7885,
      "acknow": 7886,
      "synt": 7887,
      "##erves": 7888,
      "removed": 7889,
      "matches": 7890,
      "sunny": 7891,
      "graphic": 7892,
      "delivered": 7893,
      "backgrounds": 7894,
      "woods": 7895,
      "hosting": 7896,
      "democracy": 7897,
      "circuit": 7898,
      ".,": 7899,
      "22": 7900,
      "Bay": 7901,
      "wise": 7902,
      "##hib": 7903,
      "##uting": 7904,
      "shade": 7905,
      "refres": 7906,
      "grade": 7907,
      "humanity": 7908,
      "##ycles": 7909,
      "vegetarian": 7910,
      "engineers": 7911,
      "Incl": 7912,
      "fright": 7913,
      "lift": 7914,
      "holds": 7915,
      "dividing": 7916,
      "##ugged": 7917,
      "Assistant": 7918,
      "Angeles": 7919,
      "fulfillment": 7920,
      "carpooling": 7921,
      "athlet": 7922,
      "Age": 7923,
      "Ber": 7924,
      "fle": 7925,
      "fake": 7926,
      "lush": 7927,
      "##tles": 7928,
      "##craft": 7929,
      "##ulf": 7930,
      "compounds": 7931,
      "##acter": 7932,
      "scan": 7933,
      "##licated": 7934,
      "positions": 7935,
      "poly": 7936,
      "ownership": 7937,
      "hyper": 7938,
      "filter": 7939,
      "optimizing": 7940,
      "nutritious": 7941,
      "Spain": 7942,
      "diagnose": 7943,
      "reminder": 7944,
      "superm": 7945,
      "awake": 7946,
      "witness": 7947,
      "philosophy": 7948,
      "Similarly": 7949,
      "endangered": 7950,
      "enthus": 7951,
      "sac": 7952,
      "zoo": 7953,
      "##mble": 7954,
      "##inal": 7955,
      "##organ": 7956,
      "stove": 7957,
      "##aded": 7958,
      "##istry": 7959,
      "sections": 7960,
      "intend": 7961,
      "fever": 7962,
      "unh": 7963,
      "perm": 7964,
      "bub": 7965,
      "polite": 7966,
      "possibility": 7967,
      "Depending": 7968,
      "essence": 7969,
      "representatives": 7970,
      "bigger": 7971,
      "loans": 7972,
      "reliability": 7973,
      "repeated": 7974,
      "clustering": 7975,
      "sessions": 7976,
      "sophisticated": 7977,
      "unusual": 7978,
      "Tur": 7979,
      "astronom": 7980,
      "ghost": 7981,
      "tune": 7982,
      "##ena": 7983,
      "##opol": 7984,
      "wheel": 7985,
      "spect": 7986,
      "##ometric": 7987,
      "gloves": 7988,
      "dried": 7989,
      "ears": 7990,
      "191": 7991,
      "genet": 7992,
      "burst": 7993,
      "Increase": 7994,
      "Leave": 7995,
      "apologized": 7996,
      "figures": 7997,
      "enabled": 7998,
      "candidates": 7999,
      "flooding": 8000,
      "federal": 8001,
      "Bas": 8002,
      "Log": 8003,
      "Mac": 8004,
      "Wi": 8005,
      "Yog": 8006,
      "jew": 8007,
      "mouse": 8008,
      "rivers": 8009,
      "tang": 8010,
      "tiss": 8011,
      "proceed": 8012,
      "##ulous": 8013,
      "lever": 8014,
      "index": 8015,
      "smiling": 8016,
      "designer": 8017,
      "mainly": 8018,
      "performs": 8019,
      "connecting": 8020,
      "headache": 8021,
      "angles": 8022,
      "sweater": 8023,
      "releasing": 8024,
      "emphasizes": 8025,
      "mysterious": 8026,
      "thousand": 8027,
      "Ed": 8028,
      "Rights": 8029,
      "Walk": 8030,
      "cube": 8031,
      "##grad": 8032,
      "##ued": 8033,
      "##AR": 8034,
      "shy": 8035,
      "notifications": 8036,
      "emission": 8037,
      "guard": 8038,
      "defining": 8039,
      "##ccoli": 8040,
      "mindful": 8041,
      "sleepy": 8042,
      "photograph": 8043,
      "directions": 8044,
      "pretended": 8045,
      "vacuum": 8046,
      "complaint": 8047,
      "batteries": 8048,
      "smoothly": 8049,
      "impressive": 8050,
      "towel": 8051,
      "sunset": 8052,
      "##security": 8053,
      "penalty": 8054,
      "Sustainable": 8055,
      "assemb": 8056,
      "hashtag": 8057,
      "Cult": 8058,
      "East": 8059,
      "pil": 8060,
      "tack": 8061,
      "##kay": 8062,
      "##eted": 8063,
      "##acc": 8064,
      "##acerb": 8065,
      "incon": 8066,
      "##endment": 8067,
      "perception": 8068,
      "##lick": 8069,
      "covers": 8070,
      "handw": 8071,
      "avocado": 8072,
      "generates": 8073,
      "predicted": 8074,
      "Android": 8075,
      "expressed": 8076,
      "labels": 8077,
      "infection": 8078,
      "Visit": 8079,
      "reinforcement": 8080,
      "Verse": 8081,
      "conclusions": 8082,
      "28": 8083,
      "Fu": 8084,
      "Mobile": 8085,
      "cough": 8086,
      "mac": 8087,
      "rains": 8088,
      "wound": 8089,
      "yes": 8090,
      "##atitude": 8091,
      "##reens": 8092,
      "##orrect": 8093,
      "anger": 8094,
      "##rix": 8095,
      "exacerb": 8096,
      "seg": 8097,
      "trap": 8098,
      "decentral": 8099,
      "Strate": 8100,
      "evenly": 8101,
      "performed": 8102,
      "##ierarch": 8103,
      "esteem": 8104,
      "agreement": 8105,
      "portable": 8106,
      "uncover": 8107,
      "Firstly": 8108,
      "persuade": 8109,
      "banana": 8110,
      "Maintain": 8111,
      "droughts": 8112,
      "Hawai": 8113,
      "Run": 8114,
      "Rew": 8115,
      "`.": 8116,
      "bustling": 8117,
      "dining": 8118,
      "pad": 8119,
      "tweet": 8120,
      "##aive": 8121,
      "##gely": 8122,
      "##erly": 8123,
      "##iform": 8124,
      "usual": 8125,
      "sear": 8126,
      "abund": 8127,
      "##unction": 8128,
      "spices": 8129,
      "skillet": 8130,
      "cheap": 8131,
      "matters": 8132,
      "Neither": 8133,
      "Contact": 8134,
      "Blue": 8135,
      "transforming": 8136,
      "##equate": 8137,
      "incentiv": 8138,
      "wealthy": 8139,
      "Robot": 8140,
      "promptly": 8141,
      "drove": 8142,
      "ratings": 8143,
      "landmarks": 8144,
      "tactics": 8145,
      "##allel": 8146,
      "intricate": 8147,
      "Focus": 8148,
      "Oper": 8149,
      "Pos": 8150,
      "Poll": 8151,
      "fem": 8152,
      "pill": 8153,
      "##rum": 8154,
      "##pace": 8155,
      "##TP": 8156,
      "inner": 8157,
      "oranges": 8158,
      "##ifting": 8159,
      "admit": 8160,
      "workload": 8161,
      "soap": 8162,
      "##aved": 8163,
      "whereas": 8164,
      "analog": 8165,
      "largely": 8166,
      "cheer": 8167,
      "obesity": 8168,
      "forming": 8169,
      "passage": 8170,
      "19th": 8171,
      "equival": 8172,
      "sites": 8173,
      "templ": 8174,
      "##plete": 8175,
      "addresses": 8176,
      "receiving": 8177,
      "conversations": 8178,
      "Empire": 8179,
      "fatigue": 8180,
      "injuries": 8181,
      "prosper": 8182,
      "supermarket": 8183,
      "Div": 8184,
      "Eat": 8185,
      "Einst": 8186,
      "joint": 8187,
      "mob": 8188,
      "ranging": 8189,
      "rarely": 8190,
      "##list": 8191,
      "prove": 8192,
      "contam": 8193,
      "##auc": 8194,
      "developer": 8195,
      "gramm": 8196,
      "cheaper": 8197,
      "coral": 8198,
      "accountable": 8199,
      "expecting": 8200,
      "Allow": 8201,
      "##ught": 8202,
      "##brid": 8203,
      "specialized": 8204,
      "remained": 8205,
      "Travel": 8206,
      "##ields": 8207,
      "injury": 8208,
      "converted": 8209,
      "Einstein": 8210,
      "AM": 8211,
      "Hand": 8212,
      "None": 8213,
      "Note": 8214,
      "Sincerely": 8215,
      "cm": 8216,
      "##lay": 8217,
      "##ini": 8218,
      "##aled": 8219,
      "proactive": 8220,
      "scream": 8221,
      "peak": 8222,
      "##lesh": 8223,
      "Store": 8224,
      "Stand": 8225,
      "Changes": 8226,
      "surfaces": 8227,
      "checks": 8228,
      "insight": 8229,
      "poster": 8230,
      "flows": 8231,
      "court": 8232,
      "demands": 8233,
      "Order": 8234,
      "Train": 8235,
      "Small": 8236,
      "Priv": 8237,
      "translate": 8238,
      "Democ": 8239,
      "divorced": 8240,
      "Categorize": 8241,
      "illegal": 8242,
      "Bir": 8243,
      "Bob": 8244,
      "Bank": 8245,
      "Pop": 8246,
      "Pick": 8247,
      "cer": 8248,
      "fur": 8249,
      "tens": 8250,
      "##ta": 8251,
      "##).": 8252,
      "theft": 8253,
      "intention": 8254,
      "outfit": 8255,
      "accum": 8256,
      "relative": 8257,
      "demographics": 8258,
      "digits": 8259,
      "filters": 8260,
      "optimized": 8261,
      "expressions": 8262,
      "breathe": 8263,
      "Recycling": 8264,
      "encouraged": 8265,
      "broader": 8266,
      "Electric": 8267,
      "Respons": 8268,
      "23": 8269,
      "HTM": 8270,
      "Mich": 8271,
      "dessert": 8272,
      "era": 8273,
      "flying": 8274,
      "toler": 8275,
      "##itative": 8276,
      "##itational": 8277,
      "##itudes": 8278,
      "##icine": 8279,
      "throat": 8280,
      "##etch": 8281,
      "conference": 8282,
      "##orthern": 8283,
      "cloth": 8284,
      "perpet": 8285,
      "invitation": 8286,
      "computational": 8287,
      "accessing": 8288,
      "optional": 8289,
      "dram": 8290,
      "currency": 8291,
      "delay": 8292,
      "margin": 8293,
      "heads": 8294,
      "contributes": 8295,
      "dangers": 8296,
      "burden": 8297,
      "expressing": 8298,
      "Robots": 8299,
      "shares": 8300,
      "bananas": 8301,
      "hobbies": 8302,
      "thousands": 8303,
      "Predictive": 8304,
      "weapons": 8305,
      "nitrogen": 8306,
      "omelet": 8307,
      "Francisco": 8308,
      "HTML": 8309,
      "?\"": 8310,
      "Cub": 8311,
      "Central": 8312,
      "IP": 8313,
      "Squ": 8314,
      "Ye": 8315,
      "ax": 8316,
      "aest": 8317,
      "escap": 8318,
      "gest": 8319,
      "km": 8320,
      "nest": 8321,
      "rul": 8322,
      "vert": 8323,
      "##nel": 8324,
      "##oin": 8325,
      "##een": 8326,
      "##table": 8327,
      "##outer": 8328,
      "##asant": 8329,
      "shell": 8330,
      "empower": 8331,
      "caut": 8332,
      "##enger": 8333,
      "distant": 8334,
      "submit": 8335,
      "Sea": 8336,
      "Listen": 8337,
      "Address": 8338,
      "186": 8339,
      "150": 8340,
      "observation": 8341,
      "anti": 8342,
      "Republic": 8343,
      "Promoting": 8344,
      "previously": 8345,
      "annual": 8346,
      "charts": 8347,
      "castle": 8348,
      "judge": 8349,
      "pursuit": 8350,
      "embrace": 8351,
      "CPU": 8352,
      "equivalent": 8353,
      "Rub": 8354,
      "aug": 8355,
      "crew": 8356,
      "gate": 8357,
      "hang": 8358,
      "pou": 8359,
      "##telling": 8360,
      "##anqu": 8361,
      "thirst": 8362,
      "##lete": 8363,
      "##ushing": 8364,
      "lect": 8365,
      "overs": 8366,
      "##orses": 8367,
      "carb": 8368,
      "regulation": 8369,
      "advis": 8370,
      "assets": 8371,
      "complement": 8372,
      "Enter": 8373,
      "explos": 8374,
      "airplane": 8375,
      "passes": 8376,
      "defense": 8377,
      "determining": 8378,
      "constra": 8379,
      "occasion": 8380,
      "updating": 8381,
      "##worth": 8382,
      "decreases": 8383,
      "crack": 8384,
      "mixing": 8385,
      "mechanism": 8386,
      "imagination": 8387,
      "Feed": 8388,
      "irre": 8389,
      "claims": 8390,
      "##aturally": 8391,
      "absolutely": 8392,
      "Profess": 8393,
      "Roman": 8394,
      "Positive": 8395,
      "Dif": 8396,
      "Love": 8397,
      "Ur": 8398,
      "Warm": 8399,
      "er": 8400,
      "pets": 8401,
      "ts": 8402,
      "vector": 8403,
      "##bage": 8404,
      "iter": 8405,
      "ash": 8406,
      "##using": 8407,
      "incorrect": 8408,
      "pean": 8409,
      "inclusion": 8410,
      "moderate": 8411,
      "socks": 8412,
      "attach": 8413,
      "laid": 8414,
      "endor": 8415,
      "showc": 8416,
      "calming": 8417,
      "respectful": 8418,
      "gardens": 8419,
      "Improve": 8420,
      "displayed": 8421,
      "melody": 8422,
      "subset": 8423,
      "substances": 8424,
      "Grand": 8425,
      "highlighting": 8426,
      "Windows": 8427,
      "Limited": 8428,
      "August": 8429,
      "skiing": 8430,
      "Flexibility": 8431,
      "cautious": 8432,
      "Mental": 8433,
      "Mix": 8434,
      "dying": 8435,
      "jar": 8436,
      "pond": 8437,
      "ren": 8438,
      "sang": 8439,
      "upper": 8440,
      "##ault": 8441,
      "##aze": 8442,
      "##name": 8443,
      "##made": 8444,
      "##wood": 8445,
      "sex": 8446,
      "Heat": 8447,
      "customized": 8448,
      "accused": 8449,
      "keyboard": 8450,
      "corners": 8451,
      "legis": 8452,
      "dietary": 8453,
      "respective": 8454,
      "mechanical": 8455,
      "##rayed": 8456,
      "destroyed": 8457,
      "Fit": 8458,
      "Sams": 8459,
      "ber": 8460,
      "cried": 8461,
      "naturally": 8462,
      "pure": 8463,
      "vine": 8464,
      "##ha": 8465,
      "##icide": 8466,
      "asp": 8467,
      "cha": 8468,
      "plates": 8469,
      "##gettable": 8470,
      "##ruit": 8471,
      "blow": 8472,
      "coin": 8473,
      "##issors": 8474,
      "mostly": 8475,
      "minor": 8476,
      "impacted": 8477,
      "explo": 8478,
      "corn": 8479,
      "headline": 8480,
      "eleg": 8481,
      "Atl": 8482,
      "relaxing": 8483,
      "farmer": 8484,
      "Color": 8485,
      "hydrated": 8486,
      "nutrient": 8487,
      "tourist": 8488,
      "sleek": 8489,
      "marked": 8490,
      "allocate": 8491,
      "attempt": 8492,
      "George": 8493,
      "recipient": 8494,
      "Lastly": 8495,
      "hurricanes": 8496,
      "earthquake": 8497,
      "Samsung": 8498,
      "':": 8499,
      "Sing": 8500,
      "boring": 8501,
      "ped": 8502,
      "##hi": 8503,
      "##elcome": 8504,
      "##igor": 8505,
      "alph": 8506,
      "##izers": 8507,
      "##uming": 8508,
      "notable": 8509,
      "##arts": 8510,
      "intent": 8511,
      "interior": 8512,
      "##ueen": 8513,
      "uniform": 8514,
      "##ensus": 8515,
      "finances": 8516,
      "metab": 8517,
      "explains": 8518,
      "Import": 8519,
      "purchased": 8520,
      "influential": 8521,
      "##ceries": 8522,
      "integral": 8523,
      "transformation": 8524,
      "paths": 8525,
      "fluctu": 8526,
      "Potter": 8527,
      "##inoa": 8528,
      "##bullying": 8529,
      "prominent": 8530,
      "36": 8531,
      "32": 8532,
      "Book": 8533,
      "Cy": 8534,
      "hike": 8535,
      "pin": 8536,
      "yen": 8537,
      "##page": 8538,
      "theore": 8539,
      "##alities": 8540,
      "##ita": 8541,
      "ree": 8542,
      "##urable": 8543,
      "##oding": 8544,
      "##ppings": 8545,
      "##aret": 8546,
      "##inked": 8547,
      "intake": 8548,
      "scores": 8549,
      "##rown": 8550,
      "relies": 8551,
      "transmission": 8552,
      "Repe": 8553,
      "laun": 8554,
      "methane": 8555,
      "employers": 8556,
      "lands": 8557,
      "##iox": 8558,
      "Arctic": 8559,
      "eleph": 8560,
      "evaluated": 8561,
      "pretend": 8562,
      "relaxed": 8563,
      "silent": 8564,
      "adopt": 8565,
      "execute": 8566,
      "army": 8567,
      "##umbled": 8568,
      "browsing": 8569,
      "malware": 8570,
      "excessive": 8571,
      "therapy": 8572,
      "strengthen": 8573,
      "mirror": 8574,
      "decentralized": 8575,
      "26": 8576,
      "Apr": 8577,
      "Bro": 8578,
      "Mal": 8579,
      "coc": 8580,
      "gear": 8581,
      "jokes": 8582,
      "##apping": 8583,
      "##uary": 8584,
      "##elect": 8585,
      "##tes": 8586,
      "##cl": 8587,
      "reuse": 8588,
      "stom": 8589,
      "stone": 8590,
      "alb": 8591,
      "sug": 8592,
      "##abil": 8593,
      "wasting": 8594,
      "scope": 8595,
      "perman": 8596,
      "processor": 8597,
      "supportive": 8598,
      "breaches": 8599,
      "showers": 8600,
      "warmer": 8601,
      "photography": 8602,
      "entering": 8603,
      "integers": 8604,
      "calculations": 8605,
      "geothermal": 8606,
      "invented": 8607,
      "harness": 8608,
      "dropped": 8609,
      "mystery": 8610,
      "psychological": 8611,
      "trigger": 8612,
      "History": 8613,
      "Cat": 8614,
      "Long": 8615,
      "Random": 8616,
      "Welcome": 8617,
      "bake": 8618,
      "sour": 8619,
      "##aired": 8620,
      "##met": 8621,
      "inher": 8622,
      "##oline": 8623,
      "stack": 8624,
      "symp": 8625,
      "##onscious": 8626,
      "reads": 8627,
      "artistic": 8628,
      "respiration": 8629,
      "requests": 8630,
      "caf": 8631,
      "guys": 8632,
      "centuries": 8633,
      "Always": 8634,
      "policem": 8635,
      "##fortunately": 8636,
      "enhanced": 8637,
      "firewall": 8638,
      "Friday": 8639,
      "Feature": 8640,
      "storms": 8641,
      "resistant": 8642,
      "Character": 8643,
      "unforgettable": 8644,
      "steady": 8645,
      "elderly": 8646,
      "Vol": 8647,
      "bones": 8648,
      "cave": 8649,
      "mild": 8650,
      "##achel": 8651,
      "tranqu": 8652,
      "spoon": 8653,
      "##ologist": 8654,
      "artists": 8655,
      "involving": 8656,
      "oblig": 8657,
      "insulation": 8658,
      "imaging": 8659,
      "tomato": 8660,
      "thirteen": 8661,
      "cryst": 8662,
      "Developing": 8663,
      "recorded": 8664,
      "Frank": 8665,
      "quantities": 8666,
      "##boards": 8667,
      "diagnoses": 8668,
      "Common": 8669,
      "attending": 8670,
      "carrying": 8671,
      "pleasure": 8672,
      "##ameter": 8673,
      "##fitting": 8674,
      "instruments": 8675,
      "insects": 8676,
      "metaphor": 8677,
      "abandoned": 8678,
      "inflamm": 8679,
      "##severance": 8680,
      "April": 8681,
      "Camp": 8682,
      "Dri": 8683,
      "UK": 8684,
      "cig": 8685,
      "cos": 8686,
      "fought": 8687,
      "gap": 8688,
      "hierarch": 8689,
      "tab": 8690,
      "wand": 8691,
      "##oil": 8692,
      "##lace": 8693,
      "toss": 8694,
      "##iciency": 8695,
      "fork": 8696,
      "reson": 8697,
      "Inn": 8698,
      "upstairs": 8699,
      "##ologies": 8700,
      "rope": 8701,
      "longest": 8702,
      "minced": 8703,
      "travels": 8704,
      "Temp": 8705,
      "tablets": 8706,
      "newslet": 8707,
      "mistaken": 8708,
      "variations": 8709,
      "adapted": 8710,
      "destinations": 8711,
      "compliance": 8712,
      "adventures": 8713,
      "installation": 8714,
      "laptops": 8715,
      "sorted": 8716,
      "regarding": 8717,
      "profitability": 8718,
      "phenomena": 8719,
      "Collaboration": 8720,
      "straws": 8721,
      "unfair": 8722,
      "punishment": 8723,
      "Quality": 8724,
      "Ro": 8725,
      "router": 8726,
      "voc": 8727,
      "##bling": 8728,
      "##jud": 8729,
      "##?.": 8730,
      "##oral": 8731,
      "##asp": 8732,
      "anom": 8733,
      "##amond": 8734,
      "sav": 8735,
      "coins": 8736,
      "personalize": 8737,
      "Unlike": 8738,
      "promotion": 8739,
      "textbook": 8740,
      "measuring": 8741,
      "depict": 8742,
      "warned": 8743,
      "directed": 8744,
      "Space": 8745,
      "division": 8746,
      "installing": 8747,
      "assigned": 8748,
      "sadness": 8749,
      "violence": 8750,
      "societal": 8751,
      "Battle": 8752,
      "homeless": 8753,
      "January": 8754,
      "inconvenience": 8755,
      "Agr": 8756,
      "Cent": 8757,
      "Count": 8758,
      "Muse": 8759,
      "hid": 8760,
      "hired": 8761,
      "##front": 8762,
      "##ule": 8763,
      "##lom": 8764,
      "##bur": 8765,
      "reject": 8766,
      "##ulpt": 8767,
      "shred": 8768,
      "shades": 8769,
      "unst": 8770,
      "sculpt": 8771,
      "restore": 8772,
      "considerations": 8773,
      "Although": 8774,
      "hearts": 8775,
      "struggles": 8776,
      "medications": 8777,
      "wooden": 8778,
      "hunt": 8779,
      "enemies": 8780,
      "acceler": 8781,
      "inhabit": 8782,
      "discipline": 8783,
      "segmentation": 8784,
      "Russia": 8785,
      "unhappy": 8786,
      "Hawaii": 8787,
      "Yeah": 8788,
      "berries": 8789,
      "Agricult": 8790,
      "33": 8791,
      "Aim": 8792,
      "Date": 8793,
      "NA": 8794,
      "cert": 8795,
      "ought": 8796,
      "san": 8797,
      "asks": 8798,
      "alarm": 8799,
      "neither": 8800,
      "closing": 8801,
      "gotten": 8802,
      "Convert": 8803,
      "continually": 8804,
      "landscap": 8805,
      "raising": 8806,
      "Newton": 8807,
      "fixing": 8808,
      "participating": 8809,
      "Improving": 8810,
      "scenarios": 8811,
      "General": 8812,
      "recipes": 8813,
      "duration": 8814,
      "frustration": 8815,
      "tutorial": 8816,
      "fabric": 8817,
      "thermostat": 8818,
      "##ioxid": 8819,
      "##electric": 8820,
      "harsh": 8821,
      "paced": 8822,
      "wins": 8823,
      "##fire": 8824,
      "##dy": 8825,
      "##zes": 8826,
      "##itan": 8827,
      "##ilant": 8828,
      "although": 8829,
      "##riage": 8830,
      "complicated": 8831,
      "##ograp": 8832,
      "unb": 8833,
      "scrap": 8834,
      "flo": 8835,
      "flights": 8836,
      "gratitude": 8837,
      "##ducing": 8838,
      "instruct": 8839,
      "earned": 8840,
      "serene": 8841,
      "dependence": 8842,
      "shoot": 8843,
      "depos": 8844,
      "speeds": 8845,
      "subjective": 8846,
      "##itarian": 8847,
      "silver": 8848,
      "rewarding": 8849,
      "Upd": 8850,
      "Veget": 8851,
      "Secondly": 8852,
      "democratic": 8853,
      "thoroughly": 8854,
      "turbines": 8855,
      "luxury": 8856,
      "cerem": 8857,
      "70": 8858,
      "Bi": 8859,
      "Del": 8860,
      "IT": 8861,
      "Sud": 8862,
      "Sept": 8863,
      "UN": 8864,
      "jail": 8865,
      "mamm": 8866,
      "##bles": 8867,
      "##PI": 8868,
      "##ili": 8869,
      "stain": 8870,
      "hack": 8871,
      "upgra": 8872,
      "outs": 8873,
      "strings": 8874,
      "recording": 8875,
      "diets": 8876,
      "designated": 8877,
      "lazy": 8878,
      "curve": 8879,
      "##cule": 8880,
      "##cuse": 8881,
      "contributed": 8882,
      "filtering": 8883,
      "loop": 8884,
      "captures": 8885,
      "Recogn": 8886,
      "oppon": 8887,
      "nucleus": 8888,
      "borrowed": 8889,
      "unpredict": 8890,
      "Bridge": 8891,
      "temporary": 8892,
      "Quantum": 8893,
      "titles": 8894,
      "Eventually": 8895,
      "Differ": 8896,
      "Game": 8897,
      "##GB": 8898,
      "toppings": 8899,
      "reverse": 8900,
      "comed": 8901,
      "Thus": 8902,
      "tender": 8903,
      "asset": 8904,
      "settle": 8905,
      "attent": 8906,
      "Excuse": 8907,
      "accessories": 8908,
      "behave": 8909,
      "##ohyd": 8910,
      "centers": 8911,
      "presenting": 8912,
      "discusses": 8913,
      "credibility": 8914,
      "tastes": 8915,
      "examination": 8916,
      "indicators": 8917,
      "Healthcare": 8918,
      "molecule": 8919,
      "groceries": 8920,
      "bathroom": 8921,
      "climbed": 8922,
      "gravitational": 8923,
      "session": 8924,
      "isolation": 8925,
      "scratch": 8926,
      "omelette": 8927,
      "Feedback": 8928,
      "Repeat": 8929,
      "September": 8930,
      "Equ": 8931,
      "Egg": 8932,
      "Gar": 8933,
      "Low": 8934,
      "Post": 8935,
      "Satur": 8936,
      "Treat": 8937,
      "Var": 8938,
      "ly": 8939,
      "south": 8940,
      "zone": 8941,
      "##aus": 8942,
      "##oop": 8943,
      "##ye": 8944,
      "##inant": 8945,
      "##att": 8946,
      "##atility": 8947,
      "##ishes": 8948,
      "##imedia": 8949,
      "##ogram": 8950,
      "evapor": 8951,
      "Ste": 8952,
      "coverage": 8953,
      "glac": 8954,
      "requiring": 8955,
      "audiences": 8956,
      "maintained": 8957,
      "negatively": 8958,
      "automating": 8959,
      "Tex": 8960,
      "##agnetic": 8961,
      "pressing": 8962,
      "cellular": 8963,
      "##ruption": 8964,
      "totally": 8965,
      "reference": 8966,
      "conducted": 8967,
      "entirely": 8968,
      "resolving": 8969,
      "domestic": 8970,
      "faith": 8971,
      "fosters": 8972,
      "fingers": 8973,
      "wisdom": 8974,
      "negoti": 8975,
      "absolute": 8976,
      "hazard": 8977,
      "ratio": 8978,
      "composting": 8979,
      "##giene": 8980,
      "casual": 8981,
      "vinegar": 8982,
      "stomach": 8983,
      "Four": 8984,
      "House": 8985,
      "Jour": 8986,
      "Sam": 8987,
      "aqu": 8988,
      "##uct": 8989,
      "##my": 8990,
      "##MS": 8991,
      "##ora": 8992,
      "prol": 8993,
      "##heric": 8994,
      "pride": 8995,
      "##ords": 8996,
      "classifier": 8997,
      "rises": 8998,
      "distances": 8999,
      "continent": 9000,
      "confused": 9001,
      "writes": 9002,
      "Bec": 9003,
      "operational": 9004,
      "snack": 9005,
      "preference": 9006,
      "arguing": 9007,
      "inspiring": 9008,
      "villagers": 9009,
      "Analytics": 9010,
      "floods": 9011,
      "stimulate": 9012,
      "Group": 9013,
      "ultimate": 9014,
      "emerging": 9015,
      "Safety": 9016,
      "jewel": 9017,
      "constraints": 9018,
      "Bang": 9019,
      "Very": 9020,
      "Western": 9021,
      "dairy": 9022,
      "mic": 9023,
      "none": 9024,
      "##rating": 9025,
      "##tage": 9026,
      "##wing": 9027,
      "##obic": 9028,
      "everywhere": 9029,
      "granted": 9030,
      "countless": 9031,
      "config": 9032,
      "calc": 9033,
      "Shop": 9034,
      "touched": 9035,
      "antioxid": 9036,
      "bullet": 9037,
      "clicking": 9038,
      "vulnerabilities": 9039,
      "Incorporate": 9040,
      "stroke": 9041,
      "Yoga": 9042,
      "##leshoot": 9043,
      "Museum": 9044,
      "400": 9045,
      "CE": 9046,
      "Galaxy": 9047,
      "Lin": 9048,
      "Lat": 9049,
      "##mic": 9050,
      "##pie": 9051,
      "##inger": 9052,
      "##ales": 9053,
      "##astern": 9054,
      "chrom": 9055,
      "sectors": 9056,
      "##umn": 9057,
      "##ague": 9058,
      "##arding": 9059,
      "scans": 9060,
      "decades": 9061,
      "poet": 9062,
      "surg": 9063,
      "Project": 9064,
      "economics": 9065,
      "oldest": 9066,
      "Unfortunately": 9067,
      "shoe": 9068,
      "reporting": 9069,
      "authorities": 9070,
      "steal": 9071,
      "drawbacks": 9072,
      "exams": 9073,
      "indicating": 9074,
      "utilize": 9075,
      "accomplished": 9076,
      "harvest": 9077,
      "Particip": 9078,
      "SELE": 9079,
      "Employee": 9080,
      "Optimize": 9081,
      "attempts": 9082,
      "Launch": 9083,
      "reefs": 9084,
      "SELECT": 9085,
      "!\".": 9086,
      "Mr": 9087,
      "Mil": 9088,
      "Mart": 9089,
      "March": 9090,
      "Sort": 9091,
      "Top": 9092,
      "aids": 9093,
      "cub": 9094,
      "mask": 9095,
      "tent": 9096,
      "wings": 9097,
      "##Script": 9098,
      "##RI": 9099,
      "##20": 9100,
      "##rot": 9101,
      "##igation": 9102,
      "##outs": 9103,
      "scat": 9104,
      "##avirus": 9105,
      "partners": 9106,
      "cozy": 9107,
      "##issance": 9108,
      "Advent": 9109,
      "boil": 9110,
      "rooms": 9111,
      "extended": 9112,
      "minds": 9113,
      "enjoys": 9114,
      "accounting": 9115,
      "spreading": 9116,
      "fallen": 9117,
      "captured": 9118,
      "centered": 9119,
      "closest": 9120,
      "Account": 9121,
      "Carbon": 9122,
      "disruptions": 9123,
      "viruses": 9124,
      "samples": 9125,
      "civilization": 9126,
      "JavaScript": 9127,
      "replaced": 9128,
      "investigation": 9129,
      "pushed": 9130,
      "couch": 9131,
      "cherry": 9132,
      "elevator": 9133,
      "preprocess": 9134,
      "Memory": 9135,
      "Bayes": 9136,
      "Divide": 9137,
      "Gen": 9138,
      "Mo": 9139,
      "Mother": 9140,
      "Rain": 9141,
      "cous": 9142,
      "fence": 9143,
      "nic": 9144,
      "rude": 9145,
      "##rous": 9146,
      "##tons": 9147,
      "##onavirus": 9148,
      "##veill": 9149,
      "suicide": 9150,
      "##odcast": 9151,
      "modes": 9152,
      "modified": 9153,
      "completion": 9154,
      "Dev": 9155,
      "analyst": 9156,
      "Somebody": 9157,
      "storytelling": 9158,
      "crash": 9159,
      "##forestation": 9160,
      "preparation": 9161,
      "inspiration": 9162,
      "Prime": 9163,
[...]
