{
  "version": "1.0",
  "truncation": null,
  "padding": null,
  "added_tokens": [
    {
      "id": 0,
      "content": "[UNK]",
      "single_word": false,
      "lstrip": false,
      "rstrip": false,
      "normalized": false,
      "special": true
    },
    {
      "id": 1,
      "content": "[PAD]",
      "single_word": false,
      "lstrip": false,
      "rstrip": false,
      "normalized": false,
      "special": true
    },
    {
      "id": 2,
      "content": "[SOS]",
      "single_word": false,
      "lstrip": false,
      "rstrip": false,
      "normalized": false,
      "special": true
    },
    {
      "id": 3,
      "content": "[EOS]",
      "single_word": false,
      "lstrip": false,
      "rstrip": false,
      "normalized": false,
      "special": true
    }
  ],
  "normalizer": null,
  "pre_tokenizer": {
    "type": "Whitespace"
  },
  "post_processor": null,
  "decoder": null,
  "model": {
    "type": "WordPiece",
    "unk_token": "[UNK]",
    "continuing_subword_prefix": "##",
    "max_input_chars_per_word": 100,
    "vocab": {
      "[UNK]": 0,
      "[PAD]": 1,
      "[SOS]": 2,
      "[EOS]": 3,
      "!": 4,
      "\"": 5,
      "#": 6,
      "$": 7,
      "%": 8,
      "&": 9,
      "'": 10,
      "(": 11,
      ")": 12,
      "*": 13,
      "+": 14,
      ",": 15,
      "-": 16,
      ".": 17,
      "/": 18,
      "0": 19,
      "1": 20,
      "2": 21,
      "3": 22,
      "4": 23,
      "5": 24,
      "6": 25,
      "7": 26,
      "8": 27,
      "9": 28,
      ":": 29,
      ";": 30,
      "<": 31,
      "=": 32,
      ">": 33,
      "?": 34,
      "@": 35,
      "A": 36,
      "B": 37,
      "C": 38,
      "D": 39,
      "E": 40,
      "F": 41,
      "G": 42,
      "H": 43,
      "I": 44,
      "J": 45,
      "K": 46,
      "L": 47,
      "M": 48,
      "N": 49,
      "O": 50,
      "P": 51,
      "R": 52,
      "S": 53,
      "T": 54,
      "U": 55,
      "V": 56,
      "W": 57,
      "X": 58,
      "Y": 59,
      "[": 60,
      "\\": 61,
      "]": 62,
      "^": 63,
      "_": 64,
      "a": 65,
      "b": 66,
      "c": 67,
      "d": 68,
      "e": 69,
      "f": 70,
      "g": 71,
      "h": 72,
      "i": 73,
      "j": 74,
      "k": 75,
      "l": 76,
      "m": 77,
      "n": 78,
      "o": 79,
      "p": 80,
      "r": 81,
      "s": 82,
      "t": 83,
      "u": 84,
      "v": 85,
      "w": 86,
      "x": 87,
      "y": 88,
      "{": 89,
      "}": 90,
      "~": 91,
      "£": 92,
      "¥": 93,
      "©": 94,
      "®": 95,
      "°": 96,
      "±": 97,
      "²": 98,
      "³": 99,
      "¹": 100,
      "×": 101,
      "÷": 102,
      "α": 103,
      "β": 104,
      "γ": 105,
      "θ": 106,
      "μ": 107,
      "π": 108,
      "σ": 109,
      "அ": 110,
      "க": 111,
      "ட": 112,
      "ப": 113,
      "ி": 114,
      "ு": 115,
      "ం": 116,
      "ః": 117,
      "అ": 118,
      "ఆ": 119,
      "ఇ": 120,
      "ఈ": 121,
      "ఉ": 122,
      "ఊ": 123,
      "ఋ": 124,
      "ఎ": 125,
      "ఏ": 126,
      "ఐ": 127,
      "ఒ": 128,
      "ఓ": 129,
      "ఔ": 130,
      "క": 131,
      "ఖ": 132,
      "గ": 133,
      "ఘ": 134,
      "ఙ": 135,
      "చ": 136,
      "ఛ": 137,
      "జ": 138,
      "ఝ": 139,
      "ఞ": 140,
      "ట": 141,
      "ఠ": 142,
      "డ": 143,
      "ఢ": 144,
      "ణ": 145,
      "త": 146,
      "థ": 147,
      "ద": 148,
      "ధ": 149,
      "న": 150,
      "ప": 151,
      "ఫ": 152,
      "బ": 153,
      "భ": 154,
      "మ": 155,
      "య": 156,
      "ర": 157,
      "ల": 158,
      "ళ": 159,
      "వ": 160,
      "శ": 161,
      "ష": 162,
      "స": 163,
      "హ": 164,
      "ా": 165,
      "ి": 166,
      "ీ": 167,
      "ు": 168,
      "ూ": 169,
      "ృ": 170,
      "ె": 171,
      "ే": 172,
      "ై": 173,
      "ొ": 174,
      "ో": 175,
      "ౌ": 176,
      "్": 177,
      "ౖ": 178,
      "౦": 179,
      "౩": 180,
      "​": 181,
      "‌": 182,
      "–": 183,
      "—": 184,
      "•": 185,
      "⁰": 186,
      "₂": 187,
      "€": 188,
      "₹": 189,
      "™": 190,
      "→": 191,
      "∇": 192,
      "∑": 193,
      "−": 194,
      "√": 195,
      "∧": 196,
      "∨": 197,
      "≈": 198,
      "≡": 199,
      "≤": 200,
      "≥": 201,
      "⊕": 202,
      "⋯": 203,
      "─": 204,
      "└": 205,
      "☀": 206,
      "☠": 207,
      "⛰": 208,
      "✅": 209,
      "❤": 210,
      "⭐": 211,
      "虎": 212,
      "面": 213,
      "️": 214,
      "🇦": 215,
      "🇧": 216,
      "🇨": 217,
      "🇩": 218,
      "🇪": 219,
      "🇫": 220,
      "🇬": 221,
      "🇭": 222,
      "🇮": 223,
      "🇯": 224,
      "🇰": 225,
      "🇱": 226,
      "🇲": 227,
      "🇳": 228,
      "🇴": 229,
      "🇵": 230,
      "🇶": 231,
      "🇷": 232,
      "🇸": 233,
      "🇹": 234,
      "🇺": 235,
      "🇽": 236,
      "🇿": 237,
      "🌊": 238,
      "🌍": 239,
      "🌎": 240,
      "🌞": 241,
      "🌿": 242,
      "🍊": 243,
      "🍌": 244,
      "🍓": 245,
      "🍯": 246,
      "🎂": 247,
      "🎈": 248,
      "🎉": 249,
      "🎮": 250,
      "🎵": 251,
      "🏀": 252,
      "🐥": 253,
      "🐱": 254,
      "🐶": 255,
      "👀": 256,
      "💡": 257,
      "💦": 258,
      "📚": 259,
      "📢": 260,
      "📲": 261,
      "📺": 262,
      "🚨": 263,
      "🛍": 264,
      "🤖": 265,
      "🦸": 266,
      "##ి": 267,
      "##చ": 268,
      "##్": 269,
      "##వ": 270,
      "##ా": 271,
      "##ళ": 272,
      "##ు": 273,
      "##శ": 274,
      "##ర": 275,
      "##య": 276,
      "##ప": 277,
      "##ో": 278,
      "##ఫ": 279,
      "##ల": 280,
      "##మ": 281,
      "##ై": 282,
      "##ం": 283,
      "##ద": 284,
      "##న": 285,
      "##‌": 286,
      "##క": 287,
      "##స": 288,
      "##త": 289,
      "##డ": 290,
      "##ట": 291,
      "##ే": 292,
      "##ీ": 293,
      "##ె": 294,
      "##గ": 295,
      "##ఖ": 296,
      "##హ": 297,
      "##భ": 298,
      "##బ": 299,
      "##ష": 300,
      "##.": 301,
      "##ొ": 302,
      "##ణ": 303,
      "##ధ": 304,
      "##ూ": 305,
      "##థ": 306,
      "##ృ": 307,
      "##జ": 308,
      "##ఐ": 309,
      "##7": 310,
      "##9": 311,
      "##8": 312,
      "##4": 313,
      "##ౌ": 314,
      "##🎂": 315,
      "##🎈": 316,
      "##5": 317,
      "##ఛ": 318,
      "##1": 319,
      "##ఎ": 320,
      "##6": 321,
      "##3": 322,
      "##ఆ": 323,
      "##0": 324,
      "##2": 325,
      "##ఈ": 326,
      "##ఓ": 327,
      "##ఘ": 328,
      "##/": 329,
      "##ఢ": 330,
      "##_": 331,
      "##🇽": 332,
      "##\"": 333,
      "##🇿": 334,
      "##ౖ": 335,
      "##ఒ": 336,
      "##:": 337,
      "##*": 338,
      "##ఞ": 339,
      "##౦": 340,
      "##(": 341,
      "##,": 342,
      "##ఠ": 343,
      "##ఇ": 344,
      "##)": 345,
      "##;": 346,
      "##i": 347,
      "##r": 348,
      "##m": 349,
      "##!": 350,
      "##అ": 351,
      "##P": 352,
      "##S": 353,
      "##a": 354,
      "##k": 355,
      "##e": 356,
      "##ఏ": 357,
      "##D": 358,
      "##@": 359,
      "##'": 360,
      "##d": 361,
      "##B": 362,
      "##I": 363,
      "##l": 364,
      "##y": 365,
      "##{": 366,
      "##o": 367,
      "##n": 368,
      "##🇷": 369,
      "##ః": 370,
      "##%": 371,
      "##🐱": 372,
      "##+": 373,
      "##}": 374,
      "##\\": 375,
      "##ఉ": 376,
      "##×": 377,
      "##$": 378,
      "##p": 379,
      "##-": 380,
      "##C": 381,
      "##L": 382,
      "##A": 383,
      "##?": 384,
      "##c": 385,
      "##t": 386,
      "##v": 387,
      "##]": 388,
      "###": 389,
      "##s": 390,
      "##f": 391,
      "##w": 392,
      "##=": 393,
      "##R": 394,
      "##🇸": 395,
      "##🇬": 396,
      "##>": 397,
      "##g": 398,
      "##x": 399,
      "##[": 400,
      "##–": 401,
      "##€": 402,
      "##🇪": 403,
      "##🍌": 404,
      "##🍓": 405,
      "##∧": 406,
      "##M": 407,
      "##u": 408,
      "##O": 409,
      "##−": 410,
      "##ఝ": 411,
      "##h": 412,
      "##W": 413,
      "##^": 414,
      "##π": 415,
      "##F": 416,
      "##🇵": 417,
      "##面": 418,
      "##虎": 419,
      "##🎉": 420,
      "##🇱": 421,
      "##ட": 422,
      "##ி": 423,
      "##க": 424,
      "##ப": 425,
      "##ு": 426,
      "##&": 427,
      "##🇴": 428,
      "##j": 429,
      "##N": 430,
      "##─": 431,
      "##🇭": 432,
      "##T": 433,
      "##🍊": 434,
      "##V": 435,
      "##🇺": 436,
      "##⛰": 437,
      "##H": 438,
      "##🇮": 439,
      "##🇦": 440,
      "##<": 441,
      "##🇳": 442,
      "##G": 443,
      "##b": 444,
      "##🇹": 445,
      "##🇰": 446,
      "##K": 447,
      "##£": 448,
      "##🇶": 449,
      "##~": 450,
      "##→": 451,
      "##🇫": 452,
      "##🇩": 453,
      "##🇲": 454,
      "##ఙ": 455,
      "##J": 456,
      "##❤": 457,
      "##🍯": 458,
      "##⭐": 459,
      "##💦": 460,
      "##²": 461,
      "##📚": 462,
      "##ని": 463,
      "##ను": 464,
      "##రి": 465,
      "##న్": 466,
      "##ర్": 467,
      "##్ర": 468,
      "##స్": 469,
      "##ంచ": 470,
      "##ాల": 471,
      "##ది": 472,
      "##క్": 473,
      "##కు": 474,
      "##్య": 475,
      "##రు": 476,
      "##రియ": 477,
      "##రియు": 478,
      "మరియు": 479,
      "##లు": 480,
      "##ండ": 481,
      "##ంది": 482,
      "##కి": 483,
      "##తు": 484,
      "ప్ర": 485,
      "##ట్": 486,
      "##గా": 487,
      "##ించ": 488,
      "##మ్": 489,
      "##న్న": 490,
      "##ాని": 491,
      "చే": 492,
      "##డు": 493,
      "##లో": 494,
      "##ార": 495,
      "##ంట": 496,
      "##ానికి": 497,
      "##ల్": 498,
      "మీ": 499,
      "##త్": 500,
      "##ామ్": 501,
      "##ప్": 502,
      "##ండి": 503,
      "##ాయ": 504,
      "టామ్": 505,
      "##తి": 506,
      "వి": 507,
      "##దు": 508,
      "##ైన": 509,
      "##డానికి": 510,
      "##న్ని": 511,
      "నే": 512,
      "ని": 513,
      "##డం": 514,
      "##లి": 515,
      "##ంత": 516,
      "##ంగా": 517,
      "నేను": 518,
      "చేయ": 519,
      "##దా": 520,
      "##టి": 521,
      "##ప్ప": 522,
      "##స్తు": 523,
      "##క్క": 524,
      "##గ్": 525,
      "##న్నా": 526,
      "##ార్": 527,
      "##చ్": 528,
      "##మైన": 529,
      "##ోగ": 530,
      "లే": 531,
      "##ాలు": 532,
      "##్వ": 533,
      "##లను": 534,
      "##ిన": 535,
      "##ష్": 536,
      "##ద్": 537,
      "##చ్చ": 538,
      "##ాన్ని": 539,
      "##స్త": 540,
      "##సు": 541,
      "##ాలను": 542,
      "నా": 543,
      "వా": 544,
      "##లా": 545,
      "ఒక": 546,
      "##రించ": 547,
      "##ాయి": 548,
      "##డి": 549,
      "సం": 550,
      "##ావ": 551,
      "సమ": 552,
      "స్": 553,
      "మీరు": 554,
      "##క్ష": 555,
      "వ్య": 556,
      "##కో": 557,
      "##ాడు": 558,
      "##ారు": 559,
      "ఇది": 560,
      "##తో": 561,
      "##ాన": 562,
      "కొ": 563,
      "##వి": 564,
      "##ంద": 565,
      "సా": 566,
      "##ొక్క": 567,
      "##డ్": 568,
      "##పు": 569,
      "##స్తుంది": 570,
      "మే": 571,
      "##ంగ్": 572,
      "##ిక": 573,
      "లేదా": 574,
      "##ష్ట": 575,
      "చె": 576,
      "యొక్క": 577,
      "##యోగ": 578,
      "##ాను": 579,
      "##సి": 580,
      "##నే": 581,
      "##గు": 582,
      "##గి": 583,
      "అను": 584,
      "##ప్పు": 585,
      "పరి": 586,
      "కో": 587,
      "##ము": 588,
      "##ిత": 589,
      "##లే": 590,
      "##ంలో": 591,
      "పె": 592,
      "##రీ": 593,
      "##రణ": 594,
      "గు": 595,
      "నిర్": 596,
      "##ారా": 597,
      "##వు": 598,
      "##ంటు": 599,
      "##ందు": 600,
      "వె": 601,
      "తె": 602,
      "?.": 603,
      "ఉప": 604,
      "##వా": 605,
      "##మి": 606,
      "##చ్చు": 607,
      "##త్త": 608,
      "సహ": 609,
      "ఉన్న": 610,
      "మా": 611,
      "##ట్ట": 612,
      "##ర్థ": 613,
      "##ంప": 614,
      "ను": 615,
      "##న్నాను": 616,
      "ము": 617,
      "అత": 618,
      "నాకు": 619,
      "##ంటి": 620,
      "##ళ్": 621,
      "##వచ్చు": 622,
      "అవ": 623,
      "##ద్ధ": 624,
      "ఉపయోగ": 625,
      "##ాలా": 626,
      "##ించడానికి": 627,
      "##మె": 628,
      "##సం": 629,
      "##ాలి": 630,
      "##పో": 631,
      "##స్ట": 632,
      "##తుంది": 633,
      "##్యా": 634,
      "మార్": 635,
      "చాలా": 636,
      "వే": 637,
      "##ించడం": 638,
      "##కోవ": 639,
      "##ూడ": 640,
      "##మా": 641,
      "తీ": 642,
      "##ేట": 643,
      "##క్తి": 644,
      "##ారం": 645,
      "##యం": 646,
      "కా": 647,
      "మె": 648,
      "కలి": 649,
      "ఉండ": 650,
      "##లకు": 651,
      "##సర": 652,
      "##బ్": 653,
      "##ర్య": 654,
      "##ించండి": 655,
      "సహాయ": 656,
      "##ంట్": 657,
      "##ద్ద": 658,
      "##్రా": 659,
      "చెప్ప": 660,
      "ప్రా": 661,
      "##చు": 662,
      "ఉంది": 663,
      "ద్వ": 664,
      "##్యూ": 665,
      "పా": 666,
      "##ల్ల": 667,
      "##ప్పుడు": 668,
      "పని": 669,
      "##ోజ": 670,
      "##కా": 671,
      "##ెట్": 672,
      "##వే": 673,
      "##ంటే": 674,
      "##స్థ": 675,
      "మీకు": 676,
      "మేరీ": 677,
      "##క్కడ": 678,
      "ద్వారా": 679,
      "కోసం": 680,
      "##ధ్య": 681,
      "పు": 682,
      "##షన్": 683,
      "వారి": 684,
      "చి": 685,
      "##పై": 686,
      "##ందించ": 687,
      "నుండి": 688,
      "చేయడానికి": 689,
      "##నా": 690,
      "##కరించ": 691,
      "క్": 692,
      "అనే": 693,
      "##ద్య": 694,
      "##క్కు": 695,
      "##నం": 696,
      "ప్రతి": 697,
      "##కుంటు": 698,
      "##టు": 699,
      "##ాల్": 700,
      "##మ్మ": 701,
      "##రుగు": 702,
      "##వ్వ": 703,
      "##గల": 704,
      "##కే": 705,
      "తీసు": 706,
      "అవసర": 707,
      "##న్నాడు": 708,
      "##ధార": 709,
      "డేట": 710,
      "తన": 711,
      "##ఖ్య": 712,
      "##్రమ": 713,
      "##చి": 714,
      "మొ": 715,
      "##రించి": 716,
      "సి": 717,
      "ప్రయ": 718,
      "##పి": 719,
      "వంటి": 720,
      "##చే": 721,
      "తెలు": 722,
      "##భావ": 723,
      "దాని": 724,
      "స్థ": 725,
      "అతను": 726,
      "##నీ": 727,
      "బా": 728,
      "##రా": 729,
      "చూ": 730,
      "##దే": 731,
      "వెళ్": 732,
      "గురించి": 733,
      "లో": 734,
      "చేయండి": 735,
      "##ర్త": 736,
      "##ెక్": 737,
      "##పడ": 738,
      "మేము": 739,
      "##సిన": 740,
      "##డుతుంది": 741,
      "కలిగి": 742,
      "అభ": 743,
      "తగ్": 744,
      "కు": 745,
      "సృ": 746,
      "##న్నారు": 747,
      "##జ్": 748,
      "##ించే": 749,
      "##క్కువ": 750,
      "ఏమి": 751,
      "పొ": 752,
      "చేయడం": 753,
      "ఆమె": 754,
      "##తీ": 755,
      "##వంత": 756,
      "##లియ": 757,
      "కూడ": 758,
      "##శ్": 759,
      "ఉంటు": 760,
      "రె": 761,
      "##టీ": 762,
      "##ంధ": 763,
      "సు": 764,
      "జా": 765,
      "##బు": 766,
      "పి": 767,
      "టామ్‌": 768,
      "తెలుసు": 769,
      "##పా": 770,
      "##ంచు": 771,
      "##యి": 772,
      "##ండ్": 773,
      "పో": 774,
      "అని": 775,
      "##లేదు": 776,
      "ఉంటుంది": 777,
      "సమా": 778,
      "కార్": 779,
      "సూ": 780,
      "##షి": 781,
      "ఇక్కడ": 782,
      "##న్ను": 783,
      "దీ": 784,
      "##క్షణ": 785,
      "##కీ": 786,
      "##త్తి": 787,
      "##కర": 788,
      "డి": 789,
      "##ారి": 790,
      "##ావరణ": 791,
      "##ర్చు": 792,
      "ఉన్నాయి": 793,
      "కూడా": 794,
      "##ఫ్": 795,
      "##ైనా": 796,
      "వ్యా": 797,
      "##్యం": 798,
      "జీ": 799,
      ":.": 800,
      "స్వ": 801,
      "##ధాన": 802,
      "##ందుకు": 803,
      "##ైన్": 804,
      "ఉత్": 805,
      "రా": 806,
      "వ్యక్తి": 807,
      "##ంచి": 808,
      "##స్తాయి": 809,
      "##ట్టు": 810,
      "స్ట": 811,
      "ఇవ్వ": 812,
      "వారు": 813,
      "వివ": 814,
      "డేటా": 815,
      "మరి": 816,
      "##టర్": 817,
      "ఎలా": 818,
      "కంప": 819,
      "##్రీ": 820,
      "##ెన్": 821,
      "మి": 822,
      "ఉపయోగించ": 823,
      "పే": 824,
      "తగ్గ": 825,
      "##మర్": 826,
      "లేదు": 827,
      "ప్రభావ": 828,
      "##ండా": 829,
      "##దారు": 830,
      "ముఖ్య": 831,
      "##ాగ": 832,
      "సృష్ట": 833,
      "##నుగ": 834,
      "##ంతో": 835,
      "నిర్వ": 836,
      "##రోగ": 837,
      "##రే": 838,
      "వ్యవ": 839,
      "##ధారణ": 840,
      "##త్ర": 841,
      "##బడ": 842,
      "##లతో": 843,
      "మరింత": 844,
      "##స్య": 845,
      "ఉంట": 846,
      "##హి": 847,
      "##ూప": 848,
      "##తులు": 849,
      "##ూర్": 850,
      "తి": 851,
      "రోజ": 852,
      "విని": 853,
      "##బంధ": 854,
      "##రకు": 855,
      "ఎవ": 856,
      "వై": 857,
      "##గిన": 858,
      "##కాల": 859,
      "ప్": 860,
      "##ింది": 861,
      "తెలియ": 862,
      "అభి": 863,
      "##ణా": 864,
      "##ద్ర": 865,
      "##జీ": 866,
      "మూ": 867,
      "##ాలని": 868,
      "వచ్చ": 869,
      "కొన్ని": 870,
      "##రం": 871,
      "అంత": 872,
      "##పోయ": 873,
      "ఇష్ట": 874,
      "అలా": 875,
      "##ప్పుడ": 876,
      "##తం": 877,
      "రి": 878,
      "అం": 879,
      "##జి": 880,
      "##స్తారు": 881,
      "##రిగి": 882,
      "##ద్ధి": 883,
      "కొత్త": 884,
      "##కుండా": 885,
      "చేసు": 886,
      "రోజు": 887,
      "ఉత్ప": 888,
      "##పర": 889,
      "##కోవడానికి": 890,
      "శక్తి": 891,
      "మొత్త": 892,
      "##డ్డ": 893,
      "##సే": 894,
      "##లలో": 895,
      "##ందని": 896,
      "##ాలకు": 897,
      "రెండ": 898,
      "##ెస్": 899,
      "##రో": 900,
      "సే": 901,
      "##తను": 902,
      "కస్ట": 903,
      "##కోండి": 904,
      "వినియోగ": 905,
      "##పడుతుంది": 906,
      "##యా": 907,
      "సాధారణ": 908,
      "అందించ": 909,
      "##బడి": 910,
      "##కుంటున్నాను": 911,
      "ఇత": 912,
      "##్రే": 913,
      "రూప": 914,
      "వర్": 915,
      "##టానికి": 916,
      "##ాలో": 917,
      "అది": 918,
      "##కోవడం": 919,
      "##ట్లా": 920,
      "##ారంభ": 921,
      "##ప్పటి": 922,
      "##దర్": 923,
      "ప్రారంభ": 924,
      "##నరు": 925,
      "కస్టమర్": 926,
      "##శం": 927,
      "##టింగ్": 928,
      "తర": 929,
      "నిర్వహ": 930,
      "మాట్లా": 931,
      "నీ": 932,
      "##త్మ": 933,
      "##ులు": 934,
      "మెరుగు": 935,
      "##ృద్ధి": 936,
      "ఎక్కువ": 937,
      "వ్యవస్థ": 938,
      "##ట్టి": 939,
      "మంచి": 940,
      "##త్రి": 941,
      "##వంతమైన": 942,
      "సమస్య": 943,
      "మన": 944,
      "##షణ": 945,
      "భావ": 946,
      "కావ": 947,
      "పనిచే": 948,
      "##వర్": 949,
      "అవసరం": 950,
      "సంబంధ": 951,
      "##తున్న": 952,
      "ప్రే": 953,
      "ఆరోగ": 954,
      "##ెంట్": 955,
      "##ట్లు": 956,
      "వాటి": 957,
      "##ందో": 958,
      "వినియోగదారు": 959,
      "సమాచ": 960,
      "##త్వ": 961,
      "##కం": 962,
      "##సా": 963,
      "అర్థ": 964,
      "నిర్ణ": 965,
      "సహాయపడుతుంది": 966,
      "స్ప": 967,
      "**": 968,
      "మధ్య": 969,
      "బో": 970,
      "##మీ": 971,
      "##ాలలో": 972,
      "##తాయి": 973,
      "##ించిన": 974,
      "అనేక": 975,
      "వెళ్ళ": 976,
      "##ంపు": 977,
      "##వీ": 978,
      "##ారాన్ని": 979,
      "##మని": 980,
      "మార్గ": 981,
      "అధ": 982,
      "##తావరణ": 983,
      "సో": 984,
      "వాతావరణ": 985,
      "దృ": 986,
      "##ాక్": 987,
      "చేస్తుంది": 988,
      "##్రె": 989,
      "పర్య": 990,
      "##లీ": 991,
      "కనుగ": 992,
      "కనుగొ": 993,
      "ప్రజ": 994,
      "##తిక": 995,
      "ఇం": 996,
      "ఆహ": 997,
      "ఎందుకు": 998,
      "చూడ": 999,
      "అనుమ": 1000,
      "##ప్పుడూ": 1001,
      "##భవ": 1002,
      "మాన": 1003,
      "##చన": 1004,
      "అయ": 1005,
      "##పంచ": 1006,
      "పరిష్": 1007,
      "ఇంట": 1008,
      "##వల": 1009,
      "##ొందించ": 1010,
      "విద్య": 1011,
      "ప్రపంచ": 1012,
      "అతని": 1013,
      "##కరణ": 1014,
      "##త్తు": 1015,
      "సమయ": 1016,
      "##న్య": 1017,
      "నిజ": 1018,
      "##త్య": 1019,
      "లక్ష": 1020,
      "##త్మక": 1021,
      "##మాణ": 1022,
      "సాధ": 1023,
      "వివరించ": 1024,
      "##వాత": 1025,
      "మాట్లాడ": 1026,
      "##క్స్": 1027,
      "నన్ను": 1028,
      "ఆరోగ్య": 1029,
      "కాదు": 1030,
      "##వృద్ధి": 1031,
      "చేశ": 1032,
      "వీ": 1033,
      "ఏద": 1034,
      "ఆలో": 1035,
      "సర": 1036,
      "అనేది": 1037,
      "రెండు": 1038,
      "##కరమైన": 1039,
      "మొత్తం": 1040,
      "పెద్ద": 1041,
      "అభివృద్ధి": 1042,
      "##టం": 1043,
      "##వ్": 1044,
      "అర్థం": 1045,
      "ప్రయత్": 1046,
      "##తిని": 1047,
      "##కూ": 1048,
      "సహాయం": 1049,
      "గుర్త": 1050,
      "ఇతర": 1051,
      "##డని": 1052,
      "కార": 1053,
      "##కొ": 1054,
      "ప్రో": 1055,
      "దీని": 1056,
      "సామ": 1057,
      "##ల్స్": 1058,
      "##ంబ": 1059,
      "##లభ": 1060,
      "బి": 1061,
      "పరిశ": 1062,
      "##దని": 1063,
      "##ధా": 1064,
      "##దర్శ": 1065,
      "##ోడ": 1066,
      "##విధ": 1067,
      "ఆక": 1068,
      "##స్తున్నాను": 1069,
      "సమయం": 1070,
      "##గే": 1071,
      "ఉద్య": 1072,
      "తీసుకు": 1073,
      "##ేశ": 1074,
      "##ారీ": 1075,
      "తెలియదు": 1076,
      "వ్యాప": 1077,
      "ఆధార": 1078,
      "##స్ట్": 1079,
      "##బో": 1080,
      "##ైట్": 1081,
      "##త్స": 1082,
      "##ెర్": 1083,
      "##చ్చిత": 1084,
      "##స్తున్న": 1085,
      "ఉత్పత్తి": 1086,
      "##పరచ": 1087,
      "##క్రియ": 1088,
      "##స్సు": 1089,
      "##మూ": 1090,
      "అంది": 1091,
      "ఉంటాయి": 1092,
      "##టో": 1093,
      "##నాలు": 1094,
      "విజ": 1095,
      "నిర్ణయ": 1096,
      "ఖచ్చిత": 1097,
      "చిన్న": 1098,
      "యు": 1099,
      "##లువ": 1100,
      "శా": 1101,
      "చెప్పాడు": 1102,
      "సులభ": 1103,
      "మార్క": 1104,
      "మార్పు": 1105,
      "##గీ": 1106,
      "##ల్ని": 1107,
      "తమ": 1108,
      "రూపొందించ": 1109,
      "కి": 1110,
      "సామర్థ": 1111,
      "వివిధ": 1112,
      "##తంగా": 1113,
      "రం": 1114,
      "తిరిగి": 1115,
      "##ల్లి": 1116,
      "టామ్‌కు": 1117,
      "##భు": 1118,
      "##ాము": 1119,
      "బ్యా": 1120,
      "##బిత": 1121,
      "ఆర్థ": 1122,
      "##స్థి": 1123,
      "ఆర్": 1124,
      "జీవి": 1125,
      "##ారని": 1126,
      "##ందా": 1127,
      "##మ్మల్ని": 1128,
      "అనుభవ": 1129,
      "లక్ష్య": 1130,
      "ఉదా": 1131,
      "కాల": 1132,
      "ఆర్థిక": 1133,
      "##ానీ": 1134,
      "##ానం": 1135,
      "జాబిత": 1136,
      "ఇన్": 1137,
      "వ్యక్": 1138,
      "బల": 1139,
      "##రూ": 1140,
      "బాగా": 1141,
      "##వర్త": 1142,
      "స్నే": 1143,
      "##ఫి": 1144,
      "సె": 1145,
      "##దన": 1146,
      "##ష్టి": 1147,
      "సర్": 1148,
      "##హరణ": 1149,
      "పద్ధ": 1150,
      "##మో": 1151,
      "అవకా": 1152,
      "##నాలను": 1153,
      "రే": 1154,
      "వనరు": 1155,
      "అధిక": 1156,
      "ఉదాహరణ": 1157,
      "స్థి": 1158,
      "చేస్త": 1159,
      "ప్రయత్ని": 1160,
      "తక్కువ": 1161,
      "##ళ్ళ": 1162,
      "##రగా": 1163,
      "క్రి": 1164,
      "ది": 1165,
      "ప్రత్య": 1166,
      "ఇంటి": 1167,
      "##ించవచ్చు": 1168,
      "##నింగ్": 1169,
      "ప్రయోజ": 1170,
      "సమర్థ": 1171,
      "కృ": 1172,
      "##మే": 1173,
      "##దేశ": 1174,
      "##న్‌": 1175,
      "##ించు": 1176,
      "##యో": 1177,
      "##ూహ": 1178,
      "ఉద్యోగ": 1179,
      "శి": 1180,
      "అంచ": 1181,
      "కార్య": 1182,
      "ముందు": 1183,
      "కంప్యూ": 1184,
      "మొద": 1185,
      "అవు": 1186,
      "ప్రక్రియ": 1187,
      "బోస్ట": 1188,
      "సహాయపడ": 1189,
      "సాం": 1190,
      "టెక్": 1191,
      "కారణ": 1192,
      "##ర్లు": 1193,
      "కీ": 1194,
      "మెరుగుపరచ": 1195,
      "దారి": 1196,
      "ముఖ్యమైన": 1197,
      "వరకు": 1198,
      "##ూర్తి": 1199,
      "ఖర్చు": 1200,
      "##ెనీ": 1201,
      "డేటాను": 1202,
      "##నాల": 1203,
      "##కూల": 1204,
      "##చుగా": 1205,
      "తరచుగా": 1206,
      "కే": 1207,
      "కంపెనీ": 1208,
      "అత్య": 1209,
      "##తా": 1210,
      "##్రమే": 1211,
      "అంద": 1212,
      "వల్ల": 1213,
      "లా": 1214,
      "చర్య": 1215,
      "ప్లా": 1216,
      "మర": 1217,
      "##నను": 1218,
      "మాకు": 1219,
      "##ప్పటికీ": 1220,
      "వివరించండి": 1221,
      "భాగ": 1222,
      "విశ": 1223,
      "##ద్దు": 1224,
      "వ్యక్తిగ": 1225,
      "వెబ్": 1226,
      "కంటే": 1227,
      "##మ్యూ": 1228,
      "చేసే": 1229,
      "##తుల": 1230,
      "కానీ": 1231,
      "##్యాన్ని": 1232,
      "చేసిన": 1233,
      "క్రమ": 1234,
      "టామ్‌ను": 1235,
      "దారితీ": 1236,
      "ఎంత": 1237,
      "మూడు": 1238,
      "ఉన్నాడు": 1239,
      "నై": 1240,
      "##దం": 1241,
      "ఎప్పుడూ": 1242,
      "గుర్": 1243,
      "గొ": 1244,
      "##మ్యూని": 1245,
      "##బ్బు": 1246,
      "పూర్తి": 1247,
      "నమూ": 1248,
      "ప్రోత్స": 1249,
      "అడ": 1250,
      "అల్": 1251,
      "కల": 1252,
      "పై": 1253,
      "చివ": 1254,
      "##్యత": 1255,
      "ప్రక": 1256,
      "కమ్యూని": 1257,
      "దశ": 1258,
      "##ప్ర": 1259,
      "##ర్చ": 1260,
      "##తమైన": 1261,
      "బయ": 1262,
      "##జర్": 1263,
      "##తున్నాను": 1264,
      "విలువ": 1265,
      "##కంటే": 1266,
      "##శ్లే": 1267,
      "సాధారణంగా": 1268,
      "కోరు": 1269,
      "##బా": 1270,
      "##ించాడు": 1271,
      "##న్ల": 1272,
      "##ధి": 1273,
      "##తులను": 1274,
      "##ుల": 1275,
      "##్రం": 1276,
      "మిమ్మల్ని": 1277,
      "టీ": 1278,
      "విధాన": 1279,
      "విశ్లే": 1280,
      "ఉంచ": 1281,
      "##దల": 1282,
      "##గ్ర": 1283,
      "ప్రశ్": 1284,
      "##హు": 1285,
      "కనుగొన": 1286,
      "తప్ప": 1287,
      "ప్రధాన": 1288,
      "##నీయ": 1289,
      "##ోగ్ర": 1290,
      "పొంద": 1291,
      "##ెడ్": 1292,
      "ప్రమా": 1293,
      "గణ": 1294,
      "పుస్త": 1295,
      "##కమైన": 1296,
      "##మెంట్": 1297,
      "తే": 1298,
      "##ెలి": 1299,
      "కార్యక": 1300,
      "అనుమతి": 1301,
      "##ీయ": 1302,
      "చేయవచ్చు": 1303,
      "##బడ్డ": 1304,
      "యూ": 1305,
      "పర్యావరణ": 1306,
      "##వంతంగా": 1307,
      "స్నేహి": 1308,
      "##మై": 1309,
      "ఉన్నారు": 1310,
      "##బడుతుంది": 1311,
      "సృష్టించండి": 1312,
      "ఇప్పుడు": 1313,
      "ఏదైనా": 1314,
      "##ార్థ": 1315,
      "##్లా": 1316,
      "అల": 1317,
      "##దించ": 1318,
      "##ంతు": 1319,
      "ఫ్రె": 1320,
      "వ్యాపార": 1321,
      "ఫలి": 1322,
      "ఫీ": 1323,
      "##దిష్ట": 1324,
      "నిర్దిష్ట": 1325,
      "ఉపయోగించడం": 1326,
      "ఇంకా": 1327,
      "విభ": 1328,
      "మనం": 1329,
      "##కున్న": 1330,
      "వేయ": 1331,
      "విష": 1332,
      "బహు": 1333,
      "పెరుగు": 1334,
      "వస్తు": 1335,
      "ఆలోచన": 1336,
      "సాంకే": 1337,
      "తగ్గించడానికి": 1338,
      "##కుంటున్న": 1339,
      "##ంచ్": 1340,
      "##దాన్ని": 1341,
      "##ోధ": 1342,
      "చేయగల": 1343,
      "అన్ని": 1344,
      "సాంకేతిక": 1345,
      "కంప్యూటర్": 1346,
      "##కున్నాడు": 1347,
      "రు": 1348,
      "తా": 1349,
      "ఫో": 1350,
      "##బుల్": 1351,
      "##ాష": 1352,
      "జీవిత": 1353,
      "పాఠ": 1354,
      "దానిని": 1355,
      "##న్నాము": 1356,
      "నమ్మ": 1357,
      "##ంపై": 1358,
      "వేగ": 1359,
      "ఇష్టపడ": 1360,
      "చు": 1361,
      "తయ": 1362,
      "##ేషన్": 1363,
      "##డిని": 1364,
      "పిల్ల": 1365,
      "ఎంచు": 1366,
      "డబ్బు": 1367,
      "దయ": 1368,
      "పెంచ": 1369,
      "##కరించడానికి": 1370,
      "##తారు": 1371,
      "ఎక్కడ": 1372,
      "##వత్": 1373,
      "##వత్సర": 1374,
      "దు": 1375,
      "సంవత్సర": 1376,
      "పరిస్థి": 1377,
      "విస్త": 1378,
      "##బడిన": 1379,
      "##స్తాడు": 1380,
      "ఇచ్చ": 1381,
      "మాత": 1382,
      "##ించింది": 1383,
      "##ితం": 1384,
      "అనుకో": 1385,
      "సరి": 1386,
      "కలిసి": 1387,
      "##కున్నాను": 1388,
      "లక్షణ": 1389,
      "##బడింది": 1390,
      "దా": 1391,
      "##నలు": 1392,
      "ట్రా": 1393,
      "కొన": 1394,
      "##దాయ": 1395,
      "కష్ట": 1396,
      "సౌ": 1397,
      "తర్": 1398,
      "##శా": 1399,
      "##స్ప": 1400,
      "##కేషన్": 1401,
      "##బ్బ": 1402,
      "గ్ర": 1403,
      "ఉపయోగి": 1404,
      "ఫి": 1405,
      "మాత్రమే": 1406,
      "##య్య": 1407,
      "బోస్టన్‌": 1408,
      "మేధ": 1409,
      "##ేస్": 1410,
      "ఎదు": 1411,
      "అంశ": 1412,
      "##ేట్": 1413,
      "##ఫ్ట్": 1414,
      "##ిన్న": 1415,
      "వస్తువు": 1416,
      "##కాలు": 1417,
      "తో": 1418,
      "అదన": 1419,
      "భూ": 1420,
      "నేర్చు": 1421,
      "##ంతి": 1422,
      "##పుణ": 1423,
      "ఉత్త": 1424,
      "##కుంట": 1425,
      "సమాచారాన్ని": 1426,
      "##కపో": 1427,
      "అందిస్తుంది": 1428,
      "##న్స్": 1429,
      "లెర్": 1430,
      "నె": 1431,
      "సంఖ్య": 1432,
      "జీవ": 1433,
      "ఇంటర్": 1434,
      "లెర్నింగ్": 1435,
      "కంట": 1436,
      "##గర": 1437,
      "పాత్ర": 1438,
      "అమ": 1439,
      "సంర": 1440,
      "యా": 1441,
      "తర్వాత": 1442,
      "##లోకి": 1443,
      "నీటి": 1444,
      "కని": 1445,
      "##బి": 1446,
      "##డికి": 1447,
      "##పె": 1448,
      "కారు": 1449,
      "##ెన్స్": 1450,
      "##డంలో": 1451,
      "ప్రత్యే": 1452,
      "##ళిక": 1453,
      "ఎంప": 1454,
      "ప్రాంత": 1455,
      "ఏమిటి": 1456,
      "అన": 1457,
      "సిద్ధ": 1458,
      "రంగు": 1459,
      "దృష్టి": 1460,
      "##క్షి": 1461,
      "##ితే": 1462,
      "చిత": 1463,
      "ఎంపిక": 1464,
      "ఎందు": 1465,
      "##మిక": 1466,
      "##ాణ": 1467,
      "ప్రయాణ": 1468,
      "అవసరమైన": 1469,
      "విధ": 1470,
      "పేరు": 1471,
      "సంభావ": 1472,
      "##జ్ఞ": 1473,
      "ప్రోత్సహ": 1474,
      "అవి": 1475,
      "##జా": 1476,
      "పరిగ": 1477,
      "కథ": 1478,
      "ఎందుకంటే": 1479,
      "##రిక": 1480,
      "##సింది": 1481,
      "అంచనా": 1482,
      "##నని": 1483,
      "##ొక": 1484,
      "ఫ్రెంచ్": 1485,
      "##క్లి": 1486,
      "##చ్ఛ": 1487,
      "మంది": 1488,
      "గా": 1489,
      "##స్వా": 1490,
      "పార్": 1491,
      "సంస్థ": 1492,
      "నివ": 1493,
      "ఆశ": 1494,
      "##్రై": 1495,
      "##ాలతో": 1496,
      "##రిథ": 1497,
      "స్థాయి": 1498,
      "అనుకుంటున్నాను": 1499,
      "##హం": 1500,
      "మేరీని": 1501,
      "పెట్ట": 1502,
      "విద్యార్థ": 1503,
      "లు": 1504,
      "ఖచ్చితంగా": 1505,
      "##త్రిమ": 1506,
      "##గాన్ని": 1507,
      "కృత్రిమ": 1508,
      "##ర్షణ": 1509,
      "##తే": 1510,
      "ప్రయత్నించ": 1511,
      "##ాయు": 1512,
      "##కంగా": 1513,
      "##రికి": 1514,
      "##కులు": 1515,
      "##లవ": 1516,
      "##ష్టమైన": 1517,
      "##ించడంలో": 1518,
      "##యల్": 1519,
      "##ాలనుకుంటున్నాను": 1520,
      "నియ": 1521,
      "20": 1522,
      "క్ష": 1523,
      "కె": 1524,
      "అత్యంత": 1525,
      "కూ": 1526,
      "##రిగా": 1527,
      "సమయంలో": 1528,
      "వాటిని": 1529,
      "ఉన్నాను": 1530,
      "ఉండాలి": 1531,
      "##ట్ల": 1532,
      "అందు": 1533,
      "##గో": 1534,
      "##ల్ప": 1535,
      "అనుమతిస్తుంది": 1536,
      "##స్క": 1537,
      "##బాటు": 1538,
      "నిర్ధా": 1539,
      "##చేసి": 1540,
      "నిర్ధారించ": 1541,
      "##సెస్": 1542,
      "##ులను": 1543,
      "దయచేసి": 1544,
      "##డిగా": 1545,
      "##ెల్": 1546,
      "మీడి": 1547,
      "##ష్య": 1548,
      "సేవ": 1549,
      "##చర్": 1550,
      "పను": 1551,
      "##వై": 1552,
      "తగిన": 1553,
      "రీ": 1554,
      "దేశ": 1555,
      "తప్పు": 1556,
      "##సీ": 1557,
      "##ెక్ట్": 1558,
      "ఉండవచ్చు": 1559,
      "దీన్ని": 1560,
      "రో": 1561,
      "మొదటి": 1562,
      "##కునే": 1563,
      "##త్వం": 1564,
      "విజయ": 1565,
      "భాష": 1566,
      "##కింగ్": 1567,
      "ఒకటి": 1568,
      "##మం": 1569,
      "ప్రొ": 1570,
      "తరు": 1571,
      "##**": 1572,
      "పెట్టు": 1573,
      "సహా": 1574,
      "దారితీస్తుంది": 1575,
      "##డా": 1576,
      "నిజంగా": 1577,
      "##ద్వ": 1578,
      "##ించగల": 1579,
      "##రమైన": 1580,
      "ఇవి": 1581,
      "##ారో": 1582,
      "##టుంబ": 1583,
      "మెషి": 1584,
      "ముఖ్యం": 1585,
      "సంభావ్య": 1586,
      "##ల్లో": 1587,
      "##ాయా": 1588,
      "కొరకు": 1589,
      "##ర్కొ": 1590,
      "వ్యక్తిగత": 1591,
      "##ణాళిక": 1592,
      "ఇష్టం": 1593,
      "##్రో": 1594,
      "##ాల్లో": 1595,
      "##వడం": 1596,
      "మెషిన్": 1597,
      "ఆట": 1598,
      "సై": 1599,
      "మద్ద": 1600,
      "సహజ": 1601,
      ":**": 1602,
      "వెళ్ల": 1603,
      "అమలు": 1604,
      "మద్దతు": 1605,
      "##స్తాను": 1606,
      "##పాద": 1607,
      "దూ": 1608,
      "ప్రణాళిక": 1609,
      "##ణి": 1610,
      "##ాల్సిన": 1611,
      "గణనీయ": 1612,
      "తరువాత": 1613,
      "అస": 1614,
      "కుటుంబ": 1615,
      "##వాడు": 1616,
      "##తలు": 1617,
      "మోడ": 1618,
      "సాఫ్ట్": 1619,
      "తిన": 1620,
      "పరిష్క": 1621,
      "డిజ": 1622,
      "##పరి": 1623,
      "ఆధారంగా": 1624,
      "##ార్ట్": 1625,
      "##టివ్": 1626,
      "ఉందని": 1627,
      "19": 1628,
      "##పడి": 1629,
      "కీల": 1630,
      "##ష్ణ": 1631,
      "కోల్": 1632,
      "సమీ": 1633,
      "పదా": 1634,
      "అంటే": 1635,
      "మార్కెట్": 1636,
      "ఉండే": 1637,
      "##న్లు": 1638,
      "పట్ట": 1639,
      "##ంత్ర": 1640,
      "##టా": 1641,
      "అమె": 1642,
      "##స్తున్నారు": 1643,
      "పరిగణ": 1644,
      "తొ": 1645,
      "పర": 1646,
      "ఆస": 1647,
      "##లుగా": 1648,
      "##తాడు": 1649,
      "##టన": 1650,
      "గంట": 1651,
      "##యిల్": 1652,
      "అనుకోను": 1653,
      "##ల్లు": 1654,
      "నైపుణ": 1655,
      "మెరు": 1656,
      "సంతో": 1657,
      "సూచి": 1658,
      "పద": 1659,
      "మానవ": 1660,
      "##లాప": 1661,
      "కార్యకలాప": 1662,
      "ఆధ": 1663,
      "పనిచేయ": 1664,
      "టై": 1665,
      "##లుపు": 1666,
      "రాయ": 1667,
      "##భా": 1668,
      "##డో": 1669,
      "##చర్య": 1670,
      "విశ్వ": 1671,
      "మై": 1672,
      "మారు": 1673,
      "త్వ": 1674,
      "తెలి": 1675,
      "##టిక్": 1676,
      "సరైన": 1677,
      "విన": 1678,
      "##బట్టి": 1679,
      "##పీ": 1680,
      "##షల్": 1681,
      "సంరక్షణ": 1682,
      "ఏర్": 1683,
      "పునరు": 1684,
      "##ించి": 1685,
      "సిస్ట": 1686,
      "##వులు": 1687,
      "##లపై": 1688,
      "##పాదక": 1689,
      "కాబట్టి": 1690,
      "##నాత్మక": 1691,
      "మేరీకి": 1692,
      "ప్రశ్న": 1693,
      "భద్ర": 1694,
      "##్రి": 1695,
      "నెట్": 1696,
      "ఉపయోగించే": 1697,
      "నిద్ర": 1698,
      "మార్గం": 1699,
      "కంటెంట్": 1700,
      "ఉపయోగించవచ్చు": 1701,
      "న్యూ": 1702,
      "అవకాశం": 1703,
      "లి": 1704,
      "##లిక": 1705,
      "గుర్తు": 1706,
      "అప్": 1707,
      "##లేను": 1708,
      "అయితే": 1709,
      "ఉపయోగించి": 1710,
      "అంతర్": 1711,
      "సిస్టమ్": 1712,
      "అన్": 1713,
      "అమ్మ": 1714,
      "పరికర": 1715,
      "##కుంటున్నారా": 1716,
      "సోషల్": 1717,
      "ఫలిత": 1718,
      "##ించారు": 1719,
      "తయారు": 1720,
      "##దీ": 1721,
      "##ంలోని": 1722,
      "మార్చ": 1723,
      "తగ్గి": 1724,
      "##ృత": 1725,
      "ఇవ్వండి": 1726,
      "##సై": 1727,
      "##రికీ": 1728,
      "##తీరు": 1729,
      "పనితీరు": 1730,
      "ఆన్ల": 1731,
      "ఉష్ణ": 1732,
      "ఆన్లైన్": 1733,
      "##ందిన": 1734,
      "##బద్ధ": 1735,
      "గది": 1736,
      "వ్యూహ": 1737,
      "చిత్ర": 1738,
      "మో": 1739,
      "10": 1740,
      "మరొక": 1741,
      "మార్కె": 1742,
      "సంత": 1743,
      "గొప్ప": 1744,
      "##ందులో": 1745,
      "##రగ": 1746,
      "##కాలను": 1747,
      "##సె": 1748,
      "అద్": 1749,
      "ఇందులో": 1750,
      "##పిస్తుంది": 1751,
      "##పరు": 1752,
      "##డుతు": 1753,
      "ధర": 1754,
      "##పూర్": 1755,
      "##్యాప్": 1756,
      "అద్భు": 1757,
      "ప్రజలు": 1758,
      "శిక్షణ": 1759,
      "కొంత": 1760,
      "సెట్": 1761,
      "ఏమీ": 1762,
      "ఆఫ్": 1763,
      "సూచ": 1764,
      "మరో": 1765,
      "చేయాలి": 1766,
      "##ందోళ": 1767,
      "సంఘ": 1768,
      "పరిశోధ": 1769,
      "##తాను": 1770,
      "మార్కెటింగ్": 1771,
      "##దృ": 1772,
      "##వల్": 1773,
      "మీద": 1774,
      "భయ": 1775,
      "చేరు": 1776,
      "##ాప": 1777,
      "మెరుగుపరచడానికి": 1778,
      "##డక": 1779,
      "##రక్ష": 1780,
      "లను": 1781,
      "శ్రే": 1782,
      "పరీ": 1783,
      "లేకుండా": 1784,
      "చూప": 1785,
      "##యస్సు": 1786,
      "ఆందోళ": 1787,
      "##మాన": 1788,
      "చూశ": 1789,
      "పాఠశ": 1790,
      "##మింగ్": 1791,
      "తీవ": 1792,
      "విశ్లేష": 1793,
      "దో": 1794,
      "చేశాడు": 1795,
      "కమ్యూనికేషన్": 1796,
      "ప్రభావాన్ని": 1797,
      "##ర్ఘ": 1798,
      "##సిక": 1799,
      "వైపు": 1800,
      "##వర్తన": 1801,
      "##వద్దు": 1802,
      "##ెం": 1803,
      "ఉండటానికి": 1804,
      "##ధాన్య": 1805,
      "డిజైన్": 1806,
      "ఉపయోగించండి": 1807,
      "చద": 1808,
      "శు": 1809,
      "వచ్చింది": 1810,
      "సంతోష": 1811,
      "జాబితా": 1812,
      "నిర్మ": 1813,
      "అవకాశ": 1814,
      "బ్లా": 1815,
      "జన": 1816,
      "వార్": 1817,
      "జంతు": 1818,
      "పరీక్ష": 1819,
      "తీవ్ర": 1820,
      "##ప్పటికే": 1821,
      "నివా": 1822,
      "టామ్‌తో": 1823,
      "హై": 1824,
      "ఉద్": 1825,
      "జరుగు": 1826,
      "వేచి": 1827,
      "మీడియా": 1828,
      "హో": 1829,
      "##గాహ": 1830,
      "##ాయం": 1831,
      "ఒత్తి": 1832,
      "అవగాహ": 1833,
      "##ణంగా": 1834,
      "సమర్థవంతంగా": 1835,
      "##ఫీ": 1836,
      "##లం": 1837,
      "సమాచారం": 1838,
      "సామర్థ్యాన్ని": 1839,
      "##రిగిన": 1840,
      "మార": 1841,
      "భవి": 1842,
      "పదార్థ": 1843,
      "##పోయాడు": 1844,
      "కొనుగ": 1845,
      "కొనుగో": 1846,
      "రూపొందించండి": 1847,
      "జరిగి": 1848,
      "##దాలు": 1849,
      "ప్రసి": 1850,
      "శీ": 1851,
      "భవిష్య": 1852,
      "కాల్": 1853,
      "తల్లి": 1854,
      "##రువు": 1855,
      "నాణ": 1856,
      "##ాడని": 1857,
      "వద్ద": 1858,
      "జాబితాను": 1859,
      "##ప్తి": 1860,
      "జి": 1861,
      "##గొ": 1862,
      "ప్రభు": 1863,
      "ఎవరు": 1864,
      "విషయ": 1865,
      "##దిగా": 1866,
      "టా": 1867,
      "##నల్": 1868,
      "##డర్": 1869,
      "వంట": 1870,
      "##టల్": 1871,
      "##వచ్చ": 1872,
      "##మవు": 1873,
      "వాయు": 1874,
      ").": 1875,
      "##కోవచ్చు": 1876,
      "##షియల్": 1877,
      "##ేటప్పుడు": 1878,
      "అన్వే": 1879,
      "##పర్": 1880,
      "ప్రదర్శ": 1881,
      "బయట": 1882,
      "ఎల్ల": 1883,
      "పరిష్కరించ": 1884,
      "##ర్ష": 1885,
      "##ాలపై": 1886,
      "ఎల్లప్పుడూ": 1887,
      "##జే": 1888,
      "##రించడానికి": 1889,
      "సృజ": 1890,
      "వృ": 1891,
      "దగ్": 1892,
      "##ఫో": 1893,
      "ఇమె": 1894,
      "గ్రా": 1895,
      "సృజనాత్మక": 1896,
      "క్రింది": 1897,
      "గాలి": 1898,
      "##ైల్": 1899,
      "##సింగ్": 1900,
      "నిర్వహించడానికి": 1901,
      "##న్నీ": 1902,
      "క్ల": 1903,
      "రాత్రి": 1904,
      "##జిక": 1905,
      "అక్కడ": 1906,
      "పంప": 1907,
      "వారికి": 1908,
      "రవా": 1909,
      "బ్యాక్": 1910,
      "అదనంగా": 1911,
      "సము": 1912,
      "##కోవాలి": 1913,
      "##డుగు": 1914,
      "మోడల్": 1915,
      "##్వా": 1916,
      "##ానని": 1917,
      "డ్రై": 1918,
      "##క్షన్": 1919,
      "ఆసక్తి": 1920,
      "ఒక్క": 1921,
      "సమాధాన": 1922,
      "##రాలు": 1923,
      "##కె": 1924,
      "మెరుగ": 1925,
      "మొక్క": 1926,
      "ఇంధ": 1927,
      "##రంగా": 1928,
      "సూచిస్తుంది": 1929,
      "వేర్": 1930,
      "మెరుగైన": 1931,
      "ఇంటికి": 1932,
      "##మిష": 1933,
      "నిమిష": 1934,
      "భవిష్యత్తు": 1935,
      "బాధ్య": 1936,
      "కన": 1937,
      "##క్య": 1938,
      "##‌లో": 1939,
      "##హా": 1940,
      "నిర": 1941,
      "లై": 1942,
      "##ంతా": 1943,
      "ఒకే": 1944,
      "##నాలజీ": 1945,
      "##రింగ్": 1946,
      "సామా": 1947,
      "##తిలో": 1948,
      "భూమి": 1949,
      "సృష్టించడానికి": 1950,
      "లోప": 1951,
      "హా": 1952,
      "##తన": 1953,
      "కాని": 1954,
      "సంక్లి": 1955,
      "స్నేహితు": 1956,
      "ఆహారం": 1957,
      "రాజ": 1958,
      "##మైనా": 1959,
      "సాను": 1960,
      "##క్షిప్": 1961,
      "అనుస": 1962,
      "పున": 1963,
      "సమర్థవంతమైన": 1964,
      "ముగి": 1965,
      "##స్తున్నాడు": 1966,
      "యాక్": 1967,
      "నీరు": 1968,
      "##మాణం": 1969,
      "ప్రతిస్ప": 1970,
      "చేస": 1971,
      "టెక్నాలజీ": 1972,
      "శాస్త": 1973,
      "##్ల": 1974,
      "క్రమం": 1975,
      "వచ్చే": 1976,
      "పెంచు": 1977,
      "రై": 1978,
      "##క్ట్": 1979,
      "శక్తిని": 1980,
      "రోగ": 1981,
      "బలమైన": 1982,
      "##్రీన్": 1983,
      "జోడ": 1984,
      "##సైట్": 1985,
      "ఏదో": 1986,
      "ఉత్తమ": 1987,
      "సంక్షిప్": 1988,
      "డె": 1989,
      "##ులకు": 1990,
      "పరిశ్రమ": 1991,
      "నిల్": 1992,
      "అద్భుతమైన": 1993,
      "బీ": 1994,
      "ప్రాధాన్య": 1995,
      "మానసిక": 1996,
      "##ళ్ళు": 1997,
      "ఉండటం": 1998,
      "వైద్య": 1999,
      "ఆహార": 2000,
      "##మ్ము": 2001,
      "##క్షకు": 2002,
      "సీ": 2003,
      "సులభం": 2004,
      "పర్": 2005,
      "టో": 2006,
      "##రాలను": 2007,
      "చేస్తాయి": 2008,
      "సురక్ష": 2009,
      "అతి": 2010,
      "తప్పకుండా": 2011,
      "అధ్య": 2012,
      "గత": 2013,
      "##గీకరించ": 2014,
      "నిల్వ": 2015,
      "ఉండండి": 2016,
      "ప్రాజ": 2017,
      "పురోగ": 2018,
      "##గుణంగా": 2019,
      "ఇవ్వబడ్డ": 2020,
      "తొల": 2021,
      "నైపుణ్య": 2022,
      "ఉష్ణోగ్ర": 2023,
      "సందర్శ": 2024,
      "ప్రభావితం": 2025,
      "ఆశ్": 2026,
      "పాల్": 2027,
      "##ార్లు": 2028,
      "తాను": 2029,
      "##వేర్": 2030,
      "ఇంట్": 2031,
      "##గలను": 2032,
      "ప్రస్తు": 2033,
      "##రక": 2034,
      "చుట్ట": 2035,
      "అభ్యా": 2036,
      "రకాల": 2037,
      "సమాజ": 2038,
      "ప్రమాద": 2039,
      "##ంగ": 2040,
      "తీసుకోవడం": 2041,
      "తు": 2042,
      "దే": 2043,
      "ఒకరి": 2044,
      "##కూడ": 2045,
      "ఐదు": 2046,
      "వెబ్సైట్": 2047,
      "ఇప్పటికే": 2048,
      "అదే": 2049,
      "కాలు": 2050,
      "సముద్ర": 2051,
      "సానుకూల": 2052,
      "##్యతను": 2053,
      "గ్రహ": 2054,
      "కొనుగోలు": 2055,
      "ఉందా": 2056,
      "##సారి": 2057,
      "షా": 2058,
      "అడగ": 2059,
      "##రల్": 2060,
      "ఉదాహరణకు": 2061,
      "##ఎస్": 2062,
      "స్టో": 2063,
      "పుస్తకం": 2064,
      "వివరణ": 2065,
      "సూర్య": 2066,
      "ఆడ": 2067,
      "##బడతాయి": 2068,
      "##ారిత": 2069,
      "##్ఞ": 2070,
      "##స్తో": 2071,
      "జనా": 2072,
      "సామాజిక": 2073,
      "దీర్ఘ": 2074,
      "##త్తగా": 2075,
      "##తీకరించ": 2076,
      "కళ": 2077,
      "జ్ఞ": 2078,
      "భోజ": 2079,
      "##ించాలి": 2080,
      "##ాయని": 2081,
      "పట్టు": 2082,
      "##రవ": 2083,
      "##డీ": 2084,
      "రంగ": 2085,
      ",.": 2086,
      "##లోని": 2087,
      "ఉన్నా": 2088,
      "##కాలిక": 2089,
      "చేసుకోవడానికి": 2090,
      "సమూహ": 2091,
      "ఇమెయిల్": 2092,
      "##డియో": 2093,
      "##ితంగా": 2094,
      "పెంచడానికి": 2095,
      "మూల": 2096,
      "##ృతి": 2097,
      "##గారిథ": 2098,
      "ఇతరు": 2099,
      "అల్గారిథ": 2100,
      "నగర": 2101,
      "##మీద": 2102,
      "##బర్": 2103,
      "##ధ్యం": 2104,
      "ఒంట": 2105,
      "అందించడం": 2106,
      "పునరుత్": 2107,
      "పంచు": 2108,
      "చుట్టూ": 2109,
      "గే": 2110,
      "దీనిని": 2111,
      "నిర్ధారించు": 2112,
      "##పడ్డ": 2113,
      "పాల్గొ": 2114,
      "చూసు": 2115,
      "ఉద": 2116,
      "గణనీయమైన": 2117,
      "ఇంట్లో": 2118,
      "సారా": 2119,
      "యూజర్": 2120,
      "బాధ్యత": 2121,
      "సంతృ": 2122,
      "##వర్క్": 2123,
      "రక్ష": 2124,
      "నిరా": 2125,
      "స్వంత": 2126,
      "రిక": 2127,
      "ఆరోగ్యకరమైన": 2128,
      "##స్ట్రే": 2129,
      "వాస్త": 2130,
      "చల్ల": 2131,
      "సులభంగా": 2132,
      "అల్గారిథమ్": 2133,
      "కూడిన": 2134,
      "##ెలిజ": 2135,
      "వార": 2136,
      "చెందు": 2137,
      "##ుడు": 2138,
      "##దగిన": 2139,
      "నో": 2140,
      "##00": 2141,
      "త్వరగా": 2142,
      "ఎల": 2143,
      "ఫీడ్": 2144,
      "ఇంటెలిజ": 2145,
      "రవాణా": 2146,
      "##పెట్ట": 2147,
      "ఉద్ద": 2148,
      "అభ్య": 2149,
      "##రేట్": 2150,
      "ఆందోళన": 2151,
      "##ళ్లు": 2152,
      "కావచ్చు": 2153,
      "టే": 2154,
      "వ్యాయా": 2155,
      "స్టేట్": 2156,
      "##పింగ్": 2157,
      "##నై": 2158,
      "ఆప": 2159,
      "అయ్య": 2160,
      "వేగంగా": 2161,
      "క్యా": 2162,
      "వ్యక్తులు": 2163,
      "ఆర్టి": 2164,
      "నిన్న": 2165,
      "వినియోగదారులు": 2166,
      "రేపు": 2167,
      "వర్ష": 2168,
      "##్లో": 2169,
      "చేసి": 2170,
      "నిమ": 2171,
      "##గలరా": 2172,
      "##ినప్పుడు": 2173,
      "ఖా": 2174,
      "పర్యవే": 2175,
      "##ళ్ల": 2176,
      "కుక్క": 2177,
      "కీలక": 2178,
      "నిమగ్": 2179,
      "ఆన": 2180,
      "ఆకర్షణ": 2181,
      "##టెడ్": 2182,
      "##వైన": 2183,
      "##యర్": 2184,
      "జాగ్ర": 2185,
      "ప్రాప": 2186,
      "##నికి": 2187,
      "సూచన": 2188,
      "చర్చ": 2189,
      "విధంగా": 2190,
      "అనుకున్నాను": 2191,
      "ప్రేక్షకు": 2192,
      "##వుల": 2193,
      "ఆశ్చర్య": 2194,
      "వివా": 2195,
      "ఆధారిత": 2196,
      "ప్రేమ": 2197,
      "##పూర్వ": 2198,
      "##కర్య": 2199,
      "అనుగుణంగా": 2200,
      "##బన్": 2201,
      "ఇంటెలిజెన్స్": 2202,
      "సిని": 2203,
      "సమాధానం": 2204,
      "చట్ట": 2205,
      "నిర్ణయాలు": 2206,
      "##ర్మ": 2207,
      "##యింది": 2208,
      "అందుబాటు": 2209,
      "##మయ్య": 2210,
      "అండ్": 2211,
      "##ోగ్రామ్": 2212,
      "బయలు": 2213,
      "బయలుదే": 2214,
      "##వేయ": 2215,
      "అతనికి": 2216,
      "ఉద్గా": 2217,
      "##స్తే": 2218,
      "##ానిక": 2219,
      "##ాలుగా": 2220,
      "బోస్టన్‌కు": 2221,
      "##ంక్": 2222,
      "సాఫ్ట్వేర్": 2223,
      "పరిజ్ఞ": 2224,
      "రావ": 2225,
      "అవగాహన": 2226,
      "క్రీ": 2227,
      "##ర్చి": 2228,
      "##రించడం": 2229,
      "ప్రజా": 2230,
      "సవ": 2231,
      "చేస్తారు": 2232,
      "నుంచి": 2233,
      "గమని": 2234,
      "గె": 2235,
      "నష్ట": 2236,
      "##కల్ప": 2237,
      "గుర్తించడానికి": 2238,
      "శుభ": 2239,
      "##ష్టంగా": 2240,
      "తొలగ": 2241,
      "ప్రోగ్రామ్": 2242,
      "పద్ధతులను": 2243,
      "ఆపి": 2244,
      "సేకరించ": 2245,
      "##వ్వు": 2246,
      "ప్రి": 2247,
      "ఇద్ద": 2248,
      "సభ": 2249,
      "తగినంత": 2250,
      "##రావ": 2251,
      "##సార్లు": 2252,
      "##యు": 2253,
      "##గలి": 2254,
      "##స్తూ": 2255,
      "##పాటు": 2256,
      "ఏదే": 2257,
      "ఏదేమైనా": 2258,
      "వ్యర్థ": 2259,
      "##ాత్మక": 2260,
      "దృశ": 2261,
      "అనుభవాన్ని": 2262,
      "సామర్థ్యం": 2263,
      "##క్ర": 2264,
      "సంబంధం": 2265,
      "మీతో": 2266,
      "కార్బన్": 2267,
      "పేర్కొ": 2268,
      "విశ్లేషణ": 2269,
      "శారీ": 2270,
      "సిద్ధంగా": 2271,
      "స్మ": 2272,
      "##ఫిషియల్": 2273,
      "ఆర్టిఫిషియల్": 2274,
      "##తోంది": 2275,
      "నిర్వహణ": 2276,
      "మొత్తంమీద": 2277,
      "##షనల్": 2278,
      "తెలియజే": 2279,
      "చేయాలో": 2280,
      "##యన్": 2281,
      "##దాం": 2282,
      "సర్వీ": 2283,
      "నిరంత": 2284,
      "బ్రా": 2285,
      "##ాయింట్": 2286,
      "తగ్గిస్తుంది": 2287,
      "చేయలే": 2288,
      "గో": 2289,
      "##పోయాను": 2290,
      "ఆస్ట్రే": 2291,
      "##గ్గా": 2292,
      "ఆస్ట్రేలియ": 2293,
      "సమయాన్ని": 2294,
      "బోస్టన్‌లో": 2295,
      "ఉంటే": 2296,
      "రాయండి": 2297,
      "టెక్స్ట్": 2298,
      "##నెట్": 2299,
      "సోద": 2300,
      "తగ్గించడం": 2301,
      "ప్రభుత్వ": 2302,
      "##ండ్ర": 2303,
      "తరగ": 2304,
      "##ణం": 2305,
      "ఫోన్": 2306,
      "కావాలి": 2307,
      "పెట్టుబడి": 2308,
      "అనుమత": 2309,
      "##ఫిక్": 2310,
      "ఉద్దేశ": 2311,
      "సంతోషంగా": 2312,
      "##లై": 2313,
      "ట్రాక్": 2314,
      "ప్యా": 2315,
      "ఆలోచ": 2316,
      "సభ్య": 2317,
      "##వారు": 2318,
      "ఎక్కువగా": 2319,
      "ఆప్": 2320,
      "ప్రదేశ": 2321,
      "మేనే": 2322,
      "అందుబాటులో": 2323,
      "డిజి": 2324,
      "##ంప్ర": 2325,
      "మార్పులు": 2326,
      "కనిప": 2327,
      "అడిగా": 2328,
      "పెంప": 2329,
      "మరణ": 2330,
      "భావి": 2331,
      "జో": 2332,
      "శరీ": 2333,
      "##కాన్ని": 2334,
      "తీసుకోవడానికి": 2335,
      "విడు": 2336,
      "సంబంధిత": 2337,
      "##ద్వే": 2338,
      "##స్క్": 2339,
      "డాక్": 2340,
      "##పథ": 2341,
      "##ంశ": 2342,
      "సంప్ర": 2343,
      "##దర్భ": 2344,
      "సందర్భ": 2345,
      "వేడి": 2346,
      "నచ్చ": 2347,
      "స్థిరమైన": 2348,
      "ఆటో": 2349,
      "##బడే": 2350,
      "పునరుత్పాదక": 2351,
      "భాగస్వా": 2352,
      "##ైలి": 2353,
      "చెంద": 2354,
      "ఆదా": 2355,
      "##నాన్ని": 2356,
      "ఒంటరిగా": 2357,
      "ఎవరూ": 2358,
      "##దేశం": 2359,
      "బు": 2360,
      "##__": 2361,
      "నిన్ను": 2362,
      "ప్రాధాన్యత": 2363,
      "సైన్": 2364,
      "##రైనా": 2365,
      "##ంద్ర": 2366,
      "విద్యు": 2367,
      "##హ్": 2368,
      "అయిన": 2369,
      "##‌ను": 2370,
      "##హిస్తుంది": 2371,
      "ప్రత్యేక": 2372,
      "దీర్ఘకాలిక": 2373,
      "##దృష్ట": 2374,
      "శారీరక": 2375,
      "స్మార్ట్": 2376,
      "డిజిటల్": 2377,
      "దుస్తు": 2378,
      "అనువర్త": 2379,
      "క్లా": 2380,
      "లక్ష్యాలను": 2381,
      "##పే": 2382,
      "మెరుగుపరు": 2383,
      "సౌకర్య": 2384,
      "ఆల": 2385,
      "యుద్ధ": 2386,
      "##ీక": 2387,
      "లైన్": 2388,
      "##నిక": 2389,
      "కప్పు": 2390,
      "నియం": 2391,
      "సంగీ": 2392,
      "##తరం": 2393,
      "##ర్ట్": 2394,
      "పుట్": 2395,
      "##స్తున్నా": 2396,
      "వర్క్": 2397,
      "చరి": 2398,
      "సర్వీస్": 2399,
      "విశ్వస": 2400,
      "ఎన్": 2401,
      "ఒప్ప": 2402,
      "గడి": 2403,
      "##ావా": 2404,
      "##జేషన్": 2405,
      "స్పష్టమైన": 2406,
      "స్థానిక": 2407,
      "చరిత్ర": 2408,
      "చెప్పండి": 2409,
      "నివస": 2410,
      "##ంగి": 2411,
      "##ళ్లను": 2412,
      "వనరులను": 2413,
      "ఎంచుకోండి": 2414,
      "జనరేట్": 2415,
      "పాట": 2416,
      "##ాల్సి": 2417,
      "జాగ్రత్తగా": 2418,
      "##వేశ": 2419,
      "##కుంటున్నారు": 2420,
      "సిఫ": 2421,
      "విడుదల": 2422,
      "##కాశ": 2423,
      "ప్రతికూల": 2424,
      "అవుట్": 2425,
      "జాన్": 2426,
      "నివసి": 2427,
      "##క్కడికి": 2428,
      "కోల్పో": 2429,
      "నెట్వర్క్": 2430,
      "##ెడ": 2431,
      "పోటీ": 2432,
      "##ద్వేగ": 2433,
      "##ించాను": 2434,
      "ఇవ్వడానికి": 2435,
      "లేని": 2436,
      "ప్లాట్": 2437,
      "విశ్రా": 2438,
      "##సాహ": 2439,
      "ఆశి": 2440,
      "##కోగ": 2441,
      "చేయాలను": 2442,
      "భావో": 2443,
      "##ముఖ్య": 2444,
      "ముక్క": 2445,
      "ప్రాముఖ్య": 2446,
      "రహ": 2447,
      "బట్టి": 2448,
      "ఇంటర్నెట్": 2449,
      "కేట": 2450,
      "అధ్యయ": 2451,
      "##ెక్కి": 2452,
      "##రోధ": 2453,
      "ఎవరైనా": 2454,
      "##వైపు": 2455,
      "జనాభా": 2456,
      "గ్రీన్": 2457,
      "##స్టిక్": 2458,
      "చివరి": 2459,
      "##చిత": 2460,
      "అందించడానికి": 2461,
      "ముగింపు": 2462,
      "వర్చు": 2463,
      "దొ": 2464,
      "##రిత": 2465,
      "##రిక్": 2466,
      "సమస్యను": 2467,
      "సంబంధించిన": 2468,
      "ధృ": 2469,
      "పేజీ": 2470,
      "ప్రభావం": 2471,
      "పరిష్కరించడానికి": 2472,
      "ప్లాన్": 2473,
      "##ీకరించ": 2474,
      "##ోగ్రా": 2475,
      "బ్లాక్": 2476,
      "ఎప్పుడు": 2477,
      "క్లి": 2478,
      "ఆదాయ": 2479,
      "చదు": 2480,
      "వీటి": 2481,
      "##ంజ": 2482,
      "ఉత్పత్తు": 2483,
      "రోబో": 2484,
      "ఆకర్షణీయ": 2485,
      "రకమైన": 2486,
      "పక్ష": 2487,
      "తాజా": 2488,
      "విభజ": 2489,
      "ఇంత": 2490,
      "!.": 2491,
      "##రస్": 2492,
      "##సర్": 2493,
      "కోడ్": 2494,
      "నమ్ము": 2495,
      "##కుడు": 2496,
      "వది": 2497,
      "##డాన్ని": 2498,
      "నియమ": 2499,
      "##ౌస్": 2500,
      "బాధ": 2501,
      "వ్యాపారాలు": 2502,
      "లక్షణాలను": 2503,
      "ప్రత్యేకమైన": 2504,
      "పొడ": 2505,
      "భావోద్వేగ": 2506,
      "##ల్చ": 2507,
      "విధానం": 2508,
      "##తూ": 2509,
      "దీనికి": 2510,
      "పూర్తిగా": 2511,
      "సైట్": 2512,
      "వయస్సు": 2513,
      "వర్చువల్": 2514,
      "##మాండ్": 2515,
      "##తులకు": 2516,
      "##స్తుందని": 2517,
      "పోష": 2518,
      "పర్యవేక్ష": 2519,
      "వేయడానికి": 2520,
      "అందిస్తాయి": 2521,
      "చర్యలు": 2522,
      "విశ్రాంతి": 2523,
      "మళ్ళ": 2524,
      "గుడ్": 2525,
      "##ంచెం": 2526,
      "##పోయిన": 2527,
      "సంతృప్తి": 2528,
      "ఎవరి": 2529,
      "##మారు": 2530,
      "##ప్పి": 2531,
      "##సులు": 2532,
      "భౌ": 2533,
      "స్నేహితులు": 2534,
      "టేబుల్": 2535,
      "బే": 2536,
      "##డప": 2537,
      "కొంచెం": 2538,
      "##వలసిన": 2539,
      "పూ": 2540,
      "చెల్ల": 2541,
      "శ్రేణి": 2542,
      "##మవుతుంది": 2543,
      "##ప్రా": 2544,
      "సహాయపడతాయి": 2545,
      "మెంట్": 2546,
      "ధన్య": 2547,
      "ధన్యవా": 2548,
      "ప్రయోజనాలను": 2549,
      "అదనపు": 2550,
      "సామర్థ్య": 2551,
      "టైమ్": 2552,
      "సవా": 2553,
      "##దాపు": 2554,
      "దాదాపు": 2555,
      "అలాగే": 2556,
      "విలువైన": 2557,
      "##సాగ": 2558,
      "ఆస్వా": 2559,
      "ఇక": 2560,
      "##భూ": 2561,
      "##స్యం": 2562,
      "బిజీ": 2563,
      "బ్ర": 2564,
      "చేసింది": 2565,
      "మళ్ళీ": 2566,
      "కష్టం": 2567,
      "అమెరి": 2568,
      "##నో": 2569,
      "##స్తాము": 2570,
      "స్థాన": 2571,
      "కొనసాగ": 2572,
      "వాస్తవ": 2573,
      "పరిమ": 2574,
      "వైవి": 2575,
      "##థమిక": 2576,
      "ప్రాథమిక": 2577,
      "సమస్యలను": 2578,
      "అన్వేష": 2579,
      "##ీల": 2580,
      "##కరంగా": 2581,
      "టీమ్": 2582,
      "కాఫీ": 2583,
      "ఖచ్చితమైన": 2584,
      "పరిశోధన": 2585,
      "ప్రాసె": 2586,
      "అందరూ": 2587,
      "##కపోతే": 2588,
      "ధన్యవాదాలు": 2589,
      "##దో": 2590,
      "బృ": 2591,
      "##ేదు": 2592,
      "గుర్తించండి": 2593,
      "లభ": 2594,
      "యునై": 2595,
      "యునైటెడ్": 2596,
      "దృశ్య": 2597,
      "##కున్నారు": 2598,
      "అప": 2599,
      "పాయింట్": 2600,
      "**:": 2601,
      "లెక్కి": 2602,
      "##దులు": 2603,
      "అభిప్ర": 2604,
      "సరళ": 2605,
      "స్క": 2606,
      "అల్గో": 2607,
      "అల్గోరిథ": 2608,
      "నిల": 2609,
      "పిల్లలు": 2610,
      "గుర్తుంచు": 2611,
      "దిగు": 2612,
      "ఉపయోగిస్తారు": 2613,
      "పరిష్కార": 2614,
      "క్షమ": 2615,
      "ఉష్ణోగ్రత": 2616,
      "సృష్టి": 2617,
      "##రంగ": 2618,
      "ప్రసిద్ధ": 2619,
      "గేమ్": 2620,
      "సహక": 2621,
      "పార్టీ": 2622,
      "##సన": 2623,
      "చేస్తాను": 2624,
      "ఆధారపడి": 2625,
      "తెలుసా": 2626,
      "ప్లే": 2627,
      "హె": 2628,
      "ఆవి": 2629,
      "తనకు": 2630,
      "##ారోగ": 2631,
      "చదవ": 2632,
      "పెంచుతుంది": 2633,
      "చూపు": 2634,
      "వాతావరణం": 2635,
      "ఉంచండి": 2636,
      "తలుపు": 2637,
      "పనితీరును": 2638,
      "అనిప": 2639,
      "##లింగ్": 2640,
      "వివాహం": 2641,
      "##కండి": 2642,
      "పనులను": 2643,
      "గమనించ": 2644,
      "బ్రాండ్": 2645,
      "తీసుకోండి": 2646,
      "ఎదుర్కొ": 2647,
      "అడుగు": 2648,
      "మంచు": 2649,
      "##స్కృ": 2650,
      "##తున్నాడు": 2651,
      "చేయబడిన": 2652,
      "చేసుకోవడం": 2653,
      "బహుళ": 2654,
      "##ట్లను": 2655,
      "##డింగ్": 2656,
      "ముఖ్యంగా": 2657,
      "పాఠశాల": 2658,
      "వెంట": 2659,
      "ఉదయం": 2660,
      "సమతుల": 2661,
      "ప్రతిస్పంద": 2662,
      "##క్ట": 2663,
      "సాంకేతికత": 2664,
      "చదువు": 2665,
      "జు": 2666,
      "##త్తులు": 2667,
      "ద్ర": 2668,
      "ప్రవర్తన": 2669,
      "##ువు": 2670,
      "చికి": 2671,
      "సహాయపడటానికి": 2672,
      "రీసై": 2673,
      "##సాయ": 2674,
      "##వ్య": 2675,
      "చెందిన": 2676,
      "##త్యా": 2677,
      "పరిచ": 2678,
      "ప్రస్తుత": 2679,
      "నడి": 2680,
      "ధృవీ": 2681,
      "##వారం": 2682,
      "ఏర్పాటు": 2683,
      "చెబు": 2684,
      "పాటు": 2685,
      "##ంక": 2686,
      "అతన్ని": 2687,
      "##తీయ": 2688,
      "##బ్బంది": 2689,
      "##ఖీ": 2690,
      "##స్తున్నాము": 2691,
      "విషయం": 2692,
      "షాపింగ్": 2693,
      "ఫై": 2694,
      "కోరుకుంటున్నాను": 2695,
      "నాణ్యత": 2696,
      "ఎన్ని": 2697,
      "చా": 2698,
      "తని": 2699,
      "అల్గోరిథం": 2700,
      "శక్తివంతమైన": 2701,
      "దోహ": 2702,
      "ఆప్టి": 2703,
      "తనిఖీ": 2704,
      "సమాన": 2705,
      "దగ్గర": 2706,
      "సాంప్ర": 2707,
      "##వింగ్": 2708,
      "నియంత్": 2709,
      "చెప్పాను": 2710,
      "పడ": 2711,
      "##వేత్త": 2712,
      "ఆన్": 2713,
      "##డుతున్న": 2714,
      "మంచిది": 2715,
      "ప్రేరే": 2716,
      "నిజం": 2717,
      "న్య": 2718,
      "వ్యత్యా": 2719,
      "స్పష్టంగా": 2720,
      "బిజీగా": 2721,
      "మరోవైపు": 2722,
      "##తున్నా": 2723,
      "##జింగ్": 2724,
      "మేధస్సు": 2725,
      "చక్క": 2726,
      "##ట్స్": 2727,
      "పట్ల": 2728,
      "ప్రయోజనాలు": 2729,
      "కార్యక్రమ": 2730,
      "##ెర": 2731,
      "##ెన్సీ": 2732,
      "అనుభవం": 2733,
      "##ద్దీ": 2734,
      "##ార్డ్": 2735,
      "కోర్": 2736,
      "##రగాయ": 2737,
      "##ించలేదు": 2738,
      "చని": 2739,
      "బరువు": 2740,
      "పౌ": 2741,
      "వెను": 2742,
      "\".": 2743,
      "సెల": 2744,
      "30": 2745,
      "##కిల్": 2746,
      "##గిలి": 2747,
      "##ందం": 2748,
      "ఏమిట": 2749,
      "నిర్ణయించు": 2750,
      "##బ్ద": 2751,
      "ఉన్నప్పుడు": 2752,
      "సృష్టించడం": 2753,
      "చూడటానికి": 2754,
      "నియంత్ర": 2755,
      "పొర": 2756,
      "నియంత్రణ": 2757,
      "ప్రాసెస్": 2758,
      "డీ": 2759,
      "##పోయే": 2760,
      "ఏఐ": 2761,
      "బయటకు": 2762,
      "లోత": 2763,
      "యాక్సెస్": 2764,
      "లీ": 2765,
      "నగ": 2766,
      "ప్రవేశ": 2767,
      "##ానించ": 2768,
      "చేర్చ": 2769,
      "కొట్ట": 2770,
      "కూరగాయ": 2771,
      "తల్లిద": 2772,
      "నిరాశ": 2773,
      "ప్రొఫ": 2774,
      "క్ర": 2775,
      "చేశారు": 2776,
      "ప్లాట్ఫ": 2777,
      "సాంప్రదాయ": 2778,
      "నిర్వహించడం": 2779,
      "##జన్": 2780,
      "##ించబడుతుంది": 2781,
      "హాని": 2782,
      "##యిన్": 2783,
      "తల్లిదండ్ర": 2784,
      "ప్రపంచంలో": 2785,
      "స్టేట్స్": 2786,
      "##దిక": 2787,
      "నిర్వచ": 2788,
      "ప్రకటన": 2789,
      "అనుకుంటున్నారా": 2790,
      "##స్తోంది": 2791,
      "నిమిషాలు": 2792,
      "జీవన": 2793,
      "కణ": 2794,
      "గి": 2795,
      "##ర్యా": 2796,
      "##బైల్": 2797,
      "నిర్మాణ": 2798,
      "కలిగే": 2799,
      "##్రీయ": 2800,
      "సంభ": 2801,
      "వెచ్చ": 2802,
      "స్వయ": 2803,
      "ప్రేమి": 2804,
      "ఆప్టిమై": 2805,
      "హృ": 2806,
      "విస్తృ": 2807,
      "హక్కు": 2808,
      "డిమాండ్": 2809,
      "సందేశ": 2810,
      "##ర్షిక": 2811,
      "హృద": 2812,
      "సరిగ్గా": 2813,
      "ఒత్తిడి": 2814,
      "అనారోగ": 2815,
      "కనిపి": 2816,
      "భిన్న": 2817,
      "గుర్తి": 2818,
      "కలప": 2819,
      "చెప్పారు": 2820,
      "పాత": 2821,
      "ఇంధన": 2822,
      "తెలియజేయ": 2823,
      "ఏమిటంటే": 2824,
      "##వసర": 2825,
      "##సాన్ని": 2826,
      "##దులుగా": 2827,
      "అలవా": 2828,
      "##్యు": 2829,
      "ప్రాజెక్ట్": 2830,
      "##చరణ": 2831,
      "నిండి": 2832,
      "##లిటీ": 2833,
      "##లేదని": 2834,
      "##ర్యం": 2835,
      "విరా": 2836,
      "##లికి": 2837,
      "##మైంది": 2838,
      "ప్రొడ": 2839,
      "వీడియో": 2840,
      "భాగస్వామ": 2841,
      "##గ్గు": 2842,
      "వినియోగదారులకు": 2843,
      "వాహ": 2844,
      "ముఖ": 2845,
      "పిలు": 2846,
      "కలిగ": 2847,
      "##త్వాన్ని": 2848,
      "శుభ్ర": 2849,
      "##ెడ్యూ": 2850,
      "##వైనా": 2851,
      "సమావ": 2852,
      "చేయలేదు": 2853,
      "సర్దు": 2854,
      "పరిమాణ": 2855,
      "వారిని": 2856,
      "లోతైన": 2857,
      "ఏవైనా": 2858,
      "పారి": 2859,
      "ఆర్డర్": 2860,
      "నమూనా": 2861,
      "చేస్తున్న": 2862,
      "##డ్జ": 2863,
      "పేర్కొన": 2864,
      "సల": 2865,
      "ఉన్నారా": 2866,
      "పద్ధతులు": 2867,
      "శీర్షిక": 2868,
      "షెడ్యూ": 2869,
      "సంఘటన": 2870,
      "##వంటి": 2871,
      "##టువంటి": 2872,
      "ప్రాసెసింగ్": 2873,
      "వృద్ధి": 2874,
      "##ద్దాం": 2875,
      "పరిగణన": 2876,
      "మాం": 2877,
      "చిరు": 2878,
      "##కుంది": 2879,
      "సమాచార": 2880,
      "పొందడానికి": 2881,
      "##టన్": 2882,
      "లేదని": 2883,
      "##సిస్ట": 2884,
      "అందమైన": 2885,
      "పెంపొందించ": 2886,
      "భావన": 2887,
      "కారణంగా": 2888,
      "కాలక": 2889,
      "అనుకూల": 2890,
      "విభిన్న": 2891,
      "వెనుక": 2892,
      "వ్యాయామం": 2893,
      "మొత్తంలో": 2894,
      "వ్యవస్థను": 2895,
      "తదు": 2896,
      "ఆమెకు": 2897,
      "సారాంశ": 2898,
      "తదుపరి": 2899,
      "ప్రోత్సహించడం": 2900,
      "సగ": 2901,
      "జరుగుతుంది": 2902,
      "పురోగతి": 2903,
      "##పోయింది": 2904,
      "##సెట్": 2905,
      "బహుశా": 2906,
      "హ్యా": 2907,
      "##కేట్": 2908,
      "చికిత్స": 2909,
      "బహి": 2910,
      "##నె": 2911,
      "అంశాలను": 2912,
      "సమీక్ష": 2913,
      "కాలుష": 2914,
      "ప్రాప్యత": 2915,
      "నావి": 2916,
      "నాయ": 2917,
      "నిర్ణయం": 2918,
      "##ండర్": 2919,
      "ఉత్పాదక": 2920,
      "కలిగిస్తుంది": 2921,
      "పోల్చ": 2922,
      "ఫలితాలను": 2923,
      "అర్": 2924,
      "అక్ష": 2925,
      "పాస్": 2926,
      "##ంటారు": 2927,
      "వనరుల": 2928,
      "బోస్టన్": 2929,
      "ధరించ": 2930,
      "##క్టివ్": 2931,
      "మొబైల్": 2932,
      "గౌ": 2933,
      "మొదట": 2934,
      "చురు": 2935,
      "##తున్నారు": 2936,
      "మేరీతో": 2937,
      "##ెక్టు": 2938,
      "కనెక్ట్": 2939,
      "లెక్కించ": 2940,
      "విద్యార్థులు": 2941,
      "పరిచయం": 2942,
      "శాస్త్ర": 2943,
      "ఈత": 2944,
      "ముందుకు": 2945,
      "సైన్స్": 2946,
      "తెలుసుకోవ": 2947,
      "##రోజ": 2948,
      "ఉద్యోగం": 2949,
      "ఆటగా": 2950,
      "ప్రభావాలను": 2951,
      "##డ్జెట్": 2952,
      "##చార": 2953,
      "##మైనది": 2954,
      "డయా": 2955,
      "చెప్పిన": 2956,
      "అందించే": 2957,
      "ఎడ": 2958,
      "టామ్కు": 2959,
      "##బె": 2960,
      "అవుతుంది": 2961,
      "క్వ": 2962,
      "తండ్": 2963,
      "ప్రకృతి": 2964,
      "బదులుగా": 2965,
      "##కుంటుంది": 2966,
      "వాతావరణాన్ని": 2967,
      "కాలం": 2968,
      "ప్రొడక్ట్": 2969,
      "##స్పర": 2970,
      "##కరి": 2971,
      "రెస్ట": 2972,
      "##కూడదు": 2973,
      "##రుపు": 2974,
      "విడి": 2975,
      "నమూన": 2976,
      "పీ": 2977,
      "కాదా": 2978,
      "ఫీచర్": 2979,
      "ఆస్వాదించ": 2980,
      "##ారెంట్": 2981,
      "భోజనం": 2982,
      "సిఫార్": 2983,
      "##నర్": 2984,
      "ఉత్పత్తులు": 2985,
      "భద్రత": 2986,
      "ప్రక్రియను": 2987,
      "పరస్పర": 2988,
      "సంక్లిష్టమైన": 2989,
      "ఉద్గారాలను": 2990,
      "నాతో": 2991,
      "రెస్టారెంట్": 2992,
      "ఇప్పటికీ": 2993,
      "ఎస్": 2994,
      "##క్సి": 2995,
      "స్టాక్": 2996,
      "##ేటు": 2997,
      "బూ": 2998,
      "డాల": 2999,
      "పట్టణ": 3000,
      "ఉంటారు": 3001,
      "##రని": 3002,
      "ప్లాస్టిక్": 3003,
      "ఆలస్యం": 3004,
      "##్యాల": 3005,
      "సాధ్య": 3006,
      "ఆధారపడ": 3007,
      "కళా": 3008,
      "కఠ": 3009,
      "రచ": 3010,
      "సున్ని": 3011,
      "వ్యక్తిగతీకరించ": 3012,
      "##గ్ని": 3013,
      "##ార్డు": 3014,
      "సాహ": 3015,
      "లక్ష్యం": 3016,
      "##స్థిర": 3017,
      "యూని": 3018,
      "##ౌన్": 3019,
      "అంగీకరించ": 3020,
      "##కోగల": 3021,
      "సాధించడానికి": 3022,
      "పోలీ": 3023,
      "ఖర్చులను": 3024,
      "పరిజ్ఞానం": 3025,
      "##న్యు": 3026,
      "ఉపయోగించడానికి": 3027,
      "పన్ను": 3028,
      "##ితమైన": 3029,
      "వ్యాపారం": 3030,
      "లక్షణాలు": 3031,
      "పరిణా": 3032,
      "పాడ": 3033,
      "సహాయపడే": 3034,
      "##ముద్ర": 3035,
      "జరగ": 3036,
      "##స్తుందో": 3037,
      "తద్వ": 3038,
      "ఇవ్వడం": 3039,
      "కఠిన": 3040,
      "తద్వారా": 3041,
      "ప్రారంభించండి": 3042,
      "విజు": 3043,
      "భాగం": 3044,
      "మాట": 3045,
      "పనిని": 3046,
      "చివరికి": 3047,
      "గుర్తింపు": 3048,
      "మెరుగుపరుస్తుంది": 3049,
      "ఉండాలని": 3050,
      "స్వే": 3051,
      "అందించండి": 3052,
      "##హీ": 3053,
      "విశ్వసనీయ": 3054,
      "##చాడు": 3055,
      "##వత": 3056,
      "##క్త": 3057,
      "ఉన్నారని": 3058,
      "##ూన్": 3059,
      "చాట్": 3060,
      "మిగిలి": 3061,
      "##్వాస": 3062,
      "వ్యవస్థలు": 3063,
      "నైతిక": 3064,
      "ప్లాట్ఫామ్": 3065,
      "చేప": 3066,
      "కాకుండా": 3067,
      "సురక్షితంగా": 3068,
      "హి": 3069,
      "మనకు": 3070,
      "గణనీయంగా": 3071,
      "పెయి": 3072,
      "పరిగణనలోకి": 3073,
      "విస్తృత": 3074,
      "హృదయ": 3075,
      "ట్రాఫిక్": 3076,
      "##మయ్యే": 3077,
      "ఆయ": 3078,
      "ఆహారాన్ని": 3079,
      "##ిస్తుంది": 3080,
      "వాతావరణంలో": 3081,
      "నిర్ధారించుకోండి": 3082,
      "##ంటర్": 3083,
      "డెవల": 3084,
      "మౌ": 3085,
      "వారం": 3086,
      "##క్కి": 3087,
      "ఎత్తు": 3088,
      "న్యాయ": 3089,
      "ప్రోగ్రా": 3090,
      "తనను": 3091,
      "కనుగొనడానికి": 3092,
      "వర్షం": 3093,
      "##దాని": 3094,
      "ప్రవర్త": 3095,
      "వనరులు": 3096,
      "కుటుంబం": 3097,
      "##పాయ": 3098,
      "చేయడంలో": 3099,
      "ఇంజ": 3100,
      "పెరిగిన": 3101,
      "కనీ": 3102,
      "నొ": 3103,
      "##టై": 3104,
      "మారి": 3105,
      "పాల్గొన": 3106,
      "చెప్పలేదు": 3107,
      "స్థితి": 3108,
      "కొద్": 3109,
      "పొందిన": 3110,
      "కంపెనీలు": 3111,
      "నడు": 3112,
      "మూడ": 3113,
      "వల": 3114,
      "##కీయ": 3115,
      "అసిస్ట": 3116,
      "ఆత్మ": 3117,
      "స్వేచ్ఛ": 3118,
      "##లెట్": 3119,
      "కమ్యూనికేట్": 3120,
      "యాప్": 3121,
      "ఊహ": 3122,
      "ఆమెను": 3123,
      "సబ్": 3124,
      "వస్తువులను": 3125,
      "ఎలక్ట": 3126,
      "సినిమా": 3127,
      "ఆటోమే": 3128,
      "ఎవరో": 3129,
      "నిరోధ": 3130,
      "##రిప్": 3131,
      "##ండు": 3132,
      "##ఫోన్": 3133,
      "నాలు": 3134,
      "వర్గీ": 3135,
      "గుర్తించడం": 3136,
      "క్రమబద్ధ": 3137,
      "తండ్రి": 3138,
      "కాంతి": 3139,
      "##వల్ల": 3140,
      "##లేని": 3141,
      "చివరగా": 3142,
      "భద్రతా": 3143,
      "ప్రశా": 3144,
      "ముందుగా": 3145,
      "వినియోగదారుల": 3146,
      "దూరంగా": 3147,
      "శరీర": 3148,
      "ప్రశాంత": 3149,
      "##తిరే": 3150,
      "##క్లింగ్": 3151,
      "##రాడు": 3152,
      "##నియోగ": 3153,
      "విమాన": 3154,
      "కారణం": 3155,
      "విద్యుత్": 3156,
      "##స్టర్": 3157,
      "##కుంటాడు": 3158,
      "ఆపిల్": 3159,
      "##రియా": 3160,
      "##బిలిటీ": 3161,
      "బడ్జెట్": 3162,
      "వహ": 3163,
      "కార్డు": 3164,
      "శ్రేయస్సు": 3165,
      "##టిక్స్": 3166,
      "##ాలనుకుంటున్నారా": 3167,
      "అయ్యే": 3168,
      "అవకాశాలను": 3169,
      "మమ్మల్ని": 3170,
      "నిశ్": 3171,
      "అసా": 3172,
      "##జం": 3173,
      "##ౌడ్": 3174,
      "వేరియ": 3175,
      "తీవ్రమైన": 3176,
      "ప్రశ్నలు": 3177,
      "తేడ": 3178,
      "వైవిధ్య": 3179,
      "వ్యతిరే": 3180,
      "అమెరికా": 3181,
      "##కులను": 3182,
      "కూర్చు": 3183,
      "##లన": 3184,
      "##కర్": 3185,
      "దిగువ": 3186,
      "##వ్యాప్": 3187,
      "##బీ": 3188,
      "అమెరిక": 3189,
      "అసిస్టెంట్": 3190,
      "అవసరాలను": 3191,
      "##ాంత": 3192,
      "రెండవ": 3193,
      "వీటిలో": 3194,
      "భౌతిక": 3195,
      "డై": 3196,
      "నమూనాలను": 3197,
      "##రలో": 3198,
      "కలిగిన": 3199,
      "వచ్చాడు": 3200,
      "##వె": 3201,
      "కర్": 3202,
      "మేనేజ్": 3203,
      "నావిగే": 3204,
      "##ట్టిన": 3205,
      "ఇల్లు": 3206,
      "##బేస్": 3207,
      "మర్చి": 3208,
      "##నిక్": 3209,
      "##ల్డ్": 3210,
      "దోహదం": 3211,
      "లె": 3212,
      "ప్రకాశ": 3213,
      "##తిమ": 3214,
      "ప్రాతిని": 3215,
      "తీసుకోవ": 3216,
      "ఆరోగ్యం": 3217,
      "ఆకర్ష": 3218,
      "రుచి": 3219,
      "పేర్కొనండి": 3220,
      "తగ్గించడంలో": 3221,
      "వదిలి": 3222,
      "రూ": 3223,
      "వాయి": 3224,
      "##్రమేణా": 3225,
      "కాలక్రమేణా": 3226,
      "##వరీ": 3227,
      "ఉపయోగించబడుతుంది": 3228,
      "ప్రేరణ": 3229,
      "సులభతరం": 3230,
      "మహి": 3231,
      "నిద్రపో": 3232,
      "సూత్ర": 3233,
      "ఫ్యా": 3234,
      "నిరంతరం": 3235,
      "ప్రకారం": 3236,
      "ఎదురు": 3237,
      "ఆయన": 3238,
      "##కల్పన": 3239,
      "##పత్తి": 3240,
      "చేయమని": 3241,
      "వ్యాసం": 3242,
      "సేవలను": 3243,
      "రేటు": 3244,
      "బహుమ": 3245,
      "##తలను": 3246,
      "ఇంటరా": 3247,
      "##మోట్": 3248,
      "పొందు": 3249,
      "##పూర్వక": 3250,
      "##ానాన్ని": 3251,
      "వర్గీకరించ": 3252,
      "ప్రమాదాన్ని": 3253,
      "మహిళ": 3254,
      "మార్గాన్ని": 3255,
      "ఫలితంగా": 3256,
      "జరిగిందో": 3257,
      "##కల": 3258,
      "కొల": 3259,
      "వేస": 3260,
      "డేటాబేస్": 3261,
      "షెడ్యూల్": 3262,
      "12": 3263,
      "నవ్వ": 3264,
      "వెంటనే": 3265,
      "వ్యక్తిగతీకరించిన": 3266,
      "వాక్య": 3267,
      "సిద్ధాంత": 3268,
      "##ంప్": 3269,
      "విధానాన్ని": 3270,
      "ఇచ్చాడు": 3271,
      "##ఫర్": 3272,
      "##చిన": 3273,
      "##ెట్టి": 3274,
      "ఎప్పటికీ": 3275,
      "##చిక": 3276,
      "##ించబడిన": 3277,
      "##కోలేదు": 3278,
      "గ్లో": 3279,
      "##ల్లా": 3280,
      "స్వీయ": 3281,
      "అంతిమ": 3282,
      "బొ": 3283,
      "కోప": 3284,
      "ఇలా": 3285,
      "పట్టి": 3286,
      "##బల్": 3287,
      "##రిస్తుంది": 3288,
      "క్షమించండి": 3289,
      "వేసవి": 3290,
      "సుమారు": 3291,
      "శ్ర": 3292,
      "పెరగ": 3293,
      "చూశాను": 3294,
      "ఆశిస్తున్నాను": 3295,
      "##రాల": 3296,
      "పెరుగుతున్న": 3297,
      "తెలివి": 3298,
      "##పడుతు": 3299,
      "వీలు": 3300,
      "##ంబర్": 3301,
      "జీవితంలో": 3302,
      "పాద": 3303,
      "##కాలంలో": 3304,
      "##యోగాన్ని": 3305,
      "పెరుగుదల": 3306,
      "క్లౌడ్": 3307,
      "అభ్యాస": 3308,
      "అనారోగ్య": 3309,
      "సర్దుబాటు": 3310,
      "నిమగ్న": 3311,
      "ఆశ్చర్యపో": 3312,
      "ఎప్పుడ": 3313,
      "వస్త": 3314,
      "పిలువ": 3315,
      "##ర్డ్": 3316,
      "##కుంటారు": 3317,
      "విజయవంతమైన": 3318,
      "పరిమాణం": 3319,
      "అంతర": 3320,
      "ఉంటాడు": 3321,
      "సంక్లిష్ట": 3322,
      "శ్వాస": 3323,
      "విప్": 3324,
      "##నివ్వ": 3325,
      "బె": 3326,
      "##శి": 3327,
      "##దైన": 3328,
      "##ించబడింది": 3329,
      "తెరి": 3330,
      "##ెస్ట్": 3331,
      "ఒత్తిడిని": 3332,
      "బై": 3333,
      "శోధ": 3334,
      "అవసరాలు": 3335,
      "రేఖ": 3336,
      "చూడటం": 3337,
      "తేదీ": 3338,
      "ఇస్తుంది": 3339,
      "జీవితం": 3340,
      "మారుతుంది": 3341,
      "పునరావ": 3342,
      "విజయం": 3343,
      "గౌరవ": 3344,
      "అభ్యాసం": 3345,
      "కలు": 3346,
      "సంభా": 3347,
      "సరిపో": 3348,
      "##రించండి": 3349,
      "దుస్తులు": 3350,
      "##ృహ": 3351,
      "పోస్ట్": 3352,
      "సూచించండి": 3353,
      "##ఎన్": 3354,
      "సంబంధాలను": 3355,
      "ప్రణాళికను": 3356,
      "సారాంశంలో": 3357,
      "##తుందని": 3358,
      "##టికీ": 3359,
      "##ందున": 3360,
      "క్రితం": 3361,
      "##ఫల": 3362,
      "సంపా": 3363,
      "యజ": 3364,
      "యజమ": 3365,
      "##ందింది": 3366,
      "సంవత్సరం": 3367,
      "జంతువు": 3368,
      "పాల": 3369,
      "##గమ": 3370,
      "రాసిన": 3371,
      "టీవీ": 3372,
      "పనిచేయడం": 3373,
      "ట్ర": 3374,
      "చెట్టు": 3375,
      "##లేరు": 3376,
      "##ంటేషన్": 3377,
      "స్టా": 3378,
      "ఇంజనీ": 3379,
      "##ోరణ": 3380,
      "##క్పథ": 3381,
      "దృక్పథ": 3382,
      "ఎప్పుడైనా": 3383,
      "అక": 3384,
      "ఆకు": 3385,
      "నగరం": 3386,
      "హీ": 3387,
      "లేఖ": 3388,
      "ఆకర్షణీయమైన": 3389,
      "##పణ": 3390,
      "అణ": 3391,
      "ఏమిటో": 3392,
      "ఇంగ్": 3393,
      "##ునా": 3394,
      "ఇష్టమైన": 3395,
      "తీసుకునే": 3396,
      "##వ్యాప్తంగా": 3397,
      "నివే": 3398,
      "##ినీ": 3399,
      "ఇంజి": 3400,
      "రాజకీయ": 3401,
      "నాలుగు": 3402,
      "##లసిన": 3403,
      "##తుందో": 3404,
      "చూడండి": 3405,
      "అభ్యర్థ": 3406,
      "ఉన్నప్పటికీ": 3407,
      "ఆస్ట్రేలియా": 3408,
      "ఉన్నాము": 3409,
      "సోమ": 3410,
      "కెమె": 3411,
      "ఎక్స్": 3412,
      "అధునా": 3413,
      "అధునాతన": 3414,
      "లోని": 3415,
      "తరగతి": 3416,
      "##వారీ": 3417,
      "##ేటర్": 3418,
      "##ండ్లు": 3419,
      "##సైడ్": 3420,
      "పిలువబడే": 3421,
      "##కపోవడం": 3422,
      "ధోరణ": 3423,
      "యంత్ర": 3424,
      "చెల్లి": 3425,
      "కల్ప": 3426,
      "దశలను": 3427,
      "ఇచ్చిన": 3428,
      "ఆలోచనలు": 3429,
      "##మాలు": 3430,
      "##లేక": 3431,
      "18": 3432,
      "గాయ": 3433,
      "టూ": 3434,
      "##సిస్": 3435,
      "##చింది": 3436,
      "పునర్": 3437,
      "నడక": 3438,
      "పనిచేసే": 3439,
      "సిఫార్సు": 3440,
      "##వ్యూ": 3441,
      "##గాలి": 3442,
      "ఉపా": 3443,
      "సంభాషణ": 3444,
      "ఇమే": 3445,
      "ఇకపై": 3446,
      "రొ": 3447,
      "అధి": 3448,
      "కేటాయ": 3449,
      "ఓప": 3450,
      "గ్రే": 3451,
      "##్రామిక": 3452,
      "రోజువారీ": 3453,
      "##ంటింగ్": 3454,
      "కాదని": 3455,
      "సంస్థలు": 3456,
      "నిష్": 3457,
      "201": 3458,
      "డ్రైవింగ్": 3459,
      "ఉప్పు": 3460,
      "చంప": 3461,
      "##ార్క్": 3462,
      "ఉత్పత్తులను": 3463,
      "పోషి": 3464,
      "పరిస్థితి": 3465,
      "కార్యకలాపాలను": 3466,
      "ప్రేక్షకులను": 3467,
      "##తకు": 3468,
      "##ంత్రం": 3469,
      "ప్రొఫె": 3470,
      "ఫ్రా": 3471,
      "కత్తి": 3472,
      "బ్యాం": 3473,
      "స్టోర్": 3474,
      "దాన్ని": 3475,
      "పెంచడం": 3476,
      "నెల": 3477,
      "భిన్నంగా": 3478,
      "నమూనాలు": 3479,
      "సంవత్సరాల": 3480,
      "శ్రద్ధ": 3481,
      "కాన్": 3482,
      "బాగు": 3483,
      "జరిగింది": 3484,
      "అడ్": 3485,
      "భవ": 3486,
      "డేటాసెట్": 3487,
      "కృషి": 3488,
      "గంటలకు": 3489,
      "రోగి": 3490,
      "సోదరు": 3491,
      "##ునిక": 3492,
      "ప్రభావవంతమైన": 3493,
      "నైపుణ్యాలు": 3494,
      "వాదన": 3495,
      "వ్యర్థాలను": 3496,
      "అడిగాడు": 3497,
      "ఇటీ": 3498,
      "బేస్": 3499,
      "మాట్లాడటం": 3500,
      "##శాల": 3501,
      "ప్రతిదీ": 3502,
      "ప్రయోగ": 3503,
      "##ించాలని": 3504,
      "నీటిని": 3505,
      "ఆవిష్": 3506,
      "గ్లోబల్": 3507,
      "##సో": 3508,
      "##క్సైడ్": 3509,
      "##పరమైన": 3510,
      "ప్రయోజనం": 3511,
      "అలసి": 3512,
      "పొడవు": 3513,
      "ఫు": 3514,
      "నివారించడానికి": 3515,
      "##ాయో": 3516,
      "##నంగా": 3517,
      "అధ్యయనం": 3518,
      "అర": 3519,
      "##మంది": 3520,
      "ప్రయత్నించండి": 3521,
      "అద్ద": 3522,
      "ప్రై": 3523,
      "రుచిక": 3524,
      "జ్ఞాప": 3525,
      "##కైన": 3526,
      "##వంతం": 3527,
      "రెండి": 3528,
      "##పోర్ట్": 3529,
      "వ్యవహ": 3530,
      "ఖరీ": 3531,
      "సమస్యలు": 3532,
      "ప్రాజెక్టు": 3533,
      "భర్త": 3534,
      "భారీ": 3535,
      "ప్రపంచం": 3536,
      "నిమగ్నం": 3537,
      "విచ్ఛ": 3538,
      "టి": 3539,
      "భార": 3540,
      "వెళ్లి": 3541,
      "ప్రపంచవ్యాప్తంగా": 3542,
      "పరిష్కారం": 3543,
      "ఏది": 3544,
      "ఫార్": 3545,
      "##ోగా": 3546,
      "జట్టు": 3547,
      "లావా": 3548,
      "##వేరు": 3549,
      "జీవితాన్ని": 3550,
      "##ఎల్": 3551,
      "కావడానికి": 3552,
      "సంక్షిప్తంగా": 3553,
      "##ధిక": 3554,
      "##స్మ": 3555,
      "యువ": 3556,
      "##బింబ": 3557,
      "కద": 3558,
      "మ్యా": 3559,
      "##సన్": 3560,
      "##టరీ": 3561,
      "ప్రతిబింబ": 3562,
      "సగటు": 3563,
      "ప్రమాదం": 3564,
      "##ముఖ": 3565,
      "##కుని": 3566,
      "భావనను": 3567,
      "##పత్రి": 3568,
      "##నెస్": 3569,
      "##పాన్": 3570,
      "లాభ": 3571,
      "టెలి": 3572,
      "##లుగు": 3573,
      "##‌కు": 3574,
      "##డుతున్నాను": 3575,
      "##మిక్": 3576,
      "పోరా": 3577,
      "మార్గాలను": 3578,
      "పార": 3579,
      "తయారీ": 3580,
      "సంఖ్యను": 3581,
      "##ాడో": 3582,
      "##మీటర్": 3583,
      "##ార్య": 3584,
      "గుండా": 3585,
      "ప్రేరేప": 3586,
      "స్కే": 3587,
      "మార్గాలు": 3588,
      "సలహా": 3589,
      "##వడానికి": 3590,
      "కంటెంట్ను": 3591,
      "అమ్మాయి": 3592,
      "రుచికరమైన": 3593,
      "డబ్బును": 3594,
      "కొనసా": 3595,
      "##గోళ": 3596,
      "భాషా": 3597,
      "సమావేశ": 3598,
      "ప్రవా": 3599,
      "కల్": 3600,
      "ఉపరిత": 3601,
      "లక్ష్యంగా": 3602,
      "ఖాళ": 3603,
      "అమెరికన్": 3604,
      "ఉడికి": 3605,
      "బంగా": 3606,
      "వస్తుంది": 3607,
      "రైలు": 3608,
      "శాస్త్రవేత్త": 3609,
      "గంటలు": 3610,
      "ప్రతిస్పందన": 3611,
      "బలహీ": 3612,
      "కనుగొనండి": 3613,
      "నిబంధ": 3614,
      "రండి": 3615,
      "విద్యార్థి": 3616,
      "##మ్మా": 3617,
      "హాజ": 3618,
      "##హారం": 3619,
      "##దేవీ": 3620,
      "##బడ్డాయి": 3621,
      "లావాదేవీ": 3622,
      "##దుపు": 3623,
      "చేయాలని": 3624,
      "మూసి": 3625,
      "##లికేషన్": 3626,
      "లాంగ్": 3627,
      "ఉపయోగిస్తుంది": 3628,
      "న్యూరల్": 3629,
      "విచ్ఛిన్న": 3630,
      "మంచ": 3631,
      "కదలిక": 3632,
      "పడి": 3633,
      "పుస్తకాలు": 3634,
      "ఉండేలా": 3635,
      "క్షణ": 3636,
      "సుస్థిర": 3637,
      "నైపుణ్యాలను": 3638,
      "##గ్రీ": 3639,
      "స్నేహ": 3640,
      "దగ్గ": 3641,
      "ఖాళీ": 3642,
      "పనిచేయడానికి": 3643,
      "##్లూ": 3644,
      "ఆప్టిమైజ్": 3645,
      "ప్రోగ్రామింగ్": 3646,
      "ఖరీదైన": 3647,
      "##ికేషన్": 3648,
      "పేద": 3649,
      "##ెర్చ్": 3650,
      "ప్రకట": 3651,
      "బీచ్": 3652,
      "##జ్య": 3653,
      "##గలదు": 3654,
      "పనిచేస్తుంది": 3655,
      "విడిచి": 3656,
      "15": 3657,
      "టె": 3658,
      "చేయబడింది": 3659,
      "అభిప్రాయ": 3660,
      "##పుట్": 3661,
      "సరఫ": 3662,
      "మెరుగుపరచడంలో": 3663,
      "వేయడం": 3664,
      "అట": 3665,
      "బస్సు": 3666,
      "##కారు": 3667,
      "చక్కెర": 3668,
      "##ప్పుడే": 3669,
      "తాగ": 3670,
      "##ణీ": 3671,
      "చేస్తాడు": 3672,
      "దుకా": 3673,
      "లైట్": 3674,
      "సొ": 3675,
      "ప్రోత్సహిస్తుంది": 3676,
      "##రుస": 3677,
      "చెందుతున్న": 3678,
      "##నప్పుడు": 3679,
      "డిగ్రీ": 3680,
      "నమ్ముతున్నాను": 3681,
      "##ామ్న": 3682,
      "లేదో": 3683,
      "##డిట్": 3684,
      "ప్రత్యామ్న": 3685,
      "##కాలం": 3686,
      "పిలుస్తారు": 3687,
      "డాక్టర్": 3688,
      "ఫా": 3689,
      "శైలి": 3690,
      "##జాల": 3691,
      "చేయగలి": 3692,
      "చెడ్డ": 3693,
      "వేర్వేరు": 3694,
      "వాగ్": 3695,
      "##వలం": 3696,
      "కేవలం": 3697,
      "ప్రోత్సహించడానికి": 3698,
      "రీసైక్లింగ్": 3699,
      "విద": 3700,
      "##బ్దం": 3701,
      "ఎటువంటి": 3702,
      "##ిణీ": 3703,
      "అంచనాలు": 3704,
      "నెమ్మ": 3705,
      "డెలి": 3706,
      "##ులతో": 3707,
      "వచ్చిన": 3708,
      "త్వరలో": 3709,
      "ఆకలి": 3710,
      "##రేషన్": 3711,
      "కిటికీ": 3712,
      "##పడ్డాడు": 3713,
      "ప్రాముఖ్యత": 3714,
      "రక్షించడానికి": 3715,
      "కనీసం": 3716,
      "ఏడు": 3717,
      "కట్టు": 3718,
      "ఆహ్వ": 3719,
      "##యిక": 3720,
      "వినియోగాన్ని": 3721,
      "సెల్": 3722,
      "ప్రయోజన": 3723,
      "నవీ": 3724,
      "##ెన": 3725,
      "కాగి": 3726,
      "##ానో": 3727,
      "మిలియ": 3728,
      "కలయిక": 3729,
      "విభాగ": 3730,
      "నిర్ధారించడానికి": 3731,
      "సున్నితమైన": 3732,
      "ఆల్": 3733,
      "దానిపై": 3734,
      "స్నేహితుడు": 3735,
      "##కత": 3736,
      "తగ్గించవచ్చు": 3737,
      "స్థిర": 3738,
      "##ాలయ": 3739,
      "యుద్ధం": 3740,
      "ప్రాతినిధ్యం": 3741,
      "వాగ్దా": 3742,
      "మ్యూ": 3743,
      "రక్త": 3744,
      "##దింపు": 3745,
      "కనుగొనడం": 3746,
      "##శాస్త": 3747,
      "మార్పులను": 3748,
      "తీసుకె": 3749,
      "కంప్యూటింగ్": 3750,
      "ఉంచడానికి": 3751,
      "సంవత్సరాలు": 3752,
      "అప్లికేషన్": 3753,
      "ధూ": 3754,
      "##నిర్": 3755,
      "##ంటీ": 3756,
      "చేసేటప్పుడు": 3757,
      "##భూతి": 3758,
      "క్రె": 3759,
      "నిర్మాణం": 3760,
      "ఆలోచనలను": 3761,
      "రాష్ట": 3762,
      "సంగీత": 3763,
      "మధ": 3764,
      "##ర్స్": 3765,
      "ఫోటో": 3766,
      "ఇబ్బంది": 3767,
      "దె": 3768,
      "నిపుణ": 3769,
      "##హ్నం": 3770,
      "##కొని": 3771,
      "##తజ్ఞ": 3772,
      "అబద్ధ": 3773,
      "##వంతు": 3774,
      "ఉంచు": 3775,
      "హార్": 3776,
      "##క్యం": 3777,
      "##రిగే": 3778,
      "వేగవంతమైన": 3779,
      "##ంక్ష": 3780,
      "అభిరు": 3781,
      "వ్యవస్థలను": 3782,
      "ఫిట్": 3783,
      "కొన్నిసార్లు": 3784,
      "రహస్య": 3785,
      "అనువర్తన": 3786,
      "##వాడిని": 3787,
      "సంగీతం": 3788,
      "##బ్ర": 3789,
      "కమ్యూనిటీ": 3790,
      "శ్రమ": 3791,
      "##వన్నీ": 3792,
      "వెళ్ళాడు": 3793,
      "కఠినమైన": 3794,
      "చేస్తున్నాను": 3795,
      "డాక్యు": 3796,
      "సవాళ్లను": 3797,
      "మాంసం": 3798,
      "విద్యా": 3799,
      "ఇంతకు": 3800,
      "##లాజ": 3801,
      "కాలేదు": 3802,
      "ముంద": 3803,
      "రెండూ": 3804,
      "కేంద్ర": 3805,
      "స్వచ్ఛ": 3806,
      "డెలివరీ": 3807,
      "##డియ": 3808,
      "తగ్గు": 3809,
      "ఆలోచి": 3810,
      "భార్య": 3811,
      "ప్రమాణ": 3812,
      "ఎవరికీ": 3813,
      "##వలసి": 3814,
      "భాగస్వామ్యం": 3815,
      "ఆవిష్కరణ": 3816,
      "##ఆర్": 3817,
      "అల్పా": 3818,
      "సమీకరణ": 3819,
      "నమూనాను": 3820,
      "##బుల్స్": 3821,
      "వినియోగదారులను": 3822,
      "##యే": 3823,
      "##కుల": 3824,
      "నిజమైన": 3825,
      "ఉత్పత్తిని": 3826,
      "ఎంపికలు": 3827,
      "దూరం": 3828,
      "గెలవ": 3829,
      "చిట్": 3830,
      "సౌర": 3831,
      "పంపిణీ": 3832,
      "మెరుగుపరచడం": 3833,
      "నేర్చుకోవడానికి": 3834,
      "బయలుదేర": 3835,
      "ద్రవ్య": 3836,
      "##బడు": 3837,
      "చేశాను": 3838,
      "పరిశీల": 3839,
      "##ర్ప": 3840,
      "##త్సాహ": 3841,
      "##వచ్చా": 3842,
      "##వర్డ్": 3843,
      "డ్రైవ్": 3844,
      "రాల": 3845,
      "##ంతిని": 3846,
      "##కలు": 3847,
      "వేరు": 3848,
      "##స్తున్నప్పుడు": 3849,
      "కృతజ్ఞ": 3850,
      "పదార్థాలను": 3851,
      "భయం": 3852,
      "ప్రీ": 3853,
      "స్థానం": 3854,
      "అంతిమంగా": 3855,
      "చిక": 3856,
      "ఫైనా": 3857,
      "##ాలిటీ": 3858,
      "శిలాజ": 3859,
      "రుణ": 3860,
      "పాలు": 3861,
      "అంగీ": 3862,
      "టాప్": 3863,
      "పురోగతిని": 3864,
      "##రిని": 3865,
      "వ్యాధ": 3866,
      "చర్యలను": 3867,
      "పరిమితం": 3868,
      "##శాడు": 3869,
      "##శ్రమ": 3870,
      "##లర్": 3871,
      "ఎక్క": 3872,
      "వార్మింగ్": 3873,
      "పడు": 3874,
      "చిక్కు": 3875,
      "దశలు": 3876,
      "గడప": 3877,
      "ద్వే": 3878,
      "అంతా": 3879,
      "గర్": 3880,
      "ఎల్": 3881,
      "అంశాలు": 3882,
      "తోట": 3883,
      "క్రా": 3884,
      "హౌస్": 3885,
      "చేయబడుతుంది": 3886,
      "జాక్": 3887,
      "మిశ్రమ": 3888,
      "వ్యక్తుల": 3889,
      "తేలిక": 3890,
      "ఎదుర్": 3891,
      "ఆశ్చర్యపోతున్నాను": 3892,
      "##గ్రే": 3893,
      "పట్టించు": 3894,
      "##ెక్షన్": 3895,
      "నేల": 3896,
      "##ంలోకి": 3897,
      "ప్రస్తుతం": 3898,
      "వాడక": 3899,
      "ఆరోగ్యాన్ని": 3900,
      "ఫిర్యా": 3901,
      "అంతర్దృష్ట": 3902,
      "గదిలో": 3903,
      "వ్యాస": 3904,
      "బంధ": 3905,
      "##కార": 3906,
      "##పాత": 3907,
      "ప్రతిస్పందించ": 3908,
      "##ండె": 3909,
      "స్థల": 3910,
      "దిశ": 3911,
      "క్షమా": 3912,
      "అధిగమ": 3913,
      "నెమ్మదిగా": 3914,
      "##ించబడ": 3915,
      "పిలి": 3916,
      "తెలుసుకోవడానికి": 3917,
      "##ించదగిన": 3918,
      "నాట": 3919,
      "క్షీ": 3920,
      "సురక్షితమైన": 3921,
      "గృహ": 3922,
      "##యిత": 3923,
      "లేరు": 3924,
      "చూడలేదు": 3925,
      "సంప్రదించ": 3926,
      "##____": 3927,
      "సోమవారం": 3928,
      "##ణాత్మక": 3929,
      "లాంగ్వే": 3930,
      "ప్రత్యామ్నాయ": 3931,
      "కూర్": 3932,
      "జే": 3933,
      "##ాం": 3934,
      "గుర": 3935,
      "##నియోగం": 3936,
      "ఓపెన్": 3937,
      "##ించాయి": 3938,
      "వెర్": 3939,
      "ఎలక్ట్": 3940,
      "రచయిత": 3941,
      "ట్యా": 3942,
      "ఆరు": 3943,
      "ఇప్పుడే": 3944,
      "ఆధునిక": 3945,
      "దేని": 3946,
      "క్యూ": 3947,
      "డే": 3948,
      "పరిమి": 3949,
      "రిమోట్": 3950,
      "సిద్ధం": 3951,
      "తల": 3952,
      "డయాక్సైడ్": 3953,
      "పొదుపు": 3954,
      "అడవి": 3955,
      "కొద్దిగా": 3956,
      "దేశం": 3957,
      "].": 3958,
      "వయ": 3959,
      "##తాము": 3960,
      "##ెట్లు": 3961,
      "బహిరంగ": 3962,
      "మహ": 3963,
      "##మార్": 3964,
      "మార్పుల": 3965,
      "ఉన్నాయని": 3966,
      "స్థాప": 3967,
      "అత్యవసర": 3968,
      "శాస్త్రీయ": 3969,
      "##ాడా": 3970,
      "##భాగ": 3971,
      "##రుద్ధ": 3972,
      "202": 3973,
      "ఉడికించ": 3974,
      "క్షమాపణ": 3975,
      "ఈవ": 3976,
      "చీక": 3977,
      "##క్రో": 3978,
      "##టీరియ": 3979,
      "వెళ్లాలని": 3980,
      "సమీప": 3981,
      "ఇద్దరూ": 3982,
      "##రించే": 3983,
      "జన్యు": 3984,
      "##నూ": 3985,
      "కింద": 3986,
      "కొంతమంది": 3987,
      "పదార్థాలు": 3988,
      "విషయాలు": 3989,
      "ఇమేజ్": 3990,
      "చది": 3991,
      "##్యార": 3992,
      "చేరుకోవడానికి": 3993,
      "ధృవీకరించ": 3994,
      "##డవ": 3995,
      "విదేశ": 3996,
      "సంస్కృ": 3997,
      "గుండె": 3998,
      "ప్రయాణం": 3999,
      "##చూ": 4000,
      "అనిపిస్తుంది": 4001,
      "వ్యత్యాసం": 4002,
      "పిండి": 4003,
      "ఆహ్లా": 4004,
      "తినడం": 4005,
      "చదవడం": 4006,
      "##లైన": 4007,
      "చేసుకోండి": 4008,
      "మార్గదర్శ": 4009,
      "తెలిసిన": 4010,
      "తీవ్రంగా": 4011,
      "బలహీన": 4012,
      "మధ్యా": 4013,
      "##డమే": 4014,
      "లేవు": 4015,
      "##సులో": 4016,
      "తీసుకురావ": 4017,
      "ఇంటర్వ్యూ": 4018,
      "బార్": 4019,
      "##ించినప్పుడు": 4020,
      "లోపల": 4021,
      "పారిశ": 4022,
      "ఆహ్లాద": 4023,
      "##ాలనే": 4024,
      "పరికరాలు": 4025,
      "లేడు": 4026,
      "మాతో": 4027,
      "పనికి": 4028,
      "##గలవు": 4029,
      "కెన": 4030,
      "##కూడదని": 4031,
      "చిరునా": 4032,
      "చూపుతుంది": 4033,
      "ఈవెంట్": 4034,
      "వాణి": 4035,
      "##సిపీ": 4036,
      "ప్రతిపా": 4037,
      "##పెద్ద": 4038,
      "దృష్టిని": 4039,
      "ఇద్దరు": 4040,
      "సన్న": 4041,
      "##హ్య": 4042,
      "రోజులు": 4043,
      "అతనిని": 4044,
      "అతిపెద్ద": 4045,
      "సంభాష": 4046,
      "రక్షణ": 4047,
      "##కుంటే": 4048,
      "కార్యా": 4049,
      "చిత్రం": 4050,
      "సవాలు": 4051,
      "కార్యాచరణ": 4052,
      "##ెత్త": 4053,
      "వేసి": 4054,
      "తీయ": 4055,
      "సంరక్ష": 4056,
      "వర్గీకరణ": 4057,
      "పచ్చ": 4058,
      "ఇంటరాక్టివ్": 4059,
      "కీలకం": 4060,
      "ముగింపులో": 4061,
      "రసాయ": 4062,
      "##ింగ్": 4063,
      "మాది": 4064,
      "అవ్వ": 4065,
      "ధై": 4066,
      "##గర్": 4067,
      "కొలవ": 4068,
      "బృంద": 4069,
      "పరిణామ": 4070,
      "##లేడు": 4071,
      "తెలివిత": 4072,
      "##జు": 4073,
      "##విటీ": 4074,
      "కారును": 4075,
      "జిపి": 4076,
      "పర్వత": 4077,
      "చల్లగా": 4078,
      "ల్యా": 4079,
      "##ేర్": 4080,
      "##డుకు": 4081,
      "##టిల్": 4082,
      "వెళ": 4083,
      "##ించగలదు": 4084,
      "##పరిచే": 4085,
      "విస్తృతంగా": 4086,
      "సమగ్ర": 4087,
      "ఎక్కడికి": 4088,
      "ట్రి": 4089,
      "##యితే": 4090,
      "##పడుతున్నాను": 4091,
      "పాఠశాలకు": 4092,
      "సృష్టిస్తుంది": 4093,
      "సరే": 4094,
      "##ఖా": 4095,
      "నింప": 4096,
      "##పోయారు": 4097,
      "పద్ధతి": 4098,
      "అల్పాహారం": 4099,
      "##ధమిక": 4100,
      "ప్రాధమిక": 4101,
      "##ట్లయితే": 4102,
      "వ్యాప్తి": 4103,
      "చీకటి": 4104,
      "దిన": 4105,
      "సన్ని": 4106,
      "నేపథ": 4107,
      "రెసిపీ": 4108,
      "వ్యక్తీ": 4109,
      "##ాలంటే": 4110,
      "రిస్క్": 4111,
      "అందరికీ": 4112,
      "చిత్రాలు": 4113,
      "రియల్": 4114,
      "సరదా": 4115,
      "సూచనలు": 4116,
      "##కర్షణ": 4117,
      "చేయాల్సిన": 4118,
      "పనులు": 4119,
      "చొ": 4120,
      "##ౌంట్": 4121,
      "వస్తువులు": 4122,
      "భయపడ": 4123,
      "నిరంతర": 4124,
      "ప్రాముఖ్యతను": 4125,
      "అసాధారణ": 4126,
      "అంశం": 4127,
      "వృత్తి": 4128,
      "జుట్టు": 4129,
      "తల్లిదండ్రులు": 4130,
      "అలవాటు": 4131,
      "ఇంగ్లీ": 4132,
      "##గత": 4133,
      "విందు": 4134,
      "పొందడం": 4135,
      "##సేపు": 4136,
      "కార్యకలాపాలు": 4137,
      "సరళమైన": 4138,
      "ఉపరితల": 4139,
      "నడప": 4140,
      "వరుస": 4141,
      "లోతు": 4142,
      "మనస్సు": 4143,
      "దోష": 4144,
      "పెరుగుద": 4145,
      "అల్గారిథమ్స్": 4146,
      "ఆస్ట్రేలియాలో": 4147,
      "రాష్ట్ర": 4148,
      "చెప్పు": 4149,
      "##ద్దని": 4150,
      "మొక్కలు": 4151,
      "##ర్పు": 4152,
      "అంతటా": 4153,
      "మార్పులకు": 4154,
      "ఉనికి": 4155,
      "గూ": 4156,
      "##ైలు": 4157,
      "రూపకల్పన": 4158,
      "##కపోవచ్చు": 4159,
      "కాలి": 4160,
      "##పూ": 4161,
      "ప్రపంచాన్ని": 4162,
      "జపాన్": 4163,
      "రోజంతా": 4164,
      "హోమ్": 4165,
      "##క్టో": 4166,
      "##ప్తిని": 4167,
      "స్కో": 4168,
      "మరచి": 4169,
      "చేసాను": 4170,
      "పోల్చండి": 4171,
      "ఉందో": 4172,
      "గోప": 4173,
      "ఉపయోగం": 4174,
      "ప్రాప్యతను": 4175,
      "గుర్తుంచుకోండి": 4176,
      "క్రెడిట్": 4177,
      "ఆలి": 4178,
      "సమాచారంతో": 4179,
      "),": 4180,
      "గణా": 4181,
      "చేస్తున్నారు": 4182,
      "వాడ": 4183,
      "##షింగ్": 4184,
      "విలువను": 4185,
      "##తులలో": 4186,
      "పొడి": 4187,
      "మారవచ్చు": 4188,
      "ఫ్ల": 4189,
      "##మ్మి": 4190,
      "విన్నాను": 4191,
      "నైపుణ్యం": 4192,
      "పిలవ": 4193,
      "అంతరాయం": 4194,
      "##క్రిప్": 4195,
      "చెందింది": 4196,
      "తెలివైన": 4197,
      "విరామం": 4198,
      "ఉపాధ్య": 4199,
      "పారిశ్రామిక": 4200,
      "పది": 4201,
      "##టెక్": 4202,
      "గణిత": 4203,
      "ఖర్చులు": 4204,
      "##స్తున్నారా": 4205,
      "వెచ్చని": 4206,
      "గడు": 4207,
      "##కుగా": 4208,
      "రంగంలో": 4209,
      "ఫిర్యాదు": 4210,
      "##ల్టీ": 4211,
      "దొంగి": 4212,
      "##ర్డు": 4213,
      "విప": 4214,
      "మెరుగుదల": 4215,
      "అవును": 4216,
      "అరు": 4217,
      "జర్మ": 4218,
      "##భావం": 4219,
      "బోధ": 4220,
      "##ధిని": 4221,
      "ప్రొఫెషనల్": 4222,
      "ఎలక్ట్రిక్": 4223,
      "దొంగిల": 4224,
      "ఆకా": 4225,
      "##కులకు": 4226,
      "చెప్పే": 4227,
      "ఉన్నాడని": 4228,
      "వెతు": 4229,
      "దేశాలు": 4230,
      "విశ్లేషించడం": 4231,
      "##వం": 4232,
      "##్రాని": 4233,
      "మొత్తాన్ని": 4234,
      "ప్రారంభించడానికి": 4235,
      "లక్ష్యాలు": 4236,
      "ప్రభుత్వం": 4237,
      "లాంగ్వేజ్": 4238,
      "స్టార్": 4239,
      "అందంగా": 4240,
      "##పూర్వకంగా": 4241,
      "నిశ్శ": 4242,
      "##బోతున్నాను": 4243,
      "అవగాహనను": 4244,
      "కూరగాయలు": 4245,
      "##యింగ్": 4246,
      "##ాలోని": 4247,
      "ద్వేషి": 4248,
      "ఏక": 4249,
      "పుష్": 4250,
      "##యిర్": 4251,
      "నీలం": 4252,
      "మాదిరిగా": 4253,
      "హెల్": 4254,
      "ఒకరు": 4255,
      "ఎలాంటి": 4256,
      "పిల్లల": 4257,
      "కాల్చ": 4258,
      "ఎలక్ట్రాని": 4259,
      "ఇంజిన్": 4260,
      "##బోయే": 4261,
      "స్థాయిలను": 4262,
      "కనిపించే": 4263,
      "##స్కృతిక": 4264,
      "సదు": 4265,
      "##టికి": 4266,
      "కేక్": 4267,
      "చూసుకోండి": 4268,
      "డాలర్లు": 4269,
      "):": 4270,
      "బాల్": 4271,
      "##యూ": 4272,
      "కథను": 4273,
      "సౌకర్యవంతమైన": 4274,
      "జత": 4275,
      "##తులతో": 4276,
      "##ేటెడ్": 4277,
      "అబద్ధం": 4278,
      "##ఫికేషన్": 4279,
      "##ప్పై": 4280,
      "##జాతీయ": 4281,
      "కట్టుబడి": 4282,
      "సాంస్కృతిక": 4283,
      "నేర్చుకోవడం": 4284,
      "వ్యూహాలను": 4285,
      "ఎనర్": 4286,
      "నది": 4287,
      "##నైనా": 4288,
      "దూర": 4289,
      "కాలుష్య": 4290,
      "సెలవు": 4291,
      "స్వయంగా": 4292,
      "మధ్యాహ్నం": 4293,
      "వెన్న": 4294,
      "##తున్నాయి": 4295,
      "స్థిరంగా": 4296,
      "రోడ్": 4297,
      "మైక్రో": 4298,
      "నావిగేట్": 4299,
      "డ్ర": 4300,
      "దానికి": 4301,
      "ప్రియ": 4302,
      "సంఘర్షణ": 4303,
      "చూశాడు": 4304,
      "మొక్కల": 4305,
      "ప్రవర్తనను": 4306,
      "##టివిటీ": 4307,
      "ఉత్సాహ": 4308,
      "బ్లాగ్": 4309,
      "భారత": 4310,
      "తక్షణ": 4311,
      "ల్యాప్": 4312,
      "##పటి": 4313,
      "పెంపు": 4314,
      "మేనేజ్మెంట్": 4315,
      "ఎరుపు": 4316,
      "##రస": 4317,
      "##కన్నా": 4318,
      "##పిక్": 4319,
      "తీసుకువచ్చ": 4320,
      "నిర్మించడానికి": 4321,
      "అయినప్పటికీ": 4322,
      "ఆసు": 4323,
      "జె": 4324,
      "ఆనందించ": 4325,
      "కల్పిస్తుంది": 4326,
      "దుకాణ": 4327,
      "##ేయ": 4328,
      "పేపర్": 4329,
      "దారితీసింది": 4330,
      "##ప్రాంత": 4331,
      "చేతి": 4332,
      "పిల్లి": 4333,
      "సంకే": 4334,
      "అక్కడికి": 4335,
      "పక్క": 4336,
      "పండ్లు": 4337,
      "ఫేస్": 4338,
      "వాల": 4339,
      "##ఫేస్": 4340,
      "చనిపో": 4341,
      "ప్రస": 4342,
      "వ్యక్తిని": 4343,
      "విడిచిపెట్ట": 4344,
      "సరఫరా": 4345,
      "ఎనర్జీ": 4346,
      "##ందర": 4347,
      "ఇంటిని": 4348,
      "పెట్టడానికి": 4349,
      "విశ్లేషించడానికి": 4350,
      "##లేషన్": 4351,
      "మెటీరియ": 4352,
      "అందువల్ల": 4353,
      "##ఫాను": 4354,
      "##థా": 4355,
      "నిర్ధారణ": 4356,
      "తీసుకుంట": 4357,
      "పార్కు": 4358,
      "సహకారం": 4359,
      "కాలుష్యం": 4360,
      "బహుమతి": 4361,
      "మాట్లాడటానికి": 4362,
      "ఎంచుకోవడం": 4363,
      "లోగ": 4364,
      "##ప్ట": 4365,
      "##వారికి": 4366,
      "సంపాదించ": 4367,
      "ప్రియమైన": 4368,
      "##ైనర్": 4369,
      "సర్వే": 4370,
      "##పాడు": 4371,
      "##పానం": 4372,
      "##లిక్": 4373,
      "చేయాల్సి": 4374,
      "స్ట్": 4375,
      "తెరవ": 4376,
      "అంతే": 4377,
      "వినో": 4378,
      "పునరుద్ధ": 4379,
      "చిత్రాన్ని": 4380,
      "సమూహం": 4381,
      "చురుకుగా": 4382,
      "బట్ట": 4383,
      "సాయ": 4384,
      "చేయబడతాయి": 4385,
      "ముప్పై": 4386,
      "##ద్యోగ": 4387,
      "కింది": 4388,
      "##వన": 4389,
      "##టార్": 4390,
      "ప్రోత్సహించండి": 4391,
      "వ్యతిరేకంగా": 4392,
      "పాదముద్ర": 4393,
      "సదుపాయ": 4394,
      "వైన్": 4395,
      "చెప్పడానికి": 4396,
      "డాక్యుమెంట్": 4397,
      "క్వా": 4398,
      "నూ": 4399,
      "##తనం": 4400,
      "విసి": 4401,
      "సంభవ": 4402,
      "వాడకాన్ని": 4403,
      "తీర్చ": 4404,
      "స్వీకరించ": 4405,
      "నొప్పి": 4406,
      "థీ": 4407,
      "నిర్దేశ": 4408,
      "ఇక్కడకు": 4409,
      "నివేదిక": 4410,
      "దెబ్బ": 4411,
      "గురువు": 4412,
      "అసమాన": 4413,
      "జూ": 4414,
      "##కల్": 4415,
      "##రీలు": 4416,
      "కావలసిన": 4417,
      "##ందాడు": 4418,
      "ఇన్పుట్": 4419,
      "అలం": 4420,
      "విచ్ఛిన్నం": 4421,
      "మ్యూజి": 4422,
      "రకం": 4423,
      "##వృ": 4424,
      "##ళి": 4425,
      "##అవు": 4426,
      "##విద్య": 4427,
      "మేల్": 4428,
      "పురా": 4429,
      "పార్క్": 4430,
      "క్రీడ": 4431,
      "##తున్నారా": 4432,
      "##మైతే": 4433,
      "##ొకరు": 4434,
      "సైకిల్": 4435,
      "తినడానికి": 4436,
      "హానికరమైన": 4437,
      "మహమ్మా": 4438,
      "ఆమో": 4439,
      "##ించగలవు": 4440,
      "పదబంధ": 4441,
      "000": 4442,
      "##టమ్": 4443,
      "కాంట": 4444,
      "కెరీ": 4445,
      "ధూమ": 4446,
      "అదృష్ట": 4447,
      "ఆక్సి": 4448,
      "తరిగిన": 4449,
      "శతా": 4450,
      "సాగ": 4451,
      "ప్రతిరోజ": 4452,
      "పవర్": 4453,
      "సూర్యు": 4454,
      "ప్రతిరోజూ": 4455,
      "అప్పుడు": 4456,
      "##లాండ్": 4457,
      "పువ్వ": 4458,
      "పుట్టిన": 4459,
      "తుఫాను": 4460,
      "మౌలిక": 4461,
      "కావడం": 4462,
      "అంతర్జాతీయ": 4463,
      "టర్": 4464,
      "##్వి": 4465,
      "##ంటున్న": 4466,
      "వ్యవసాయ": 4467,
      "కారణాలు": 4468,
      "లోగో": 4469,
      "ఫ్రీ": 4470,
      "ఫ్లో": 4471,
      "మంట": 4472,
      "విరుద్ధ": 4473,
      "లేకపోవడం": 4474,
      "క్లిక్": 4475,
      "ఇంగ్లీష్": 4476,
      "కెరీర్": 4477,
      "వడ్డ": 4478,
      "##హౌస్": 4479,
      "మిరియ": 4480,
      "పరిస్థితులు": 4481,
      "రికార్డు": 4482,
      "గోడ": 4483,
      "ఉంటాను": 4484,
      "సులభమైన": 4485,
      "పెరుగుతుంది": 4486,
      "పిల్లలను": 4487,
      "పెట్టడం": 4488,
      "మార్చడం": 4489,
      "సెర్చ్": 4490,
      "##శైలి": 4491,
      "##ల్లీ": 4492,
      "సంబంధాన్ని": 4493,
      "పరమాణ": 4494,
      "అనారోగ్యంతో": 4495,
      "ఆవా": 4496,
      "ట్యూ": 4497,
      "ఫార": 4498,
      "##ీప": 4499,
      "##గం": 4500,
      "ప్రక్రియలో": 4501,
      "సందేశాన్ని": 4502,
      "చెల్లింపు": 4503,
      "నవల": 4504,
      "వింత": 4505,
      "##దారులు": 4506,
      "##ించని": 4507,
      "పైకి": 4508,
      "##దను": 4509,
      "##నొకరు": 4510,
      "##ండో": 4511,
      "ఒకరినొకరు": 4512,
      "కోర్సు": 4513,
      "##లేము": 4514,
      "మును": 4515,
      "దినచర్య": 4516,
      "ఆపై": 4517,
      "ఎలి": 4518,
      "##నలను": 4519,
      "##ారణ": 4520,
      "ఒకదాని": 4521,
      "సంక్షిప్త": 4522,
      "పైన": 4523,
      "##ందాం": 4524,
      "##టాప్": 4525,
      "ప్రసిద్ధి": 4526,
      "చేయవలసిన": 4527,
      "మరె": 4528,
      "ఇంటర్ఫేస్": 4529,
      "జీవనశైలి": 4530,
      "డెస్": 4531,
      "వహి": 4532,
      "ప్రదేశం": 4533,
      "##ంద్రీ": 4534,
      "ఉన్నట్లు": 4535,
      "చూసిన": 4536,
      "##టీన్": 4537,
      "డిస్క": 4538,
      "వస్తువుల": 4539,
      "వాయిస్": 4540,
      "##శక్తి": 4541,
      "##లైట్": 4542,
      "##క్టర్": 4543,
      "నాన్న": 4544,
      "##గలరు": 4545,
      "ప్రజలకు": 4546,
      "##పూర్ణ": 4547,
      "సంక్షిప్తీకరించ": 4548,
      "ప్రవాహ": 4549,
      "##పచ్చ": 4550,
      "##్రయ": 4551,
      "ముఖ్యమైనది": 4552,
      "సైబర్": 4553,
      "ఆకుపచ్చ": 4554,
      "ఛార్": 4555,
      "జల": 4556,
      "పంట": 4557,
      "రచన": 4558,
      "##రిన": 4559,
      "సంప": 4560,
      "బ్యాటరీ": 4561,
      "కౌ": 4562,
      "##గది": 4563,
      "చూస్తున్నాను": 4564,
      "కిరణ": 4565,
      "100": 4566,
      "ఎం": 4567,
      "##ోమ": 4568,
      "ముడి": 4569,
      "తెలియదా": 4570,
      "సేకరణ": 4571,
      "వ్యాపారాన్ని": 4572,
      "బ్రి": 4573,
      "సాధనం": 4574,
      "నష్టం": 4575,
      "ధ్య": 4576,
      "##చో": 4577,
      "##ాయితీ": 4578,
      "##రేజ్": 4579,
      "వాగ్దానం": 4580,
      "చర్చి": 4581,
      "నిలుపు": 4582,
      "నిర్వహించండి": 4583,
      "జున్ను": 4584,
      "తక్కువగా": 4585,
      "సృజనాత్మకత": 4586,
      "టోపీ": 4587,
      "తీసుకెళ్ల": 4588,
      "దక్షి": 4589,
      "##ఫు": 4590,
      "చెప్పడం": 4591,
      "ఉద్దేశ్యం": 4592,
      "పదం": 4593,
      "##వద్దని": 4594,
      "##ర్ణ": 4595,
      "##ప్స్": 4596,
      "##చ్ఛిక": 4597,
      "విద్యార్థులకు": 4598,
      "అంతర్దృష్టులను": 4599,
      "ధూమపానం": 4600,
      "##చె": 4601,
      "##సలు": 4602,
      "ఆకట్టు": 4603,
      "కనిపిస్తుంది": 4604,
      "పెయింటింగ్": 4605,
      "డ్రా": 4606,
      "##ేజ": 4607,
      "##ించాల్సిన": 4608,
      "పడుతుంది": 4609,
      "మనుగ": 4610,
      "##మంతా": 4611,
      "##కెట్": 4612,
      "ఉదాహరణలు": 4613,
      "ఇష్టపడలేదు": 4614,
      "జోడించండి": 4615,
      "##పేక్ష": 4616,
      "మనుగడ": 4617,
      "రూపొందించడానికి": 4618,
      "##లాక్": 4619,
      "##ావు": 4620,
      "పోలి": 4621,
      "ప్రజల": 4622,
      "బిల్లు": 4623,
      "సాయంత్రం": 4624,
      "మహమ్మారి": 4625,
      "ర్యా": 4626,
      "వర్డ్": 4627,
      "జంతువులు": 4628,
      "సంప్రదాయ": 4629,
      "అనువర్తనం": 4630,
      "##స్తున్నాయి": 4631,
      "సరిపోయే": 4632,
      "సూర్యుడు": 4633,
      "చీ": 4634,
      "సంస్క": 4635,
      "ముద్దు": 4636,
      "పరిమిత": 4637,
      "##యింట్": 4638,
      "అభిప్రాయం": 4639,
      "ఇతి": 4640,
      "ఇతరులతో": 4641,
      "అంగీకరి": 4642,
      "కండ": 4643,
      "ప్రారంభించాడు": 4644,
      "సంఘట": 4645,
      "గడియ": 4646,
      "ఆసుపత్రి": 4647,
      "ఫ్రెండ్": 4648,
      "ఇష్టపడతాడు": 4649,
      "ఇవన్నీ": 4650,
      "కవి": 4651,
      "##ర్ధ": 4652,
      "మారింది": 4653,
      "##అవుట్": 4654,
      "##ర్ని": 4655,
      "##రుగా": 4656,
      "##వులను": 4657,
      "పోయ": 4658,
      "బలంగా": 4659,
      "నమ్మదగిన": 4660,
      "చిత్రాలను": 4661,
      "##మ్య": 4662,
      "##తె": 4663,
      "సూపర్": 4664,
      "ప్రపంచంలోని": 4665,
      "లైబ్ర": 4666,
      "మృ": 4667,
      "పరిస్థితులను": 4668,
      "మార్చడానికి": 4669,
      "మందు": 4670,
      "ఉంటుందని": 4671,
      "బలం": 4672,
      "పెంపుడు": 4673,
      "షి": 4674,
      "##గానికి": 4675,
      "ఒకప్పుడు": 4676,
      "చూపి": 4677,
      "##కొక": 4678,
      "నాణ్యతను": 4679,
      "ఆపరే": 4680,
      "ప్రభుత్వాలు": 4681,
      "మూసివేయ": 4682,
      "డేట్": 4683,
      "నమో": 4684,
      "స్న": 4685,
      "##పరంగా": 4686,
      "##విధంగా": 4687,
      "క్వాంట": 4688,
      "ఏకా": 4689,
      "కన్": 4690,
      "క్యార": 4691,
      "వంత": 4692,
      "##చారం": 4693,
      "##సాడు": 4694,
      "##ాయ్": 4695,
      "వెళ్లా": 4696,
      "వృద్ధ": 4697,
      "చల్లని": 4698,
      "వెతుకు": 4699,
      "అయి": 4700,
      "ఎత్త": 4701,
      "ఉన్నానని": 4702,
      "సౌకర్యవంతంగా": 4703,
      "అడ్డం": 4704,
      "##ీకరణ": 4705,
      "కొన్నాడు": 4706,
      "తెల్ల": 4707,
      "##కున్నది": 4708,
      "వివరణాత్మక": 4709,
      "ప్యాకే": 4710,
      "బూట్లు": 4711,
      "##లేదా": 4712,
      "మార్పి": 4713,
      "వేరే": 4714,
      "కుమార్": 4715,
      "వ్యక్తులను": 4716,
      "ఉద్యోగి": 4717,
      "పరంగా": 4718,
      "పౌరు": 4719,
      "సంస్కృతి": 4720,
      "##్యమైన": 4721,
      "ఉన్నాయా": 4722,
      "పాన్": 4723,
      "స్థలం": 4724,
      "నిజాయితీ": 4725,
      "ఉత్తేజ": 4726,
      "##కాలో": 4727,
      "కారకాల": 4728,
      "హైడ": 4729,
      "సేవల": 4730,
      "జరుగుతుందో": 4731,
      "జ్ఞానం": 4732,
      "నక్ష": 4733,
      "పత్ర": 4734,
      "##ందరికీ": 4735,
      "ప్రాచు": 4736,
      "##పాటి": 4737,
      "బిందు": 4738,
      "##కుంటున్నారో": 4739,
      "భవిష్యత్తులో": 4740,
      "నిశ్శబ్ద": 4741,
      "కుమార్తె": 4742,
      "అగ్ని": 4743,
      "బది": 4744,
      "##నానికి": 4745,
      "తీసి": 4746,
      "కాలుష్యాన్ని": 4747,
      "పోలీసు": 4748,
      "బదిలీ": 4749,
      "##టప్": 4750,
      "##ట్టె": 4751,
      "వివరించడానికి": 4752,
      "అవకాశాన్ని": 4753,
      "డెస్క్": 4754,
      "లేను": 4755,
      "స్టేషన్": 4756,
      "వెళ్ళడానికి": 4757,
      "##వలై": 4758,
      "పెట్టుబడు": 4759,
      "గుడ్లు": 4760,
      "వేరియబుల్స్": 4761,
      "ఐస్": 4762,
      "ధన": 4763,
      "రద్దీ": 4764,
      "##ృతం": 4765,
      "తీసుకోవాలి": 4766,
      "అన్వేషణ": 4767,
      "గెలు": 4768,
      "గై": 4769,
      "##కను": 4770,
      "మీరే": 4771,
      "ఇష్టపడను": 4772,
      "శీతా": 4773,
      "పెంపొందించడానికి": 4774,
      "##ంపజే": 4775,
      "ఖర్చుతో": 4776,
      "సౌలభ": 4777,
      "పరిష్కారాన్ని": 4778,
      "మెద": 4779,
      "రిఫ": 4780,
      "ఆర్కి": 4781,
      "సర్వర్": 4782,
      "ఆకర్షణీయంగా": 4783,
      "కార్యకలాపాల": 4784,
      "నడిప": 4785,
      "పునరావృత": 4786,
      "గరి": 4787,
      "##జిన": 4788,
      "శరీరం": 4789,
      "##స్టు": 4790,
      "సంభవి": 4791,
      "మిగిలిన": 4792,
      "క్వాంటమ్": 4793,
      "ఎండ": 4794,
      "డా": 4795,
      "మరికొ": 4796,
      "ఒక్కరూ": 4797,
      "నక్షత్ర": 4798,
      "భు": 4799,
      "##కత్వం": 4800,
      "చూసి": 4801,
      "పిక్": 4802,
      "పదార్ధ": 4803,
      "నవ్వు": 4804,
      "##మను": 4805,
      "##ానా": 4806,
      "ప్రయోజనాల": 4807,
      "భాషను": 4808,
      "అక్టో": 4809,
      "నిఘ": 4810,
      "నారి": 4811,
      "##సియ": 4812,
      "సిబ్బంది": 4813,
      "ప్ల": 4814,
      "లింక్": 4815,
      "మూడవ": 4816,
      "##వృత్త": 4817,
      "##లవా": 4818,
      "##ించాలను": 4819,
      "నారింజ": 4820,
      "సెన్": 4821,
      "##కాయ": 4822,
      "##ల్లం": 4823,
      "వాడకం": 4824,
      "ప్రాచుర్యం": 4825,
      "ఐటమ్": 4826,
      "పానీ": 4827,
      "##సాలు": 4828,
      "చేపలు": 4829,
      "ఫార్మా": 4830,
      "ఆహ్వానించ": 4831,
      "పాదముద్రను": 4832,
      "మునుపటి": 4833,
      "ఎగు": 4834,
      "బ్రె": 4835,
      "మదింపు": 4836,
      "##చ్చి": 4837,
      "సేవను": 4838,
      "##పడింది": 4839,
      "కొద్దీ": 4840,
      "కార్మి": 4841,
      "అనుమతిస్తాయి": 4842,
      "సేవలు": 4843,
      "లోపలికి": 4844,
      "పోలీసులు": 4845,
      "విప్లవా": 4846,
      "గ్లా": 4847,
      "##రిటీ": 4848,
      "##ంటినీ": 4849,
      "తీసుకో": 4850,
      "లక్ష్యాన్ని": 4851,
      "న్యూయ": 4852,
      "##మన్": 4853,
      "చేర": 4854,
      "##టిస్": 4855,
      "ప్రజలను": 4856,
      "ఎంపికలను": 4857,
      "ప్రశ్నకు": 4858,
      "అధ్యక్ష": 4859,
      "విప్లవాత్మక": 4860,
      "కవర్": 4861,
      "##లుసు": 4862,
      "##కోవాలని": 4863,
      "##గలడు": 4864,
      "పూర్త": 4865,
      "మృదు": 4866,
      "నమోదు": 4867,
      "న్యూయార్క్": 4868,
      "సార": 4869,
      "##మరీ": 4870,
      "##జె": 4871,
      "నిరు": 4872,
      "పరిస్థితిని": 4873,
      "ప్రాంతాలను": 4874,
      "200": 4875,
      "వ్యాయామ": 4876,
      "ఉత్పాదకత": 4877,
      "##లేకపోయాడు": 4878,
      "##వరకు": 4879,
      "##తురస": 4880,
      "ప్రమో": 4881,
      "##మర్స్": 4882,
      "బర్": 4883,
      "గ్రహం": 4884,
      "భావిస్తున్నాను": 4885,
      "తెరిచి": 4886,
      "హాజరు": 4887,
      "హెల్త్": 4888,
      "##జిల్": 4889,
      "టాపిక్": 4890,
      "శోధన": 4891,
      "11": 4892,
      "వస": 4893,
      "##రిక్ష": 4894,
      "అంతరిక్ష": 4895,
      "శుభ్రం": 4896,
      "స్క్రీన్": 4897,
      "పరిమాణాన్ని": 4898,
      "పారదర్శ": 4899,
      "ఎర్": 4900,
      "టెస్": 4901,
      "మ్యాప్": 4902,
      "##ీకరించడానికి": 4903,
      "అవసరాన్ని": 4904,
      "##బడ్డాడు": 4905,
      "వ్యాపారాలకు": 4906,
      "అవకాశాలు": 4907,
      "వార్తా": 4908,
      "కెమెరా": 4909,
      "ఫ్రే": 4910,
      "విక్ర": 4911,
      "కొడుకు": 4912,
      "వ్యక్తికి": 4913,
      "##గ్రహ": 4914,
      "డ్రైవర్": 4915,
      "నియంత్రించ": 4916,
      "క్షీణ": 4917,
      "అడి": 4918,
      "కళ్ళు": 4919,
      "##చర్లు": 4920,
      "తీసుకొని": 4921,
      "యుఎస్": 4922,
      "ఆదాయం": 4923,
      "పరిష్కారాలను": 4924,
      "మంచం": 4925,
      "నంబర్": 4926,
      "##తతో": 4927,
      "##డంతో": 4928,
      "స్పె": 4929,
      "మార్గంలో": 4930,
      "గ్రి": 4931,
      "డౌన్": 4932,
      "##పడే": 4933,
      "రాబోయే": 4934,
      "వచ్చి": 4935,
      "అనుభవాలను": 4936,
      "లైబ్రరీ": 4937,
      "##ించబడతాయి": 4938,
      "అనుసం": 4939,
      "చెప్పగలరా": 4940,
      "ఆసక్తికరమైన": 4941,
      "బేకింగ్": 4942,
      "##బాల్": 4943,
      "చెట్లు": 4944,
      "అధికంగా": 4945,
      "సిద్ధాంతం": 4946,
      "అక్టోబర్": 4947,
      "అబ్బ": 4948,
      "##హార": 4949,
      "చేతులు": 4950,
      "చేయాలనుకుంటున్నాను": 4951,
      "##మాణాత్మక": 4952,
      "అలాంటి": 4953,
      "ఉపయోగిస్తాయి": 4954,
      "యాదృ": 4955,
      "అనలి": 4956,
      "##చిత్ర": 4957,
      "##బెట్ట": 4958,
      "అటవీ": 4959,
      "శబ్దం": 4960,
      "సెక్": 4961,
      "##విడ్": 4962,
      "ప్రామాణ": 4963,
      "సమయానికి": 4964,
      "పరిష్కరించడం": 4965,
      "##క్యూ": 4966,
      "ప్రమాదకరమైన": 4967,
      "పునర్వి": 4968,
      "##పెట్టి": 4969,
      "చేస్తున్నాడు": 4970,
      "ఉద్యోగులు": 4971,
      "వేగం": 4972,
      "మేనేజర్": 4973,
      "##గ్నిషన్": 4974,
      "గూగు": 4975,
      "మాని": 4976,
      "##న్నిస్": 4977,
      "వైరస్": 4978,
      "పనిచేస్తాయి": 4979,
      "శాంతి": 4980,
      "చుట్టు": 4981,
      "ప్రయత్నించాడు": 4982,
      "డైన": 4983,
      "వాయ": 4984,
      "ప్రశం": 4985,
      "##ప్లే": 4986,
      "ప్రశ్నలకు": 4987,
      "వ్యర్థాల": 4988,
      "గ్రీన్హౌస్": 4989,
      "సాధ్యమైన": 4990,
      "దగ్గరగా": 4991,
      "స్ట్రింగ్": 4992,
      "ఆపరేటింగ్": 4993,
      "మెదడు": 4994,
      "##్వేర్": 4995,
      "తీసుకున్న": 4996,
      "దేశాల": 4997,
      "క్యాన్": 4998,
      "బ్రౌ": 4999,
      "మర్చిపో": 5000,
      "అద్దె": 5001,
      "వ్యక్తీకరణ": 5002,
      "గూగుల్": 5003,
      "##శీల": 5004,
      "చేయబో": 5005,
      "తీసుకోవచ్చు": 5006,
      "బాహ్య": 5007,
      "##పాతం": 5008,
      "##జాన్": 5009,
      "విషయాలను": 5010,
      "స్టోరేజ్": 5011,
      "ముక్కలు": 5012,
      "##రోజు": 5013,
      "స్థలాన్ని": 5014,
      "ప్రచు": 5015,
      "విన్న": 5016,
      "వెళ్తాను": 5017,
      "##హాస": 5018,
      "ల్యాండ్": 5019,
      "##శ్వ": 5020,
      "##టమి": 5021,
      "రికగ్నిషన్": 5022,
      "బొమ్మ": 5023,
      "చో": 5024,
      "వచ్చాను": 5025,
      "నిర్ధారించుకోవడానికి": 5026,
      "ఆహ్లాదకరమైన": 5027,
      "ఆమ్": 5028,
      "సేల్స్": 5029,
      "##రినీ": 5030,
      "##ద్ది": 5031,
      "##టీస్": 5032,
      "##టర్లు": 5033,
      "రంగులు": 5034,
      "##జ్ఞా": 5035,
      "అనుసరించడం": 5036,
      "##ర్ల": 5037,
      "##ార్కి": 5038,
      "చెత్త": 5039,
      "కోరిక": 5040,
      "##వేట్": 5041,
      "పెట్టె": 5042,
      "సమానంగా": 5043,
      "జిపిటి": 5044,
      "విమర్": 5045,
      "నాన్": 5046,
      "##ంద్రీయ": 5047,
      "##బ్లిక్": 5048,
      "వైశాల": 5049,
      "సేంద్రీయ": 5050,
      "టెన్నిస్": 5051,
      "ఇతివృత్త": 5052,
      "కది": 5053,
      "స్పేస్": 5054,
      "వ్యక్తులకు": 5055,
      "చిరునామా": 5056,
      "##నిషి": 5057,
      "పైగా": 5058,
      "పాత్రలు": 5059,
      "17": 5060,
      "తరంగ": 5061,
      "##కాని": 5062,
      "వంటివి": 5063,
      "స్వత": 5064,
      "టీస్ప": 5065,
      "డిస్కౌంట్": 5066,
      ";.": 5067,
      "షే": 5068,
      "సమ్మ": 5069,
      "##న్నాడని": 5070,
      "వేదిక": 5071,
      "##ఫిక్స్": 5072,
      "ఫిల్": 5073,
      "ప్రాంతాలలో": 5074,
      "అంచు": 5075,
      "నేర్ప": 5076,
      "నేరుగా": 5077,
      "తిరుగు": 5078,
      "బిగ్": 5079,
      "పద్ధతుల": 5080,
      "ఫీచర్లు": 5081,
      "హైలైట్": 5082,
      "క్యాంప": 5083,
      "సూచనలను": 5084,
      "అబ్బాయి": 5085,
      "చైనా": 5086,
      "అవసరాలకు": 5087,
      "ప్రోత్సాహ": 5088,
      "##స్తున్నారని": 5089,
      "ఫ్రేమ్": 5090,
      "25": 5091,
      "సాపేక్ష": 5092,
      "ప్రత్యక్ష": 5093,
      "పరికరాలను": 5094,
      "అనుసరించ": 5095,
      "సినిమ": 5096,
      "రీసైకిల్": 5097,
      "కొనసాగు": 5098,
      "అభిరుచి": 5099,
      "మనిషి": 5100,
      "##ఫై": 5101,
      "సాక్ష": 5102,
      "##శాను": 5103,
      "ప్రచార": 5104,
      "కార్లు": 5105,
      "##జీవ": 5106,
      "పిల్లలకు": 5107,
      "వాస్తవి": 5108,
      "ఆనంద": 5109,
      "విజువలై": 5110,
      "రాలేదు": 5111,
      "పురాతన": 5112,
      "ధ్యానం": 5113,
      "చేయలేను": 5114,
      "##వారి": 5115,
      "అభివృద్ధికి": 5116,
      "అనిపించింది": 5117,
      "చురుకైన": 5118,
      "చికెన్": 5119,
      "##డే": 5120,
      "##ించాలో": 5121,
      "##ంతర": 5122,
      "స్వతంత్ర": 5123,
      "గట్టి": 5124,
      "పగ": 5125,
      "చేయకుండా": 5126,
      "పరిగణించండి": 5127,
      "విస్తృతమైన": 5128,
      "రొట్టె": 5129,
      "విమర్శ": 5130,
      "##డె": 5131,
      "డిస్": 5132,
      "క్లాసి": 5133,
      "##మిన": 5134,
      "##టాన్ని": 5135,
      "##్యాంక": 5136,
      "సాధనాలు": 5137,
      "కారులో": 5138,
      "మూల్యాంక": 5139,
      "భర్తీ": 5140,
      "రసాయన": 5141,
      "భా": 5142,
      "##క్రమ": 5143,
      "నిధ": 5144,
      "వెలు": 5145,
      "వర్తి": 5146,
      "మాట్లాడే": 5147,
      "రేటింగ్": 5148,
      "మీడియ": 5149,
      "##కప్": 5150,
      "స్వాగ": 5151,
      "క్రింద": 5152,
      "గదిని": 5153,
      "నివారించ": 5154,
      "నివసించే": 5155,
      "ఆచరణ": 5156,
      "వాటర్": 5157,
      "స్ట్రీ": 5158,
      "వ్యవస్థల": 5159,
      "మార్కెట్లో": 5160,
      "మూడే": 5161,
      "ఆటోమేషన్": 5162,
      "ఆకలితో": 5163,
      "జరిగిన": 5164,
      "##దంతా": 5165,
      "చెడు": 5166,
      "వ్యాఖ్య": 5167,
      "వర్ణ": 5168,
      "అణు": 5169,
      "మేల్కొ": 5170,
      "ట్రై": 5171,
      "##స్టింగ్": 5172,
      "చేస్తున్నా": 5173,
      "##ాలనుకుంటు": 5174,
      "చెక్": 5175,
      "పిచ్చి": 5176,
      "విజయాన్ని": 5177,
      "##రశ్": 5178,
      "##దుగా": 5179,
      "##డ్స్": 5180,
      "వచ్చినప్పుడు": 5181,
      "హోటల్": 5182,
      "సూర్యరశ్": 5183,
      "జనాభ": 5184,
      "సూర్యరశ్మి": 5185,
      "డో": 5186,
      "పాల్గొనే": 5187,
      "సోదరి": 5188,
      "క్లిష్టమైన": 5189,
      "అర్హ": 5190,
      "ధైర్య": 5191,
      "తెలివితక్కువ": 5192,
      "వన్య": 5193,
      "##ఎం": 5194,
      "##స్టా": 5195,
      "ఉపయోగించిన": 5196,
      "చేసారు": 5197,
      "వన్యప్రా": 5198,
      "లతో": 5199,
      "##వలి": 5200,
      "ముని": 5201,
      "సృష్టించవచ్చు": 5202,
      "ప్రిడి": 5203,
      "##నివ్వండి": 5204,
      "యజమాను": 5205,
      "సంఘటనలు": 5206,
      "##రద": 5207,
      "##న్సి": 5208,
      "##క్వ": 5209,
      "##మ్స్": 5210,
      "##ళ్లి": 5211,
      "జప": 5212,
      "##తల": 5213,
      "సాస్": 5214,
      "కుడి": 5215,
      "దృఢ": 5216,
      "సాధనాలను": 5217,
      "అడ్వ": 5218,
      "బృందం": 5219,
      "##టే": 5220,
      "ఆసక్": 5221,
      "భద్రతను": 5222,
      "రంగాలలో": 5223,
      "##హద్దు": 5224,
      "విక": 5225,
      "మేఘ": 5226,
      "ముగ్గు": 5227,
      "సరిహద్దు": 5228,
      "అమెజాన్": 5229,
      "మారుతున్న": 5230,
      "మార్పిడి": 5231,
      "ఎదుగు": 5232,
      "##వచ్చని": 5233,
      "ప్రామాణిక": 5234,
      "నాకన్నా": 5235,
      "చెప్పాలి": 5236,
      "భావాలను": 5237,
      "అధికారి": 5238,
      "ఆలోచనను": 5239,
      "ఉల్లి": 5240,
      "కంటి": 5241,
      "టు": 5242,
      "##డగ": 5243,
      "##గాడు": 5244,
      "స్థాయిలో": 5245,
      "##యాన్ని": 5246,
      "మెమరీ": 5247,
      "విధానాలు": 5248,
      "ఇచ్చే": 5249,
      "వ్యూహాన్ని": 5250,
      "జంతువుల": 5251,
      "హెచ్చ": 5252,
      "లకు": 5253,
      "అభిన": 5254,
      "ఇతరుల": 5255,
      "హెచ్": 5256,
      "ఓటు": 5257,
      "ముగ": 5258,
      "##షన్లు": 5259,
      "50": 5260,
      "దర": 5261,
      "##లిన్": 5262,
      "డీప్": 5263,
      "ఎడమ": 5264,
      "##ఖాస్తు": 5265,
      "దరఖాస్తు": 5266,
      "పవన": 5267,
      "వర్త": 5268,
      "##దీయ": 5269,
      "కొండ": 5270,
      "వెలికి": 5271,
      "రివ": 5272,
      "ఖచ్చితత్వం": 5273,
      "ఉత్తర": 5274,
      "నిండిన": 5275,
      "ఉత్పాదకతను": 5276,
      "వేరియబుల్": 5277,
      "ఆస్": 5278,
      "##కూర": 5279,
      "సహకార": 5280,
      "పాస్వర్డ్": 5281,
      "పోషిస్తుంది": 5282,
      "జర్మనీ": 5283,
      "ఎయిర్": 5284,
      "##్వని": 5285,
      "##కోవటానికి": 5286,
      "##చేయ": 5287,
      "జాతి": 5288,
      "##శాస్త్రం": 5289,
      "పుష్కల": 5290,
      "ఓడ": 5291,
      "తాము": 5292,
      "అనుకున్నాడు": 5293,
      "వేయండి": 5294,
      "వాణిజ్య": 5295,
      "మునిగి": 5296,
      "మల్టీ": 5297,
      "హెడ్": 5298,
      "##్యాన": 5299,
      "తింట": 5300,
      "ప్రాంతం": 5301,
      "వెళ్లడం": 5302,
      "కలిగించే": 5303,
      "చదివ": 5304,
      "చేసుకున్న": 5305,
      "పరికరం": 5306,
      "క్రమబద్ధీకరించ": 5307,
      "కోపంగా": 5308,
      "ఫిట్నెస్": 5309,
      "గిన్న": 5310,
      "##కున్నాము": 5311,
      "కార్యాలయ": 5312,
      "లాంటి": 5313,
      "విలువలు": 5314,
      "కంప్యూటర్లు": 5315,
      "అంతర్గత": 5316,
      "ఆనందం": 5317,
      "సరదాగా": 5318,
      "పడ్డ": 5319,
      "##స్కా": 5320,
      "నిర్మాణాత్మక": 5321,
      "ప్రాక్": 5322,
      "నిర్ణయించండి": 5323,
      "దశల": 5324,
      "తప్పించు": 5325,
      "ఆడటం": 5326,
      "సేకరించడం": 5327,
      "24": 5328,
      "##ిస్తాయి": 5329,
      "ద్వీప": 5330,
      "##మ్మడి": 5331,
      "##నీస్": 5332,
      "తాగు": 5333,
      "విద్యార్థుల": 5334,
      "##భూతిని": 5335,
      "నియంత్రించడానికి": 5336,
      "శ్రేయస్సును": 5337,
      "సారూప": 5338,
      "చక్ర": 5339,
      "లూ": 5340,
      "##రెన్స్": 5341,
      "##ాలనుకుంటున్నారు": 5342,
      "చిహ్": 5343,
      "ఇవ్వబడింది": 5344,
      "క్రమంలో": 5345,
      "ఇట": 5346,
      "జన్": 5347,
      "##ేశం": 5348,
      "##రుష": 5349,
      "ఆకార": 5350,
      "కలవ": 5351,
      "ఉల్లిపాయ": 5352,
      "టమో": 5353,
      "మంద": 5354,
      "తీసుకున్నాడు": 5355,
      "శాశ్వ": 5356,
      "సందేశం": 5357,
      "పెడుతుంది": 5358,
      "##ారాంత": 5359,
      "ఉపకరణ": 5360,
      "వ్యవస్థలో": 5361,
      "గంటల": 5362,
      "విక్రయ": 5363,
      "వన్యప్రాణ": 5364,
      "గిన్నె": 5365,
      "##కృత": 5366,
      "##ించదు": 5367,
      "తగ్గించే": 5368,
      "కనుగొన్న": 5369,
      "సమాజం": 5370,
      "గర్వ": 5371,
      "చాక్": 5372,
      "వశ": 5373,
      "క్రియ": 5374,
      "చేసుకున్నాడు": 5375,
      "నిర్ణయించడానికి": 5376,
      "విలువలను": 5377,
      "వర్గీకరించండి": 5378,
      "ఇటీవలి": 5379,
      "ప్రైవేట్": 5380,
      "##ీట్": 5381,
      "##వాదం": 5382,
      "పనిలో": 5383,
      "కార్డ్": 5384,
      "స్ట్ర": 5385,
      "ఉద్యోగుల": 5386,
      "వైవిధ్యమైన": 5387,
      "స్నేహపూర్వక": 5388,
      "##ల్లంఘ": 5389,
      "మట్ట": 5390,
      "వారాంత": 5391,
      "సంకల్ప": 5392,
      "గ్యా": 5393,
      "తృ": 5394,
      "##శారు": 5395,
      "గురు": 5396,
      "పురుష": 5397,
      "బోర్డు": 5398,
      "బాగుంది": 5399,
      "మరచిపో": 5400,
      "\",": 5401,
      "బటన్": 5402,
      "##నంలో": 5403,
      "నిర్మూ": 5404,
      "వచ్చారు": 5405,
      "అతనితో": 5406,
      "కిలో": 5407,
      "పొందవచ్చు": 5408,
      "ప్రకాశవంతమైన": 5409,
      "ఫ్రెండ్లీ": 5410,
      "చాక్లెట్": 5411,
      "##కతను": 5412,
      "##్యుల": 5413,
      "ప్రభావాలు": 5414,
      "మధ్యలో": 5415,
      "విశ్లేషించండి": 5416,
      "జోడించడం": 5417,
      "ఇటీవల": 5418,
      "పక్కన": 5419,
      "విరుద్ధంగా": 5420,
      "బల్": 5421,
      "ఖాతా": 5422,
      "పనిప్రాంత": 5423,
      "##ఫ్లు": 5424,
      "పనిచేస్తుందో": 5425,
      "##ల్లింగ్": 5426,
      "నగరంలో": 5427,
      "నిలబడ": 5428,
      "డెవలప్": 5429,
      "టార్": 5430,
      "తార్కి": 5431,
      "##ౌక": 5432,
      "చివరకు": 5433,
      "దశలో": 5434,
      "అన్వేషించడానికి": 5435,
      "స్వచ్ఛమైన": 5436,
      "ఆక్సిజన్": 5437,
      "##ండింగ్": 5438,
      "##బుక్": 5439,
      "వ్యాధి": 5440,
      "తిరస్": 5441,
      "##రిగింది": 5442,
      "మాట్లాడుతు": 5443,
      "బిల్": 5444,
      "గొడుగు": 5445,
      "గ్రూ": 5446,
      "##య్యే": 5447,
      "వంటగది": 5448,
      "తుది": 5449,
      "అభ్యసన": 5450,
      "పొడవైన": 5451,
      "##చారు": 5452,
      "##పొ": 5453,
      "అనుకుంటున్నారు": 5454,
      "లోడ్": 5455,
      "##తున్నప్పుడు": 5456,
      "వీలైన": 5457,
      "మద్దతును": 5458,
      "రికార్డ్": 5459,
      "రెండింటి": 5460,
      "ఐఫోన్": 5461,
      "తప్పి": 5462,
      "చేయగలరా": 5463,
      "తప్పుగా": 5464,
      "వ్యూహం": 5465,
      "అనువర్తనాలను": 5466,
      "##విశ": 5467,
      "కామర్స్": 5468,
      "ప్రతిచర్య": 5469,
      "##శ్చి": 5470,
      "రూపంలో": 5471,
      "మానవు": 5472,
      "ఫలితం": 5473,
      "రాయడం": 5474,
      "బయటపడ": 5475,
      "బుక్": 5476,
      "తేడాలు": 5477,
      "నూనె": 5478,
      "ఏకాగ్ర": 5479,
      "మహాస": 5480,
      "హార్డ్": 5481,
      "ఇక్కడే": 5482,
      "##ంచింది": 5483,
      "ఇన్స్ట": 5484,
      "పేరును": 5485,
      "అల్గారిథమ్లను": 5486,
      "##ంగిల్": 5487,
      "తెలియజేయడానికి": 5488,
      "టీస్పూన్": 5489,
      "మహాసముద్ర": 5490,
      "ఒకసారి": 5491,
      "తీసుకువె": 5492,
      "విజయానికి": 5493,
      "సందర్భంలో": 5494,
      "అర్ధ": 5495,
      "న్యాయవా": 5496,
      "ఆత్మవిశ": 5497,
      "బైక్": 5498,
      "సంకేత": 5499,
      "చేయను": 5500,
      "పర్యావరణంపై": 5501,
      "మరణించాడు": 5502,
      "డిగ్రీల": 5503,
      "జపనీస్": 5504,
      "ఉల్లంఘ": 5505,
      "##భి": 5506,
      "వెల్లు": 5507,
      "##మితి": 5508,
      "స్వా": 5509,
      "చూడవచ్చు": 5510,
      "##న్‌లో": 5511,
      "విధానాలను": 5512,
      "ఉంచడం": 5513,
      "అనుకోలేదు": 5514,
      "దాడి": 5515,
      "##్రోల్": 5516,
      "ఆందోళనలు": 5517,
      "అనుసంధ": 5518,
      "వెల్లుల్లి": 5519,
      "విచార": 5520,
      "వీధి": 5521,
      "స్థితిని": 5522,
      "పసు": 5523,
      "లేబుల్": 5524,
      "క్లీ": 5525,
      "తిప్ప": 5526,
      "##్రెషన్": 5527,
      "##ించుకోండి": 5528,
      "యాంటీ": 5529,
      "తొలగించడం": 5530,
      "సామర్థ్యాలను": 5531,
      "సవాళ్లు": 5532,
      "పసుపు": 5533,
      "##మానం": 5534,
      "##వుతుంది": 5535,
      "ప్రాణ": 5536,
      "తగ్గించండి": 5537,
      "మాట్లాడు": 5538,
      "సెక్యూ": 5539,
      "అమర్": 5540,
      "చారి": 5541,
      "##గ్రా": 5542,
      "##ించకుండా": 5543,
      "##ారసు": 5544,
      "##ందరూ": 5545,
      "రూపొందించబడింది": 5546,
      "తేనె": 5547,
      "మెరుగ్గా": 5548,
      "ప్రసిద్ది": 5549,
      "గ్రామ": 5550,
      "సిఫారసు": 5551,
      "పుట్టినరోజు": 5552,
      "వివరించే": 5553,
      "దీనివల్ల": 5554,
      "కిరా": 5555,
      "అత్యధిక": 5556,
      "ప్రధానంగా": 5557,
      "కనెక్షన్": 5558,
      "ఆటగాడు": 5559,
      "కాగిత": 5560,
      "ఛాన": 5561,
      "త్రి": 5562,
      "##ంస": 5563,
      "చేసినప్పుడు": 5564,
      "పొందండి": 5565,
      "##కుంటాను": 5566,
      "ప్యాక్": 5567,
      "సభ్యులు": 5568,
      "ముందుగానే": 5569,
      "ఇంజనీరింగ్": 5570,
      "విటమి": 5571,
      "పొరుగు": 5572,
      "నిమిషాల": 5573,
      "పరిజ్ఞానాన్ని": 5574,
      "అనుకూలంగా": 5575,
      "సోదరుడు": 5576,
      "వదులు": 5577,
      "విఫల": 5578,
      "వెళ్ళాలి": 5579,
      "అడగండి": 5580,
      "అడిగాను": 5581,
      "ఆస్వాదించండి": 5582,
      "తగ్గుతుంది": 5583,
      "వృత్తిపరమైన": 5584,
      "సెక్యూరిటీ": 5585,
      "అన్నీ": 5586,
      "మస": 5587,
      "కలిగిస్తాయి": 5588,
      "స్ట్రా": 5589,
      "నిరాకరించ": 5590,
      "ఆకర్షించడానికి": 5591,
      "ల్యాప్టాప్": 5592,
      "పోలిస్తే": 5593,
      "ముగ్గురు": 5594,
      "ఆయిల్": 5595,
      "ఏజ": 5596,
      "జైలు": 5597,
      "నల్ల": 5598,
      "బయో": 5599,
      "నాటికి": 5600,
      "##ములు": 5601,
      "అవసరమైతే": 5602,
      "ప్రభావవంతంగా": 5603,
      "చేస్తూ": 5604,
      "క్లాస్": 5605,
      "ఇలాంటి": 5606,
      "అప్పటికే": 5607,
      "చేయగలను": 5608,
      "వేడిగా": 5609,
      "##లియర్": 5610,
      "కావాలని": 5611,
      "మేధను": 5612,
      "వెబ్సైట్ను": 5613,
      "కిరాణా": 5614,
      "నడవ": 5615,
      "బ్లూ": 5616,
      "వంతు": 5617,
      "##ోల్": 5618,
      "##క్షిక": 5619,
      "సూట్": 5620,
      "కాలే": 5621,
      "టెక్నాలజీని": 5622,
      "ఆవాస": 5623,
      "ఫార్మాట్": 5624,
      "గడ్": 5625,
      "##తారని": 5626,
      "##త్వా": 5627,
      "సంక్ష": 5628,
      "నువ్వు": 5629,
      "స్వి": 5630,
      "క్లయింట్": 5631,
      "అంటు": 5632,
      "ఐరో": 5633,
      "##ౌండ్": 5634,
      "##దారుల": 5635,
      "వెళ్ళే": 5636,
      "ప్రోటీన్": 5637,
      "చేస్తాము": 5638,
      "చదవడానికి": 5639,
      "యాదృచ్ఛిక": 5640,
      "పుష్కలంగా": 5641,
      "##న్లను": 5642,
      "**.": 5643,
      "వెళ్ళడం": 5644,
      "రూపొందించిన": 5645,
      "ఇష్టపడడు": 5646,
      "ఎంచుకున్న": 5647,
      "##వచ్చో": 5648,
      "##చాను": 5649,
      "##ోధు": 5650,
      "ఇష్టపడతారు": 5651,
      "ప్రాంతంలో": 5652,
      "##గోళిక": 5653,
      "స్కీ": 5654,
      "ప్రజంటేషన్": 5655,
      "భౌగోళిక": 5656,
      "వలె": 5657,
      "వెళు": 5658,
      "ఉండి": 5659,
      "గెలి": 5660,
      "##రింపు": 5661,
      "స్కూ": 5662,
      "చెప్పాలంటే": 5663,
      "మూలం": 5664,
      "ఆరోగ్యానికి": 5665,
      "ఉదాహరణను": 5666,
      "కూడు": 5667,
      "నోటి": 5668,
      "పార్టీకి": 5669,
      "పువ్వులు": 5670,
      "ఎక్": 5671,
      "లాక్": 5672,
      "షూ": 5673,
      "బాక్స్": 5674,
      "చేసుకో": 5675,
      "జీవవై": 5676,
      "ఏర్పడ": 5677,
      "పరిశ్రమలో": 5678,
      "గేమ్స్": 5679,
      "జీవవైవి": 5680,
      "స్కా": 5681,
      "క్లో": 5682,
      "సెంటి": 5683,
      "గమనించడం": 5684,
      "ఫ్రాన్స్": 5685,
      "కూర్చో": 5686,
      "ధనవంతు": 5687,
      "ఓవర్": 5688,
      "##దారీ": 5689,
      "స్పీ": 5690,
      "వాస్తవానికి": 5691,
      "##దరణ": 5692,
      "##ెక్స్": 5693,
      "అంకె": 5694,
      "##త్తుగా": 5695,
      "పుస్తకాన్ని": 5696,
      "వాయువు": 5697,
      "టిక": 5698,
      "##రీస్": 5699,
      "కేంద్రీ": 5700,
      "ఆటోమేట్": 5701,
      "##న్నే": 5702,
      "##ళ్లలో": 5703,
      "నిర్మించడం": 5704,
      "సంతృప్తిని": 5705,
      "ఎవరితో": 5706,
      "మెటీరియల్": 5707,
      "చొక్క": 5708,
      "థి": 5709,
      "##వెన్": 5710,
      "చేసా": 5711,
      "##మైనవి": 5712,
      "సుదీ": 5713,
      "వ్యవస": 5714,
      "##త్రక": 5715,
      "రోజుకు": 5716,
      "పనులకు": 5717,
      "పట్టిక": 5718,
      "దక్షిణ": 5719,
      "సుదీర్ఘ": 5720,
      "సకాలంలో": 5721,
      "##పడుతున్న": 5722,
      "##స్తారని": 5723,
      "అభిజ్ఞా": 5724,
      "రిటై": 5725,
      "పోరాడ": 5726,
      "చారిత్రక": 5727,
      "##ోగాన్ని": 5728,
      "##దానికి": 5729,
      "##ించేటప్పుడు": 5730,
      "మార్చు": 5731,
      "##స్థాప": 5732,
      "దానితో": 5733,
      "##జ్డ్": 5734,
      "అంకి": 5735,
      "శిక్ష": 5736,
      "గొలుసు": 5737,
      "ప్రయాణి": 5738,
      "##యెన్": 5739,
      "##ావి": 5740,
      "స్కి": 5741,
      "##బడిందని": 5742,
      "భాగాలను": 5743,
      "##పడ్డాను": 5744,
      "గోల్": 5745,
      "ఆప్టిమైజేషన్": 5746,
      "సబ్జ": 5747,
      "పరమాణు": 5748,
      "జన్మ": 5749,
      "వ్యవసాయం": 5750,
      "అథ": 5751,
      "గార్": 5752,
      "గోధు": 5753,
      "ట్రే": 5754,
      "##హాలు": 5755,
      "ఉపయోగించు": 5756,
      "వ్యూహాలు": 5757,
      "పాఠశాలలో": 5758,
      "##మవుతాయి": 5759,
      "గిటార్": 5760,
      "నొక్కి": 5761,
      "గోధుమ": 5762,
      "నట": 5763,
      "##కరించడం": 5764,
      "ప్రతిదాన్ని": 5765,
      "కోరుకుంటాడు": 5766,
      "ఆన్లైన్లో": 5767,
      "మోసం": 5768,
      "బ్యాంకు": 5769,
      "స్నానం": 5770,
      "వహిస్తుంది": 5771,
      "##ెంట": 5772,
      "స్థితిలో": 5773,
      "చేయగలవు": 5774,
      "వినడానికి": 5775,
      "పంచుకోవడానికి": 5776,
      "రహదా": 5777,
      "సమతుల్యతను": 5778,
      "చేర్చడం": 5779,
      "స్థితిస్థాప": 5780,
      "అరుదుగా": 5781,
      "##నియర్": 5782,
      "ప్రవ": 5783,
      "పోర్": 5784,
      "సాధించవచ్చు": 5785,
      "క్రిప్": 5786,
      "సంతోషి": 5787,
      "చూశారా": 5788,
      "పెరగడానికి": 5789,
      "బట్టలు": 5790,
      "గురుత్వా": 5791,
      "గురుత్వాకర్షణ": 5792,
      "అనుకున్న": 5793,
      "కారకాలను": 5794,
      "పద్ధతిలో": 5795,
      "##ర్చీ": 5796,
      "విజువల్": 5797,
      "ఎత్తైన": 5798,
      "టార్గ": 5799,
      "పబ్లిక్": 5800,
      "ఫాలో": 5801,
      "యోగా": 5802,
      "##ధారి": 5803,
      "##థి": 5804,
      "##న్నో": 5805,
      "##ారమైన": 5806,
      "చేస్తానని": 5807,
      "నమ్మకం": 5808,
      "పరధ్య": 5809,
      "టైప్": 5810,
      "తగ్గిస్తాయి": 5811,
      "సమతుల్య": 5812,
      "బెది": 5813,
      "థీమ్": 5814,
      "సంక్షిప్తీకరించండి": 5815,
      "ఆఫర్": 5816,
      "ప్రసం": 5817,
      "##దుంప": 5818,
      "పరిధి": 5819,
      "రియ": 5820,
      "ట్రాన్స్": 5821,
      "పెట్టండి": 5822,
      "క్రొ": 5823,
      "చైన": 5824,
      "వస్తాడు": 5825,
      "##ళా": 5826,
      "##ెండర్": 5827,
      "##భ్ర": 5828,
      "##బడుతున్న": 5829,
      "చేతిలో": 5830,
      "##డ్లు": 5831,
      "తెచ్చ": 5832,
      "చేసుకోవచ్చు": 5833,
      "ప్రారంభమవుతుంది": 5834,
      "నిర్మాణాన్ని": 5835,
      "యజమాని": 5836,
      "13": 5837,
      "కప్ప": 5838,
      "గ్రీ": 5839,
      "గందర": 5840,
      "సపోర్ట్": 5841,
      "##రీని": 5842,
      "##వేళ": 5843,
      "సిం": 5844,
      "కనుగొన్నాడు": 5845,
      "ఖర్చును": 5846,
      "పుస్తక": 5847,
      "కీలకమైన": 5848,
      "వినడం": 5849,
      "మోస": 5850,
      "అనువర్తనాలు": 5851,
      "నిర్ణయించుకున్నాడు": 5852,
      "పట్టించుకో": 5853,
      "ప్రాక్టీస్": 5854,
      "గందరగోళ": 5855,
      "ఫ్లా": 5856,
      "షెల్": 5857,
      "##తాయని": 5858,
      "##జన్య": 5859,
      "మెనూ": 5860,
      "కారణాల": 5861,
      "వైవిధ్యం": 5862,
      "##తున్నాడని": 5863,
      "విప్లవ": 5864,
      "శాస్త్రవేత్తలు": 5865,
      "ఉపాధ్యాయు": 5866,
      "సెంటిమెంట్": 5867,
      "16": 5868,
      "ఆయు": 5869,
      "బెల్": 5870,
      "##బడుతు": 5871,
      "తెలియదని": 5872,
      "భాగాలు": 5873,
      "తయార": 5874,
      "అంశాలపై": 5875,
      "పరీక్షలో": 5876,
      "అన్వేషి": 5877,
      "నచ్చలేదు": 5878,
      "విశ్వసనీయతను": 5879,
      "క్యాన్సర్": 5880,
      "అంటారు": 5881,
      "##డెన్": 5882,
      "చెయిన్": 5883,
      "సమస్యలకు": 5884,
      "చర్యల": 5885,
      "దాట": 5886,
      "పనుల": 5887,
      "ట్యాగ్": 5888,
      "##తారా": 5889,
      "సంయోగ": 5890,
      "పియ": 5891,
      "బ్యాకప్": 5892,
      "ప్రక్రియలను": 5893,
      "సంభావ్యత": 5894,
      "రవాణ": 5895,
      "ఫ్యాషన్": 5896,
      "టూల్స్": 5897,
      "సొంత": 5898,
      "##తురస్రా": 5899,
      "టెస్టింగ్": 5900,
      "ఆకాశ": 5901,
      "##ర్శ": 5902,
      "##పోతుంది": 5903,
      "##న్‌ను": 5904,
      "మారడం": 5905,
      "సముద్రం": 5906,
      "ఫైర్": 5907,
      "వలస": 5908,
      "మిరియాలు": 5909,
      "చేయవద్దు": 5910,
      "కోవిడ్": 5911,
      "సమస్యకు": 5912,
      "ఆలస్య": 5913,
      "వీటిని": 5914,
      "జవా": 5915,
      "ప్యాన": 5916,
      "##ుడిని": 5917,
      "పిజ్": 5918,
      "నియమం": 5919,
      "ఆసక్తికరంగా": 5920,
      "ఆటోమ": 5921,
      "ఫైనాన్స్": 5922,
      "భాగాన్ని": 5923,
      "అస్": 5924,
      "ఇబ్బ": 5925,
      "నిలి": 5926,
      "##ందే": 5927,
      "##గింది": 5928,
      "తెలుపు": 5929,
      "తప్పక": 5930,
      "ఇచ్చారు": 5931,
      "కిరణజన్య": 5932,
      "ఇబ్బందు": 5933,
      "##జ్యం": 5934,
      "##ించను": 5935,
      "అంతకంటే": 5936,
      "బహుముఖ": 5937,
      "ప్రేమలో": 5938,
      "ఒప్పంద": 5939,
      "కలపండి": 5940,
      "కూర్చున్నాడు": 5941,
      "మిలియన్": 5942,
      "ఎక్కడి": 5943,
      "విజువలైజేషన్": 5944,
      "అనుసంధానించ": 5945,
      "ఎఫ్": 5946,
      "చంద్ర": 5947,
      "విస్మ": 5948,
      "చెందాడు": 5949,
      "కోణ": 5950,
      "నిర్ధారి": 5951,
      "కుర్చీ": 5952,
      "వెళ్ళి": 5953,
      "బ్యాగ్": 5954,
      "అనుమతించే": 5955,
      "పెయింట్": 5956,
      "సంయోగక్రియ": 5957,
      "ఉడక": 5958,
      "##స్తానని": 5959,
      "పదాలు": 5960,
      "సిస్టమ్స్": 5961,
      "పక్షపాత": 5962,
      "పాల్గొనడం": 5963,
      "ఆబ్": 5964,
      "కర": 5965,
      "##బన": 5966,
      "##జర్లు": 5967,
      "ఉన్నత": 5968,
      "ఉపయోగపడుతుంది": 5969,
      "వర్గ": 5970,
      "ప్రారంభి": 5971,
      "ఖచ్చితత్వాన్ని": 5972,
      "ఇంటిగ్రే": 5973,
      "ప్రత్యేకంగా": 5974,
      "అమెరికాలో": 5975,
      "డేటాపై": 5976,
      "రోజుల": 5977,
      "ఎంతకాలం": 5978,
      "పరిగణించబడుతుంది": 5979,
      "ప్రాధాన్యతలు": 5980,
      "స్థానంలో": 5981,
      "పెరగడం": 5982,
      "##ఎన్ఎ": 5983,
      "ఫైనాన్": 5984,
      "అనలిటిక్స్": 5985,
      "ఆదేశ": 5986,
      "లలో": 5987,
      "##రాన్ని": 5988,
      "##కారం": 5989,
      "లేకపోతే": 5990,
      "వాదించ": 5991,
      "కొన్నాను": 5992,
      "సహో": 5993,
      "కనుగొన్నారు": 5994,
      "రేడియో": 5995,
      "లాగా": 5996,
      "చెందడానికి": 5997,
      "వెలుప": 5998,
      "ప్రిడిక్టివ్": 5999,
      "టికెట్": 6000,
      "##ాట": 6001,
      "వైఫల": 6002,
      "కారణమవుతుంది": 6003,
      "కోరుకున్న": 6004,
      "##పరుస్తుంది": 6005,
      "##ంగం": 6006,
      "నావిగేషన్": 6007,
      "కాగితం": 6008,
      "##స్పద": 6009,
      "పదాల": 6010,
      "ప్రజాదరణ": 6011,
      "జవాబు": 6012,
      "పదాన్ని": 6013,
      "##ల్యూ": 6014,
      "##కాల్": 6015,
      "సహాను": 6016,
      "తీసుకోగల": 6017,
      "అవసరమయ్యే": 6018,
      "##లియన్": 6019,
      "కష్టతరం": 6020,
      "##స్కెట్": 6021,
      "గడిప": 6022,
      "నివసిస్తున్నాడు": 6023,
      "ఎదుర్కొంటున్న": 6024,
      "తేలికపాటి": 6025,
      "ఐడి": 6026,
      "##లేకపో": 6027,
      "పునా": 6028,
      "వినియోగం": 6029,
      "ధరలు": 6030,
      "భావోద్వేగాలను": 6031,
      "కొనసాగించడానికి": 6032,
      "అలంకరణ": 6033,
      "క్రొత్త": 6034,
      "సహోద్యోగ": 6035,
      "ఏవిధంగా": 6036,
      "సింగిల్": 6037,
      "తెలుసుకోవడం": 6038,
      "పరిస్థితులకు": 6039,
      "కృతజ్ఞతలు": 6040,
      "ఆలివ్": 6041,
      "కలలు": 6042,
      "స్థానాన్ని": 6043,
      "కోపం": 6044,
      "##క్యో": 6045,
      "##ాక్ట్": 6046,
      "సంతకం": 6047,
      "ఒకేసారి": 6048,
      "టోక్యో": 6049,
      "అభ్యస": 6050,
      "దొంగ": 6051,
      "మూల్యాంకనం": 6052,
      "##రపు": 6053,
      "కోటు": 6054,
      "భావాన్ని": 6055,
      "చేస్తే": 6056,
      "సంఖ్యలో": 6057,
      "భాషలో": 6058,
      "ఉష్ణోగ్రతలు": 6059,
      "ప్రమాదంలో": 6060,
      "ఆదాయాన్ని": 6061,
      "కలపాలి": 6062,
      "ప్రశాంతంగా": 6063,
      "హార్డ": 6064,
      "ఏకీ": 6065,
      "వేడిని": 6066,
      "తీర్": 6067,
      "జాతుల": 6068,
      "##ళ్ళను": 6069,
      "అసలు": 6070,
      "ధృవీకరించడానికి": 6071,
      "దూరంలో": 6072,
      "సౌలభ్యం": 6073,
      "నిర్మూలన": 6074,
      "చలన": 6075,
      "త్రా": 6076,
      "##షియ": 6077,
      "ఇచ్చింది": 6078,
      "లోతుగా": 6079,
      "##స్కాంత": 6080,
      "##చడానికి": 6081,
      "##ట్ర": 6082,
      "##ాలనుకున్నాడు": 6083,
      "సరస్సు": 6084,
      "ప్రొవై": 6085,
      "సరైనది": 6086,
      "చట్టం": 6087,
      "నచ్చి": 6088,
      "నిరోధించడానికి": 6089,
      "త్రిభు": 6090,
      "హార్డ్వేర్": 6091,
      "##ుభ్ర": 6092,
      "##ొంది": 6093,
      "అనుభూతి": 6094,
      "కుకీ": 6095,
      "నిర్వహించే": 6096,
      "టెక్నిక్": 6097,
      "లక్షణాల": 6098,
      "ఉద్రిక్": 6099,
      "నియమాలు": 6100,
      "భయంకరమైన": 6101,
      "బిందువు": 6102,
      "ప్రశంస": 6103,
      "పడుతు": 6104,
      "మళ్": 6105,
      "##ఎమ్": 6106,
      "##ందనే": 6107,
      "కాంప": 6108,
      "బాస్కెట్": 6109,
      "ప్రభావిత": 6110,
      "సమస్యా": 6111,
      "కొనడానికి": 6112,
      "ఇతరులకు": 6113,
      "బయలుదేరు": 6114,
      "తెలియజేయండి": 6115,
      "డెవలపర్": 6116,
      "వేసవిలో": 6117,
      "మృదువైన": 6118,
      "టార్గెట్": 6119,
      "ఆబ్జ": 6120,
      "కాపీ": 6121,
      "##లియో": 6122,
      "అంగు": 6123,
      "సేకరించడానికి": 6124,
      "ప్రయాణాన్ని": 6125,
      "ప్రతిస్పందనను": 6126,
      "సాహిత": 6127,
      "వీలైనంత": 6128,
      "చేసాము": 6129,
      "##శనం": 6130,
      "##తగా": 6131,
      "##ర్గ": 6132,
      "కొవ్వ": 6133,
      "##యిల్స్": 6134,
      "నమ్మకాన్ని": 6135,
      "కేటగి": 6136,
      "మిలియన్ల": 6137,
      "మళ్లీ": 6138,
      "##టారు": 6139,
      "##్రాయ": 6140,
      "వివరాలను": 6141,
      "ఒక్కరికీ": 6142,
      "సేకరించండి": 6143,
      "పునరావృతం": 6144,
      "విదేశీ": 6145,
      "వ్రా": 6146,
      "##రూప": 6147,
      "##క్కడి": 6148,
      "అనుభూతిని": 6149,
      "పెరిగా": 6150,
      "ఉత్తమంగా": 6151,
      "ప్రశాంతమైన": 6152,
      "అంగుళ": 6153,
      "జావా": 6154,
      "##కుడి": 6155,
      "అనువైన": 6156,
      "ఉన్నారో": 6157,
      "వారితో": 6158,
      "కలర్": 6159,
      "విధాలుగా": 6160,
      "పాయింట్లు": 6161,
      "కర్బన": 6162,
      "##ంక్షన్": 6163,
      "##డల్": 6164,
      "చేద్దాం": 6165,
      "పెద్దది": 6166,
      "సవాలుగా": 6167,
      "##టాలు": 6168,
      "పేర్లు": 6169,
      "ప్రారంభంలో": 6170,
      "ప్రోటో": 6171,
      "సంవత్సరాలలో": 6172,
      "పరిగెత్త": 6173,
      "భూమిపై": 6174,
      "సమావేశం": 6175,
      "ఎలక్ట్రానిక్": 6176,
      "మ్యూజియం": 6177,
      "ఉచిత": 6178,
      "కడు": 6179,
      "##శ్రయ": 6180,
      "##ించాము": 6181,
      "##పోటు": 6182,
      "చెప్పింది": 6183,
      "అవసరమని": 6184,
      "##ోగ్రఫీ": 6185,
      "జీవితాలను": 6186,
      "తప్పులు": 6187,
      "ఖాత": 6188,
      "##లైజేషన్": 6189,
      "ఎలక్ట్రా": 6190,
      "హీట్": 6191,
      "చిట్కాలు": 6192,
      "ఏమను": 6193,
      "చార్ట్": 6194,
      "ఉండదు": 6195,
      "పర్యావరణాన్ని": 6196,
      "ట్రీ": 6197,
      "##డేట్": 6198,
      "లేఅవుట్": 6199,
      "##విష": 6200,
      "##మెంట": 6201,
      "సంఖ్యల": 6202,
      "మందికి": 6203,
      "ఉండేది": 6204,
      "విశ్వవిద్య": 6205,
      "##్యాలు": 6206,
      "రెగ": 6207,
      "##త్రిక": 6208,
      "పర్యావరణం": 6209,
      "పదాలను": 6210,
      "మైండ్": 6211,
      "నిరూప": 6212,
      "తుపా": 6213,
      "ఇంజనీర్": 6214,
      "##స్మస్": 6215,
      "డైనమిక్": 6216,
      "వర్తింపజే": 6217,
      "రియాలిటీ": 6218,
      "ఫంక్షన్": 6219,
      "##తున్నాము": 6220,
      "మేమంతా": 6221,
      "తీపి": 6222,
      "జాతీయ": 6223,
      "ఉపయోగించగల": 6224,
      "సరస": 6225,
      "క్రిస్మస్": 6226,
      "ఫలితాలు": 6227,
      "కోల్పోవడం": 6228,
      "దృక్పథాన్ని": 6229,
      "అరటి": 6230,
      "##థాన్": 6231,
      "వెలుపల": 6232,
      "ఇరు": 6233,
      "పండు": 6234,
      "##ైక": 6235,
      "##స్ట్ర": 6236,
      "స్వభావం": 6237,
      "స్పామ్": 6238,
      "కనెక్": 6239,
      "గోప్యత": 6240,
      "ఏమైనా": 6241,
      "##రించిన": 6242,
      "దానికంటే": 6243,
      "తమకు": 6244,
      "జ్ఞానాన్ని": 6245,
      "తొలగించడానికి": 6246,
      "గణాంక": 6247,
      "ఆకాశం": 6248,
      "ఏకైక": 6249,
      "ఉత్తేజకరమైన": 6250,
      "00": 6251,
      "వ్రాయ": 6252,
      "##ార్జ్": 6253,
      "పరిరక్ష": 6254,
      "గుణ": 6255,
      "మార్చే": 6256,
      "రిటర్": 6257,
      "మానవులు": 6258,
      "ఇన్ఫ": 6259,
      "కేసు": 6260,
      "లక్షణం": 6261,
      "##ద్వి": 6262,
      "ఒకరితో": 6263,
      "చేయలేదని": 6264,
      "మాదిరిగానే": 6265,
      "గట్టిగా": 6266,
      "ఎండ్": 6267,
      "బాలు": 6268,
      "మరే": 6269,
      "శత్ర": 6270,
      "చేయటానికి": 6271,
      "పరిసర": 6272,
      "పెరిగే": 6273,
      "ఆర్గ": 6274,
      "ఖరీదైనది": 6275,
      "అరి": 6276,
      "గమ్య": 6277,
      "సద్వి": 6278,
      "##్యంలో": 6279,
      "##గుల": 6280,
      "##కోవడంలో": 6281,
      "పరిశుభ్ర": 6282,
      "కోల్పోయాడు": 6283,
      "##సెప్": 6284,
      "తొలగి": 6285,
      "ఉత్పత్తుల": 6286,
      "చాట్బా": 6287,
      "ప్రయోగాలు": 6288,
      "\":": 6289,
      "రద్దు": 6290,
      "##‌తో": 6291,
      "##గ్విష": 6292,
      "లేయర్": 6293,
      "తీర": 6294,
      "తెలియని": 6295,
      "వాటిలో": 6296,
      "దృగ్విష": 6297,
      "కష్టమైన": 6298,
      "రంగులో": 6299,
      "196": 6300,
      "ప్రశ్నలను": 6301,
      "అంతర్లీ": 6302,
      "సూచించే": 6303,
      "నచ్చిన": 6304,
      "నిమగ్నతను": 6305,
      "కలుసు": 6306,
      "నవీకరణ": 6307,
      "ట్రైనింగ్": 6308,
      "సద్వినియోగం": 6309,
      "బ్ల": 6310,
      "మత": 6311,
      "నేచు": 6312,
      "##డియన్": 6313,
      "##డ్డు": 6314,
      "కలిపి": 6315,
      "జాబ్": 6316,
      "ప్రారంభించింది": 6317,
      "నిర్వచించండి": 6318,
      "##జాలం": 6319,
      "వయసు": 6320,
      "గరిష్ట": 6321,
      "టాక్": 6322,
      "ఉన్నందున": 6323,
      "చింతి": 6324,
      "నిజమే": 6325,
      "##బోతున్నాడు": 6326,
      "##తాడని": 6327,
      "జీవితంలోని": 6328,
      "లైటింగ్": 6329,
      "క్వై": 6330,
      "ఫాంట్": 6331,
      "తప్పుడు": 6332,
      "మర్యా": 6333,
      "##మాను": 6334,
      "##ట్లో": 6335,
      "విత్త": 6336,
      "##కాహ": 6337,
      "చూస్తున్న": 6338,
      "వెళ్ళాను": 6339,
      "భయపడుతున్నాను": 6340,
      "ఇంధనాల": 6341,
      "ప్రమాదాలను": 6342,
      "బంగాళా": 6343,
      "ట్రిప్": 6344,
      "గడియారం": 6345,
      "ఆర్గనై": 6346,
      "##ంశం": 6347,
      "ప్రచారం": 6348,
      "వేట": 6349,
      "మెత్తగా": 6350,
      "చేసుకునే": 6351,
      "వెళ్ళలేదు": 6352,
      "సౌంద": 6353,
      "విజయవంతంగా": 6354,
      "సెట్టింగ్": 6355,
      "రంగం": 6356,
      "రహదారి": 6357,
      "అందుకు": 6358,
      "చర్మ": 6359,
      "##రాశి": 6360,
      "తరల": 6361,
      "సంబంధాలు": 6362,
      "నిర్ణయించడం": 6363,
      "కాలమ్": 6364,
      "సర్వ్": 6365,
      "కలత": 6366,
      "విధానంలో": 6367,
      "గ్రాఫిక్స్": 6368,
      "రావడానికి": 6369,
      "కొద్ది": 6370,
      "బంగాళాదుంప": 6371,
      "జరుపు": 6372,
      "##లార్": 6373,
      "##లోక": 6374,
      "కాపా": 6375,
      "ఇన్ఫ్లు": 6376,
      "ప్రమాదాలు": 6377,
      "వేగవంతం": 6378,
      "పరిగణించ": 6379,
      "ప్రజాస్వా": 6380,
      "సంఘటనల": 6381,
      "వృద్ధిని": 6382,
      "ఫుట్": 6383,
      "##ావుగా": 6384,
      "పియానో": 6385,
      "కచే": 6386,
      "కదులు": 6387,
      "నేర": 6388,
      "##పోయాయి": 6389,
      "ప్రదర్శన": 6390,
      "శుభ్రపరచ": 6391,
      "క్షణం": 6392,
      "క్రాస్": 6393,
      "తీర్చడానికి": 6394,
      "పెట్టుబడులు": 6395,
      "జాతులు": 6396,
      "సాధించిన": 6397,
      "అంచనాలను": 6398,
      "రంగులను": 6399,
      "టెలివి": 6400,
      "##శాస్త్ర": 6401,
      "విపరీ": 6402,
      "నిశ్శబ్దంగా": 6403,
      "రివార్డు": 6404,
      "రవాణాను": 6405,
      "##ష్మ": 6406,
      "వెన": 6407,
      "##ట్టర్": 6408,
      "ప్రతిని": 6409,
      "ఉద్యోగులకు": 6410,
      "సమాజంలో": 6411,
      "##వల్స్": 6412,
      "##లైన్": 6413,
      "##ంకింగ్": 6414,
      "##ర్షి": 6415,
      "##ించలేను": 6416,
      "వాసన": 6417,
      "##స్థాన": 6418,
      "స్పష్ట": 6419,
      "పరిశీ": 6420,
      "చేస్తాడని": 6421,
      "##రికైనా": 6422,
      "పరికరాల": 6423,
      "యాక్టివిటీ": 6424,
      "ఫైబర్": 6425,
      "గ్రేట్": 6426,
      "2021": 6427,
      "ఆచరణాత్మక": 6428,
      "##గితే": 6429,
      "వివక్ష": 6430,
      "వచ్చాయి": 6431,
      "కంట్రోల్": 6432,
      "ఉష్ణోగ్రతను": 6433,
      "ప్రింట్": 6434,
      "కణాలు": 6435,
      "అరె": 6436,
      "వెతుకుతున్న": 6437,
      "నిఘంటు": 6438,
      "మర్యాద": 6439,
      "##క్చర్": 6440,
      "సాకర్": 6441,
      "##గింగ్": 6442,
      "శాకాహ": 6443,
      "విద్యుత్తు": 6444,
      "గింజ": 6445,
      "ఫుడ్": 6446,
      "ద్రవ్యరాశి": 6447,
      "స్వాగతం": 6448,
      "చొక్కా": 6449,
      "ఛా": 6450,
      "##మస్": 6451,
      "##స్తా": 6452,
      "కాంతిని": 6453,
      "చేసుకున్నాను": 6454,
      "రోజును": 6455,
      "ట్రాకింగ్": 6456,
      "##ప్పింగ్": 6457,
      "నేచురల్": 6458,
      "ఆఫీ": 6459,
      "మాయా": 6460,
      "##ందరు": 6461,
      "స్టె": 6462,
      "ఇవ్వబడిన": 6463,
      "విజన్": 6464,
      "ప్రోత్సహించే": 6465,
      "కోల్పోయాను": 6466,
      "ఫలితాల": 6467,
      "వద్దకు": 6468,
      "రోబోట్": 6469,
      "డయాబె": 6470,
      "యో": 6471,
      "##హిత": 6472,
      "##ంటుంది": 6473,
      "మార్క్": 6474,
      "తరచూ": 6475,
      "అనుభవాలు": 6476,
      "ప్రశ్నను": 6477,
      "తాత్": 6478,
      "బ్రష్": 6479,
      "వ్యాధుల": 6480,
      "పెరుగుదలకు": 6481,
      "గైడ్": 6482,
      "పానీయ": 6483,
      "ఎర్ర": 6484,
      "14": 6485,
      "కవ": 6486,
      "గీ": 6487,
      "కోర": 6488,
      "కోడింగ్": 6489,
      "పిల్లు": 6490,
      "కేల": 6491,
      "కష్టపడి": 6492,
      "భూభాగ": 6493,
      "మార్చండి": 6494,
      "ప్రదర్శించడానికి": 6495,
      "జోడి": 6496,
      "తృణ": 6497,
      "ఉమ్మడి": 6498,
      "వంద": 6499,
      "##ర్లను": 6500,
      "అనుకూ": 6501,
      "పెన్సి": 6502,
      "##జీని": 6503,
      "బాగానే": 6504,
      "దేశాలలో": 6505,
      "సూచించడానికి": 6506,
      "ఇమెయిల్స్": 6507,
      "సారాంశం": 6508,
      "ముఖం": 6509,
      "హీరో": 6510,
      "వంతెన": 6511,
      "ధరించి": 6512,
      "##రేటర్": 6513,
      "##స్మా": 6514,
      "##ంచాల": 6515,
      "పరికల్పన": 6516,
      "అనుమానం": 6517,
      "విభే": 6518,
      "విధులను": 6519,
      "తిరస్కరించ": 6520,
      "అస్సలు": 6521,
      "జబ్బు": 6522,
      "వరద": 6523,
      "##పర్లు": 6524,
      "##లోపే": 6525,
      "##ంటిక": 6526,
      "మాన్యు": 6527,
      "ప్రారంభమైంది": 6528,
      "ప్రాంతాలు": 6529,
      "సభ్యుల": 6530,
      "శీర్షికను": 6531,
      "అనుకూలీ": 6532,
      "##షే": 6533,
      "స్క్రిప్": 6534,
      "వేలా": 6535,
      "రోజుల్లో": 6536,
      "మార్గాల": 6537,
      "చేశారా": 6538,
      "తమను": 6539,
      "వెళ్లడానికి": 6540,
      "వారస": 6541,
      "వారానికి": 6542,
      "స్వయంచాల": 6543,
      "ప్రేమిస్తున్నాను": 6544,
      "హ్యాండ్": 6545,
      "విమానా": 6546,
      "అంతేకా": 6547,
      "ఇసు": 6548,
      "##లించు": 6549,
      "వివరాలు": 6550,
      "ఇంకే": 6551,
      "ఉద్యోగా": 6552,
      "కంటైనర్": 6553,
      "స్థాయిలు": 6554,
      "తెలుసుకోవాలనుకుంటున్నాను": 6555,
      "పేదరిక": 6556,
      "ధ్వని": 6557,
      "##నాలకు": 6558,
      "##ెల్స్": 6559,
      "##రిస్తారు": 6560,
      "సంపూర్ణ": 6561,
      "రూపాన్ని": 6562,
      "వనరులకు": 6563,
      "పుస్తకాల": 6564,
      "##ించగలరా": 6565,
      "ఆందోళనలను": 6566,
      "రావడం": 6567,
      "వదిలే": 6568,
      "సరళంగా": 6569,
      "కనిపిస్తాయి": 6570,
      "వీడియోలు": 6571,
      "శుభ్రంగా": 6572,
      "చిరున": 6573,
      "పంపు": 6574,
      "ఫ్ర": 6575,
      "##ోభ": 6576,
      "##ఖ్యా": 6577,
      "##భవి": 6578,
      "విమానం": 6579,
      "స్ఫ": 6580,
      "మెడి": 6581,
      "ఎవరికైనా": 6582,
      "సేకరించిన": 6583,
      "గుడ్డు": 6584,
      "తీసుకురావడానికి": 6585,
      "బలోపే": 6586,
      "మట్టి": 6587,
      "నాశనం": 6588,
      "కాపాడు": 6589,
      "బాటిల్": 6590,
      "##వంతో": 6591,
      "ఇన్వె": 6592,
      "పద్ధతిని": 6593,
      "##ార్ట్మెంట్": 6594,
      "భవిష్యత్తును": 6595,
      "నోడ్": 6596,
      "##వేయడం": 6597,
      "ప్రేరేపిస్తుంది": 6598,
      "శుభ్రమైన": 6599,
      "యూనియన్": 6600,
      "అంతర్లీన": 6601,
      "బలోపేతం": 6602,
      "అప్ప": 6603,
      "బౌ": 6604,
      "బ్రే": 6605,
      "##సమితి": 6606,
      "##ూత్": 6607,
      "##కుందాం": 6608,
      "కోరాడు": 6609,
      "సహాయక": 6610,
      "సృష్టించే": 6611,
      "ఒప్పందం": 6612,
      "వ్యత్యాసాన్ని": 6613,
      "ఉనికిని": 6614,
      "గణాం": 6615,
      "మర్చిపోవద్దు": 6616,
      "మిన": 6617,
      "##కానికి": 6618,
      "##గలుగు": 6619,
      "##తుల్లో": 6620,
      "విండో": 6621,
      "సూక్": 6622,
      "సోలార్": 6623,
      "స్నేహితురాలు": 6624,
      "నిమగ్నత": 6625,
      "ముందస్తు": 6626,
      "వెర్షన్": 6627,
      "శతాబ్ద": 6628,
      "ఇస్తారు": 6629,
      "సలా": 6630,
      "హే": 6631,
      "##మణ": 6632,
      "##మండ": 6633,
      "##ఘ్ర": 6634,
      "##స్తారా": 6635,
      "వివరిస్తుంది": 6636,
      "మార్గనిర్": 6637,
      "పర్యాట": 6638,
      "చేసినందుకు": 6639,
      "కార్యకలాపాలలో": 6640,
      "శీఘ్ర": 6641,
      "##స్తూనే": 6642,
      "తేడాలను": 6643,
      "2020": 6644,
      "సాధ్యమైనంత": 6645,
      "యంత్రం": 6646,
      "##ెచ్": 6647,
      "అవలోక": 6648,
      "రూపం": 6649,
      "పెద్దగా": 6650,
      "నమ్మశ": 6651,
      "సహజంగా": 6652,
      "క్రీమ్": 6653,
      "అన్వేషించడం": 6654,
      "స్టేట్స్లో": 6655,
      "విభాగం": 6656,
      "##సుగు": 6657,
      "##పోతున్న": 6658,
      "పాజి": 6659,
      "పర్యావరణానికి": 6660,
      "పరిస్థితులలో": 6661,
      "సంరక్షణను": 6662,
      "గడుపు": 6663,
      "భారతదేశ": 6664,
      "పార్కులో": 6665,
      "పిక్నిక్": 6666,
      "ఇన్ఫ్లుయెన్": 6667,
      "ఖండ": 6668,
      "బెర్": 6669,
      "##లింది": 6670,
      "వ్యవస్థకు": 6671,
      "ప్రయత్నం": 6672,
      "అప్డేట్": 6673,
      "ఒక్కటి": 6674,
      "ఉత్తమమైన": 6675,
      "పరిణామాలను": 6676,
      "హైడ్ర": 6677,
      "సంక్షోభ": 6678,
      "##జాలు": 6679,
      "చెప్": 6680,
      "మార్చింది": 6681,
      "##ఫ్రి": 6682,
      "దుర్": 6683,
      "మారడానికి": 6684,
      "నిమిషం": 6685,
      "ఎవరినీ": 6686,
      "లెక్కించండి": 6687,
      "చేయగలిగిన": 6688,
      "##పాల": 6689,
      "##ాయిడ్": 6690,
      "మానేయ": 6691,
      "దశా": 6692,
      "పిల్లవాడు": 6693,
      "ఫలితాన్ని": 6694,
      "శుద్ధి": 6695,
      "పీడ": 6696,
      "ప్రతిపాదన": 6697,
      "ముడిపడి": 6698,
      "సంభవిస్తుంది": 6699,
      "ఆలస్యంగా": 6700,
      "నిర్ధారిస్తుంది": 6701,
      "ఉద్రిక్త": 6702,
      "స్లై": 6703,
      "పరిర": 6704,
      "బాట్": 6705,
      "సూప్": 6706,
      "ఎక్కువసేపు": 6707,
      "సంబంధించి": 6708,
      "బిజిన": 6709,
      "చేయగలదు": 6710,
      "బాధ్యతాయు": 6711,
      "ప్రవాహాన్ని": 6712,
      "మార్గనిర్దేశం": 6713,
      "బిజినెస్": 6714,
      "##కప్పు": 6715,
      "##హెచ్": 6716,
      "##ించకండి": 6717,
      "చెక్క": 6718,
      "పొందే": 6719,
      "తేమ": 6720,
      "ఇచ్చాను": 6721,
      "##తూనే": 6722,
      "యూనిట్": 6723,
      "కేటాయించండి": 6724,
      "కాన్ఫ": 6725,
      "ఆర్కిటెక్": 6726,
      "వశ్యత": 6727,
      "నమ్మశక్యం": 6728,
      "వస్తాయి": 6729,
      "##రై": 6730,
      "##క్కో": 6731,
      "చెవి": 6732,
      "మాట్లాడగల": 6733,
      "పైకప్పు": 6734,
      "సృజనాత్మకతను": 6735,
      "పర్యవేక్షణ": 6736,
      "ప్రేక్షకులకు": 6737,
      "తాజాగా": 6738,
      "ధోరణులు": 6739,
      "బంగారు": 6740,
      "##________": 6741,
      "వెనక్కి": 6742,
      "అరెస్టు": 6743,
      "పాజిటివ్": 6744,
      "##న్వ": 6745,
      "##గులు": 6746,
      "వెడల్": 6747,
      "##పోయి": 6748,
      "మెయిల్": 6749,
      "భాగంలో": 6750,
      "గొంతు": 6751,
      "వేగంతో": 6752,
      "సాఫ్ట్వేర్ను": 6753,
      "ఫీచర్లను": 6754,
      "ఫైనాన్షియల్": 6755,
      "పునాది": 6756,
      "ఆగి": 6757,
      "లండ": 6758,
      "లేడని": 6759,
      "##సిషన్": 6760,
      "మార్గాల్లో": 6761,
      "ఆరోగ్యంగా": 6762,
      "ఆర్ట్": 6763,
      "ఆటను": 6764,
      "నగరాలు": 6765,
      "నగదు": 6766,
      "ఆది": 6767,
      "ఆనం": 6768,
      "షో": 6769,
      "సమ్మి": 6770,
      "##మనం": 6771,
      "##క్రం": 6772,
      "##ీర్ణ": 6773,
      "##రింది": 6774,
      "##ండగా": 6775,
      "స్తం": 6776,
      "బాడీ": 6777,
      "లైస": 6778,
      "నష్టాలు": 6779,
      "చివరిసారి": 6780,
      "ప్రవేశపెట్ట": 6781,
      "పనిప్రాంతంలో": 6782,
      "ఆనందాన్ని": 6783,
      "అపరి": 6784,
      "ఐక్య": 6785,
      "కట్": 6786,
      "ట్వి": 6787,
      "##ించారా": 6788,
      "వాటికి": 6789,
      "ధరలను": 6790,
      "అకస్మా": 6791,
      "ముందే": 6792,
      "డయాబెటిస్": 6793,
      "అకస్మాత్తుగా": 6794,
      "కరు": 6795,
      "##ీస్": 6796,
      "##బెర్": 6797,
      "##లాగే": 6798,
      "పర్యవేక్షించండి": 6799,
      "స్వయంచాలకంగా": 6800,
      "##చితంగా": 6801,
      "వాషింగ్": 6802,
      "##మెంటేషన్": 6803,
      "మరిన్ని": 6804,
      "##కుంటూ": 6805,
      "జోడించడానికి": 6806,
      "దోహద": 6807,
      "ఆత్మవిశ్వా": 6808,
      "కేటగిరీ": 6809,
      "నిఘంటువు": 6810,
      "సమ్మిళ": 6811,
      "సజీవ": 6812,
      "##గ్రెషన్": 6813,
      "##కుడిని": 6814,
      "సాధన": 6815,
      "##స్తున్నట్లు": 6816,
      "భోజన": 6817,
      "రేటును": 6818,
      "సంభాషణను": 6819,
      "స్వచ్ఛంద": 6820,
      "బల్బు": 6821,
      "న్యాయవాది": 6822,
      "ఎంటర్": 6823,
      "హత్య": 6824,
      "##వని": 6825,
      "##నిమి": 6826,
      "నాడీ": 6827,
      "సమన్వ": 6828,
      "ఇవ్వవచ్చు": 6829,
      "ప్రారంభించడం": 6830,
      "కస్టమర్లను": 6831,
      "ప్రదేశంలో": 6832,
      "జ్ఞాపక": 6833,
      "ప్రకటనలు": 6834,
      "ఆకాంక్ష": 6835,
      "చూపింది": 6836,
      "కాపాడ": 6837,
      "డొ": 6838,
      "##్యంగా": 6839,
      "పెళ్లి": 6840,
      "ముప్పు": 6841,
      "##ద్దరూ": 6842,
      "కార్ల": 6843,
      "శాతం": 6844,
      "మరమ్మ": 6845,
      "అనధిక": 6846,
      "స్వేచ్ఛగా": 6847,
      "యంత్రాలు": 6848,
      "సెన్స": 6849,
      "ఆదర్శ": 6850,
      "##రాను": 6851,
      "##నిర్మ": 6852,
      "నియా": 6853,
      "రిట": 6854,
      "చేశాడని": 6855,
      "రూపొందించడం": 6856,
      "పైథాన్": 6857,
      "అంశాల": 6858,
      "కుక్కను": 6859,
      "గెలాక్": 6860,
      "నిలబడి": 6861,
      "ఆస్తి": 6862,
      "సూక్ష్మ": 6863,
      "500": 6864,
      "ఊహా": 6865,
      "వస్తాను": 6866,
      "##లంబ": 6867,
      "నిమ్మ": 6868,
      "ఉపశ": 6869,
      "తెలుసుకోవాలి": 6870,
      "మార్పును": 6871,
      "హామీ": 6872,
      "డెసిషన్": 6873,
      "అభ్యర్థి": 6874,
      "సెల్ఫ్": 6875,
      "అభిరుచు": 6876,
      "పోర్ట": 6877,
      "చిరునవ్వు": 6878,
      "ప్రముఖ": 6879,
      "ఒకవేళ": 6880,
      "స్టీ": 6881,
      "చూస్తున్నారు": 6882,
      "చిన్నది": 6883,
      "స్నేహితులను": 6884,
      "కాల్చిన": 6885,
      "పునరుత్పత్తి": 6886,
      "ఎన్ఎల్": 6887,
      "తుపాకీ": 6888,
      "##యిన": 6889,
      "##రును": 6890,
      "స్పూ": 6891,
      "దేశంలో": 6892,
      "శాస్త్రం": 6893,
      "భాగస్వామ్య": 6894,
      "వాహనాల": 6895,
      "కళాకారు": 6896,
      "బ్యాంకింగ్": 6897,
      "ఆర్కిటెక్చర్": 6898,
      "ఆరో": 6899,
      "నైట్": 6900,
      "లేనప్పుడు": 6901,
      "##ాలనుకునే": 6902,
      "సంకో": 6903,
      "లోకి": 6904,
      "రిగ్రెషన్": 6905,
      "సెక": 6906,
      "ప్రక్రియలు": 6907,
      "##లవారీ": 6908,
      "సంభావ్యతను": 6909,
      "పదార్థం": 6910,
      "సీజన్": 6911,
      "పర్యవేక్షించడం": 6912,
      "కార్యక్రమాలు": 6913,
      "విశ్వసనీయత": 6914,
      "ఆస్ట్రేలియాకు": 6915,
      "హాజర": 6916,
      "రిటర్న్": 6917,
      "ఘన": 6918,
      "దాడు": 6919,
      "##టిష్": 6920,
      "##పాక్షిక": 6921,
      "కింగ్": 6922,
      "పాత్రను": 6923,
      "నీటిలో": 6924,
      "198": 6925,
      "సామర్థ్యాలు": 6926,
      "ఆస్వాది": 6927,
      "సమతుల్యత": 6928,
      "రేఖీయ": 6929,
      "రెండింటినీ": 6930,
      "ఎదుర్కోవటానికి": 6931,
      "ఆమోదించ": 6932,
      "మరికొన్ని": 6933,
      "మించి": 6934,
      "నేటి": 6935,
      "నిందించ": 6936,
      "సంగ్రహ": 6937,
      "రాత్ర": 6938,
      "క్రమంగా": 6939,
      "##కున్నప్పుడు": 6940,
      "ప్రణాళికలు": 6941,
      "ప్రేక్షకుల": 6942,
      "పక్షులు": 6943,
      "చెప్పేది": 6944,
      "సంకల్పం": 6945,
      "తార్కిక": 6946,
      "##సిన్": 6947,
      "పరివర్తన": 6948,
      "##వేశం": 6949,
      "సృష్టించడంలో": 6950,
      "##ూర్పు": 6951,
      "అంతరించి": 6952,
      "##ధిస్తుంది": 6953,
      "అంశంపై": 6954,
      "సంఖ్యలు": 6955,
      "##పడ్డారు": 6956,
      "చట్టపరమైన": 6957,
      "ద్వేషిస్తున్నాను": 6958,
      "ఎలక్ట్రానిక్స్": 6959,
      "వడ్డీ": 6960,
      "వార్తాపత్రి": 6961,
      "ఫిల్టర్": 6962,
      "సహానుభూతి": 6963,
      "ఇసుక": 6964,
      "అబ": 6965,
      "వాల్": 6966,
      "##పోవడం": 6967,
      "ఉండమని": 6968,
      "##కుంటున్నాము": 6969,
      "##రాన్": 6970,
      "పేరా": 6971,
      "నిర్వహి": 6972,
      "అందుకే": 6973,
      "మీడియం": 6974,
      "ఒకటిగా": 6975,
      "194": 6976,
      "విశ్వా": 6977,
      "ప్రింటర్": 6978,
      "సూత్రం": 6979,
      "జవాబుదారీ": 6980,
      "టెలివిజన్": 6981,
      "ఎము": 6982,
      "ఫే": 6983,
      "గులా": 6984,
      "కనుగొంట": 6985,
      "శిశ": 6986,
      "యూరో": 6987,
      "##య్యాడు": 6988,
      "చదరపు": 6989,
      "వార్తలు": 6990,
      "లైఫ్": 6991,
      "నిబంధనలు": 6992,
      "సారూప్యత": 6993,
      "ఆడు": 6994,
      "రకాన్ని": 6995,
      "##వస": 6996,
      "##‌గా": 6997,
      "##ొప్పి": 6998,
      "##ాయింపు": 6999,
      "స్నా": 7000,
      "క్రియా": 7001,
      "క్లియర్": 7002,
      "ప్రదర్శించే": 7003,
      "నష్టాన్ని": 7004,
      "కెనడియన్": 7005,
      "మనస్సును": 7006,
      "తృణధాన్య": 7007,
      "సలాడ్": 7008,
      "జర్": 7009,
      "##ించాలనుకుంటున్నాను": 7010,
      "##ించగలను": 7011,
      "పెరిగింది": 7012,
      "##వుతాయి": 7013,
      "ప్రారంభించారు": 7014,
      "సోర్స్": 7015,
      "అభివృద్ధిని": 7016,
      "సెటప్": 7017,
      "పెంచే": 7018,
      "భోజనాన్ని": 7019,
      "స్మార్ట్ఫోన్": 7020,
      "భిన్నమైన": 7021,
      "చేయగలిగే": 7022,
      "కాల్చడం": 7023,
      "దంత": 7024,
      "ఫె": 7025,
      "##రె": 7026,
      "దీనిలో": 7027,
      "అమ్మకాల": 7028,
      "స్నేహితులతో": 7029,
      "శ్రేణిని": 7030,
      "క్రూ": 7031,
      "ఎడారి": 7032,
      "గ్యాస్": 7033,
      "..": 7034,
      "ఇస్తాను": 7035,
      "##ఎఫ్": 7036,
      "##ండిన": 7037,
      "##షిప్": 7038,
      "పేలవ": 7039,
      "రిజర్": 7040,
      "ఆకర్షి": 7041,
      "నమూనాల": 7042,
      "##వేయండి": 7043,
      "దుస్తులను": 7044,
      "##స్తున్నాడని": 7045,
      "బోస్టన్లో": 7046,
      "దెబ్బతి": 7047,
      "ఫారెన్": 7048,
      "గిన్నెలో": 7049,
      "గెలాక్సీ": 7050,
      "ఎన్ఎల్పి": 7051,
      "##డూ": 7052,
      "##\".": 7053,
      "##త్సా": 7054,
      "నుంచ": 7055,
      "అవలంబ": 7056,
      "నీడ": 7057,
      "క్షే": 7058,
      "నెట్వర్": 7059,
      "##స్క్రిప్": 7060,
      "నియమాలను": 7061,
      "పొరపాటు": 7062,
      "నిబంధన": 7063,
      "అభినంది": 7064,
      "జ్ఞాపకశక్తి": 7065,
      "సంకోచ": 7066,
      "ఆకులు": 7067,
      "మాను": 7068,
      "చేయబడ్డ": 7069,
      "##ాలనుకుంటే": 7070,
      "స్త": 7071,
      "##క్షకులు": 7072,
      "పెడ": 7073,
      "చేసుకోవ": 7074,
      "బోర్డ్": 7075,
      "చూడాలని": 7076,
      "ఉత్తీర్ణ": 7077,
      "సంరక్షణలో": 7078,
      "సందర్భాల్లో": 7079,
      "వెచ్చగా": 7080,
      "సగం": 7081,
      "సన్నని": 7082,
      "ఫ్రీక్వ": 7083,
      "ఫ్రీక్వెన్సీ": 7084,
      "పరా": 7085,
      "##రితమైన": 7086,
      "ఎవరికి": 7087,
      "పర్యవస": 7088,
      "చేశాయి": 7089,
      "అడా": 7090,
      "ఫీల్డ్": 7091,
      "పాఠ్య": 7092,
      "నెర": 7093,
      "మొదటిసారి": 7094,
      "##బద్ధమైన": 7095,
      "##ఫోర్ని": 7096,
      "అతిగా": 7097,
      "లభ్యత": 7098,
      "కాలిఫోర్ని": 7099,
      "క్లాసిక్": 7100,
      "అమర్చ": 7101,
      "నచ్చిందా": 7102,
      "చక్రం": 7103,
      "##దురు": 7104,
      "స్క్": 7105,
      "చింత": 7106,
      "కుండ": 7107,
      "ఉంటుందో": 7108,
      "అంతు": 7109,
      "బలాలు": 7110,
      "199": 7111,
      "అమ్మకాలను": 7112,
      "ధరను": 7113,
      "టాస్క్": 7114,
      "వృత్త": 7115,
      "రావాలని": 7116,
      "ఆసక్తులు": 7117,
      "##్యులర్": 7118,
      "శాకాహారి": 7119,
      "అటువంటి": 7120,
      "జరిగే": 7121,
      "పదు": 7122,
      "పడక": 7123,
      "శక్": 7124,
      "##దలకు": 7125,
      "##నైన": 7126,
      "##లుప్": 7127,
      "చేయి": 7128,
      "##ానాలను": 7129,
      "క్లుప్": 7130,
      "చూస్తాను": 7131,
      "వెళ్తాడు": 7132,
      "పోర్ట్": 7133,
      "సమస్యల": 7134,
      "మాట్లాడాలి": 7135,
      "వ్యక్తీకరించ": 7136,
      "కంపెనీకి": 7137,
      "నోట్": 7138,
      "అయ్యాడు": 7139,
      "జోక్యం": 7140,
      "బహిర్గ": 7141,
      "పాల్గొనడానికి": 7142,
      "నిశ్చ": 7143,
      "గ్రేడ్": 7144,
      "అడ్డంకులను": 7145,
      "##సియస్": 7146,
      "అంతేకాక": 7147,
      "నడ": 7148,
      "##ళ్లకు": 7149,
      "సిగ్గు": 7150,
      "మిషన్": 7151,
      "##మేషన్": 7152,
      "వ్యూహాత్మక": 7153,
      "ప్రమాదకర": 7154,
      "ఉద్దేశ్యాన్ని": 7155,
      "ద్రవ": 7156,
      "ఉడికించాలి": 7157,
      "బెదిరింపు": 7158,
      "అస్థిర": 7159,
      "ఆంగ్": 7160,
      "ఇదే": 7161,
      "##ధాని": 7162,
      "నిషే": 7163,
      "సంకర్షణ": 7164,
      "##పోర్": 7165,
      "##లీకరణ": 7166,
      "విద్యను": 7167,
      "చర్యను": 7168,
      "ఉంచాడు": 7169,
      "తేడా": 7170,
      "కాంటాక్ట్": 7171,
      "ఆయుధ": 7172,
      "తీర్చే": 7173,
      "##నిరోధ": 7174,
      "##ంటిక్": 7175,
      "##గలగాలి": 7176,
      "పొందింది": 7177,
      "చేశారో": 7178,
      "గుర్తించడంలో": 7179,
      "అత్యు": 7180,
      "సహజమైన": 7181,
      "##ంప్రతి": 7182,
      "చరిత్రలో": 7183,
      "లభిస్తుంది": 7184,
      "స్వయంప్రతి": 7185,
      "##ించడు": 7186,
      "##ించవద్దు": 7187,
      "##న్నాడో": 7188,
      "##ినందుకు": 7189,
      "##రించాడు": 7190,
      "##ెక్టర్": 7191,
      "బిడ్డ": 7192,
      "ఇన్సు": 7193,
      "లాజి": 7194,
      "ప్రయత్నించడం": 7195,
      "195": 7196,
      "గతంలో": 7197,
      "అపాయింట్": 7198,
      "కనిపిస్తాడు": 7199,
      "డెవలపర్లు": 7200,
      "ప్రయోజనకరంగా": 7201,
      "సన్నగా": 7202,
      "రోడ్డు": 7203,
      "##గ్రాఫ్": 7204,
      "వస్తే": 7205,
      "ఉపయోగించబడతాయి": 7206,
      "రూపొందించడంలో": 7207,
      "శిఖ": 7208,
      "అలస": 7209,
      "ఎంచుకోవచ్చు": 7210,
      "నివారణ": 7211,
      "మైలు": 7212,
      "సంతోషం": 7213,
      "వృధా": 7214,
      "పంచుకునే": 7215,
      "జాగ్రత్త": 7216,
      "పట్టింది": 7217,
      "తదను": 7218,
      "##బెట్టి": 7219,
      "##్రయం": 7220,
      "వినా": 7221,
      "##విగా": 7222,
      "ముక్కు": 7223,
      "వేడు": 7224,
      "ప్రాంతాల్లో": 7225,
      "##చర్యం": 7226,
      ":**.": 7227,
      "చూపించాడు": 7228,
      "అనుసరించండి": 7229,
      "రైడ్": 7230,
      "దృశ్యాలను": 7231,
      "హక్కులు": 7232,
      "నాయకుడు": 7233,
      "చెప్పినది": 7234,
      "స్థిరత్వం": 7235,
      "అనువర్తనాన్ని": 7236,
      "కదిల": 7237,
      "విద్యుత్తును": 7238,
      "మాన్యువల్": 7239,
      "చేయబడ": 7240,
      "కోట": 7241,
      "వైట్": 7242,
      "పుస్తకాలను": 7243,
      "చేయగలనని": 7244,
      "యాజ": 7245,
      "అనవసర": 7246,
      "##కల్పనను": 7247,
      "##స్తున్నానని": 7248,
      "నిష్పాక్షిక": 7249,
      "ప్రతిబింబించే": 7250,
      "క్యాంపింగ్": 7251,
      "##తురస్రాకార": 7252,
      "ఎడి": 7253,
      "ఫైల్": 7254,
      "##ల్నెస్": 7255,
      "మెకాని": 7256,
      "పుట్ట": 7257,
      "సమయాల్లో": 7258,
      "ఆరోగ్యంపై": 7259,
      "తేలింది": 7260,
      "అక్కడే": 7261,
      "నియంత్రి": 7262,
      "ప్రసారం": 7263,
      "వాస్తవిక": 7264,
      "గ్రూపు": 7265,
      "ఏజెంట్": 7266,
      "గడ్డి": 7267,
      "పరిరక్షణ": 7268,
      "గులాబీ": 7269,
      "తదనుగుణంగా": 7270,
      "భరించ": 7271,
      "##డర్లు": 7272,
      "##గానే": 7273,
      "##ందరం": 7274,
      "వేగాన్ని": 7275,
      "##య్యి": 7276,
      "ఆశ్చర్యం": 7277,
      "పర్యవేక్షించడానికి": 7278,
      "చాట్బాట్": 7279,
      "స్వయంప్రతిపత్తి": 7280,
      "యాజమా": 7281,
      "గ్లూ": 7282,
      "ట్రె": 7283,
      "తూర్పు": 7284,
      "##ుడి": 7285,
      "డిప": 7286,
      "కంపో": 7287,
      "ముఖ్యమో": 7288,
      "##తంత్": 7289,
      "రిమై": 7290,
      "చేసుకోవాలి": 7291,
      "రేట్లు": 7292,
      "ఎన్క్రిప్": 7293,
      "పారిస్": 7294,
      "ధరించాడు": 7295,
      "సాహస": 7296,
      "భవనం": 7297,
      "నిబంధనలను": 7298,
      "రెసిపీని": 7299,
      "ఎలిమెంట్": 7300,
      "బ్రిటిష్": 7301,
      "టమోటాలు": 7302,
      "స్వాతంత్": 7303,
      "సరసమైన": 7304,
      "##నిరోధక": 7305,
      "చము": 7306,
      "##జ్యూ": 7307,
      "కొర": 7308,
      "తీసుకుంటుంది": 7309,
      "అర్థవంతమైన": 7310,
      "సాధనంగా": 7311,
      "మరలా": 7312,
      "పడవ": 7313,
      "కార్యక్రమాలను": 7314,
      "చేర్చండి": 7315,
      "ఆధారపడటాన్ని": 7316,
      "మిశ్రమాన్ని": 7317,
      "చైనీస్": 7318,
      "ఫర్ని": 7319,
      "##్యారీ": 7320,
      "కొవ్వు": 7321,
      "అనువ": 7322,
      "ఇవ్వాలి": 7323,
      "##తున్నారని": 7324,
      "ఉద్యోగాన్ని": 7325,
      "తగ్గింపు": 7326,
      "నివాసి": 7327,
      "గ్రామీ": 7328,
      "రోగనిరోధక": 7329,
      "బయలుదేరాడు": 7330,
      "పట్టణంలో": 7331,
      "గుర్తింపును": 7332,
      "రాలే": 7333,
      "ఆలిస్": 7334,
      "మరెన్నో": 7335,
      "సబ్జెక్టు": 7336,
      "##టేషన్": 7337,
      "##రుకు": 7338,
      "ప్రమోట్": 7339,
      "కోలు": 7340,
      "##మిలీ": 7341,
      "##వేసాడు": 7342,
      "తగ్గిన": 7343,
      "ఇష్టపడతాను": 7344,
      "మేధోమ": 7345,
      "స్థాయిని": 7346,
      "నివసిస్తున్నారు": 7347,
      "నమ్ముతారు": 7348,
      "చెబుతుంది": 7349,
      "వర్గీకరించడానికి": 7350,
      "పునర్వినియోగ": 7351,
      "##క్రమణ": 7352,
      "మట్టాలు": 7353,
      "మసాలా": 7354,
      "మేధోమథ": 7355,
      "కరిగి": 7356,
      "విసుగు": 7357,
      "##ాలనుకున్నాను": 7358,
      "సమర్ప": 7359,
      "##కుంటున్నాడు": 7360,
      "వివరి": 7361,
      "##దారులకు": 7362,
      "##వర్స్": 7363,
      "కనుగొన్నాను": 7364,
      "కారణాలను": 7365,
      "పరిస్థితుల": 7366,
      "నేర్చుకునే": 7367,
      "##తున్నానని": 7368,
      "అసాధ్యం": 7369,
      "రక్తపోటు": 7370,
      "పెరుగుదలను": 7371,
      "వినోదం": 7372,
      "దెబ్బతీ": 7373,
      "కచేరీ": 7374,
      "వెడల్పు": 7375,
      "అబద్ద": 7376,
      "పేరాగ్రాఫ్": 7377,
      "అలసట": 7378,
      "ఐఓ": 7379,
      "##ందారు": 7380,
      "##టిన్": 7381,
      "ఒకదాన్ని": 7382,
      "##పియన్": 7383,
      "రెడ్": 7384,
      "ఉంటాడని": 7385,
      "ప్రేక్షకులు": 7386,
      "స్పూన్": 7387,
      "అయస్కాంత": 7388,
      "స్నేహం": 7389,
      "ఎంచుకోవడానికి": 7390,
      "గాలిని": 7391,
      "ఇంధనాలను": 7392,
      "పరిశ్రమలలో": 7393,
      "ఒకరికొక": 7394,
      "ప్రాధాన్యతలను": 7395,
      "ఎడ్యు": 7396,
      "చొప్ప": 7397,
      "అధికారిక": 7398,
      "బహిర్గతం": 7399,
      "ఒకరికొకరు": 7400,
      "ఏం": 7401,
      "శబ్ద": 7402,
      "##త్యం": 7403,
      "##బే": 7404,
      "##చ్చా": 7405,
      "కావల్": 7406,
      "కావాలా": 7407,
      "న్యూస్": 7408,
      "భయపడ్డాడు": 7409,
      "నివారించడం": 7410,
      "పెంచుతాయి": 7411,
      "పర్సన": 7412,
      "సహకారాన్ని": 7413,
      "ఖాళీగా": 7414,
      "పచ్చని": 7415,
      "ఆకట్టుకునే": 7416,
      "షిప్పింగ్": 7417,
      "స్పీచ్": 7418,
      "నియామ": 7419,
      "ఫర్నిచర్": 7420,
      "మడ": 7421,
      "రన్": 7422,
      "సంచు": 7423,
      "##రండి": 7424,
      "##జో": 7425,
      "##న్నడూ": 7426,
      "చేయకూడదని": 7427,
      "##న్నానని": 7428,
      "##ోజన్": 7429,
      "పొల": 7430,
      "తగ్గడానికి": 7431,
      "తిరగ": 7432,
      "వహించే": 7433,
      "రెండవది": 7434,
      "అడిగిన": 7435,
      "యజమానులు": 7436,
      "క్లుప్తంగా": 7437,
      "కావల్సిన": 7438,
      "##దగ": 7439,
      "##స్తమ": 7440,
      "కేస్": 7441,
      "నాణ్యమైన": 7442,
      "ఇతరులను": 7443,
      "కిలోమీటర్": 7444,
      "##మందరం": 7445,
      "##టె": 7446,
      "చేయడు": 7447,
      "చెట్లను": 7448,
      "చూసే": 7449,
      "స్వభావ": 7450,
      "సాధించడంలో": 7451,
      "చేయగలడు": 7452,
      "సంస్థలకు": 7453,
      "ప్రయత్నించాను": 7454,
      "రాజ్యా": 7455,
      "మర్చిపోయాను": 7456,
      "పునరుద్ధరణ": 7457,
      "సూర్యుని": 7458,
      "చోట": 7459,
      "మీడియాను": 7460,
      "డోర్": 7461,
      "ఇన్వెంట": 7462,
      "క్షేత్ర": 7463,
      "స్త్రీ": 7464,
      "21": 7465,
      "ఎనిమి": 7466,
      "థర్": 7467,
      "##పరీ": 7468,
      "##సెల్": 7469,
      "నేషనల్": 7470,
      "##మిని": 7471,
      "సిరీస్": 7472,
      "రెజ్యూ": 7473,
      "మిస్": 7474,
      "రెండుసార్లు": 7475,
      "తీసుకురండి": 7476,
      "దుర": 7477,
      "లైట్లు": 7478,
      "జోడించవచ్చు": 7479,
      "నష్టాలను": 7480,
      "యుద్ధంలో": 7481,
      "ఉపాధ్యాయ": 7482,
      "గ్రామీణ": 7483,
      "గణితం": 7484,
      "రాయడానికి": 7485,
      "గేమింగ్": 7486,
      "##గలిగా": 7487,
      "అడిగారు": 7488,
      "విభజించండి": 7489,
      "చాట్బో": 7490,
      "ప్రవాహం": 7491,
      "సంపద": 7492,
      "వైశాల్యం": 7493,
      "ఇక్కడి": 7494,
      "##ాలులు": 7495,
      "మెరి": 7496,
      "ప్రయత్నిస్తున్నాను": 7497,
      "##ధిప": 7498,
      "పట్టణం": 7499,
      "ప్రశ్నల": 7500,
      "సినిమాలు": 7501,
      "క్రీం": 7502,
      "సందేశాలను": 7503,
      "క్వి": 7504,
      "డాలర్": 7505,
      "పరిశీలి": 7506,
      "##ంటికీ": 7507,
      "సమ్మిళిత": 7508,
      "టచ్": 7509,
      "డ్యా": 7510,
      "దట్ట": 7511,
      "పండ్": 7512,
      "##గస": 7513,
      "##నియా": 7514,
      "##బ్ల": 7515,
      "##రాజ్య": 7516,
      "తెలుసుకోండి": 7517,
      "వ్యవస్థీక": 7518,
      "వ్యక్తిగతంగా": 7519,
      "కనుగొనడంలో": 7520,
      "##డాది": 7521,
      "ఇతరులు": 7522,
      "క్రీడా": 7523,
      "దృశ్యపరంగా": 7524,
      "సమతుల్యం": 7525,
      "ట్రావ": 7526,
      "నివేదించ": 7527,
      "నెలల": 7528,
      "అడ్వర్": 7529,
      "షెల్ఫ్": 7530,
      "##మండల": 7531,
      "సజీవంగా": 7532,
      "క్యాప్": 7533,
      "రకాలు": 7534,
      "##మైన్": 7535,
      "##కర్త": 7536,
      "కొనాలను": 7537,
      "##పోయాము": 7538,
      "మనమందరం": 7539,
      "జాబితాలో": 7540,
      "చేరుకునే": 7541,
      "భావిస్తున్నారు": 7542,
      "పదబంధం": 7543,
      "మేధోమథనం": 7544,
      "కణం": 7545,
      "ఫంక్ష": 7546,
      "శైలు": 7547,
      "##ాగ్ర": 7548,
      "చేసుకున్నారు": 7549,
      "ముగిసింది": 7550,
      "అడగడానికి": 7551,
      "చూసుకోవడం": 7552,
      "చూపుతాయి": 7553,
      "కనీస": 7554,
      "లెటర్": 7555,
      "ధోరణులను": 7556,
      "సెల్సియస్": 7557,
      "సంస్కృతిని": 7558,
      "బాల": 7559,
      "##వశా": 7560,
      "##లంగా": 7561,
      "##ాలయం": 7562,
      "##ాలనుకోవడం": 7563,
      "##ారులు": 7564,
      "చిత్": 7565,
      "చూస్తారు": 7566,
      "మెరుగుపరిచే": 7567,
      "రూపొందించబడ్డాయి": 7568,
      "సెంట": 7569,
      "లాగి": 7570,
      "కోరుకోలేదు": 7571,
      "లిల్లీ": 7572,
      "ఆడటానికి": 7573,
      "పోషిస్తాయి": 7574,
      "కొలవడానికి": 7575,
      "అధ్యక్షుడు": 7576,
      "లండన్": 7577,
      "ఫ్రై": 7578,
      "##చరు": 7579,
      "##మతి": 7580,
      "##ించాల్సి": 7581,
      "##సివ్": 7582,
      "స్వీకరించడానికి": 7583,
      "##ైన్మెంట్": 7584,
      "వైపరీ": 7585,
      "తాక": 7586,
      "సైని": 7587,
      "ప్రణాళికలను": 7588,
      "##జికల్": 7589,
      "సంప్రదింపు": 7590,
      "రోబోటిక్స్": 7591,
      "వాతావరణంలోకి": 7592,
      "నవీకరించ": 7593,
      "ప్యాకేజీ": 7594,
      "వర్తింపజేయ": 7595,
      "##ళం": 7596,
      "##ినా": 7597,
      "వేసు": 7598,
      "##టులు": 7599,
      "మూసు": 7600,
      "రిఫ్రి": 7601,
      "##జిల్స్": 7602,
      "##సాఫ్ట్": 7603,
      "ఉత్పత్తికి": 7604,
      "చిన్నవాడు": 7605,
      "అంశాన్ని": 7606,
      "చూశారు": 7607,
      "కమ్యూనికేషన్ను": 7608,
      "ఆశిస్తున్నాము": 7609,
      "పాయింట్లను": 7610,
      "చక్కగా": 7611,
      "స్టార్టప్": 7612,
      "మైక్రోసాఫ్ట్": 7613,
      "##కొకటి": 7614,
      "శాశ్వత": 7615,
      "పిజ్జా": 7616,
      "లైసెన్స్": 7617,
      "క్రియాశీల": 7618,
      "ఏడాది": 7619,
      "##య్యం": 7620,
      "##తక": 7621,
      "##మెన్": 7622,
      "##్యాధ": 7623,
      "చూద్దాం": 7624,
      "వినియోగదారులతో": 7625,
      "స్నేహితుల": 7626,
      "అక్షరాలు": 7627,
      "కళాశాల": 7628,
      "##టైజింగ్": 7629,
      "క్రియేట్": 7630,
      "ఆటోమేటెడ్": 7631,
      "రిఫ్రిజి": 7632,
      "45": 7633,
      "##నకు": 7634,
      "##బర": 7635,
      "##లోడ్": 7636,
      "##టికల్": 7637,
      "పెన్ను": 7638,
      "మురికి": 7639,
      "మెయి": 7640,
      "##బ్దాలు": 7641,
      "అందించిన": 7642,
      "నీటితో": 7643,
      "సూచిక": 7644,
      "సందర్భం": 7645,
      "పాఠశాలలు": 7646,
      "స్కేల": 7647,
      "బస్సులో": 7648,
      "ప్రమోషన్": 7649,
      "నిరాకరించాడు": 7650,
      "పెన్సిల్": 7651,
      "విమానాశ్రయ": 7652,
      "ఓవెన్": 7653,
      "పక్షి": 7654,
      "లొ": 7655,
      "##ట్రా": 7656,
      "సందే": 7657,
      "పాప్": 7658,
      "స్వరం": 7659,
      "ప్రయత్నాలు": 7660,
      "శాఖ": 7661,
      "వ్యక్తం": 7662,
      "ఫోట": 7663,
      "ఫిక్షన్": 7664,
      "విషయాన్ని": 7665,
      "భూమిని": 7666,
      "అధ్యయన": 7667,
      "వాహనాలు": 7668,
      "వారాంతంలో": 7669,
      "స్లైడ్": 7670,
      "దురదృష్ట": 7671,
      "అప్పు": 7672,
      "ఎంట": 7673,
      "చార్": 7674,
      "తలన": 7675,
      "##మిక్స్": 7676,
      "డిఎన్ఎ": 7677,
      "మనస్త": 7678,
      "##ట్లుగా": 7679,
      "వాతావరణానికి": 7680,
      "సాధి": 7681,
      "కనుగొనవచ్చు": 7682,
      "ఉపయోగిస్తున్నారు": 7683,
      "నెట్ట": 7684,
      "మైళ్ళు": 7685,
      "ఆలోచించండి": 7686,
      "కార్డులు": 7687,
      "అసిస్టెంట్లు": 7688,
      "సరిపోతుంది": 7689,
      "కల్పించడం": 7690,
      "ప్రమాణాలను": 7691,
      "డేటింగ్": 7692,
      "ప్రతిపాదించ": 7693,
      "##ల్యూషన్": 7694,
      "తాత్కాలిక": 7695,
      "శిశువు": 7696,
      "తలనొప్పి": 7697,
      "మలుపు": 7698,
      "##వరి": 7699,
      "##దూ": 7700,
      "##షీ": 7701,
      "ప్రూ": 7702,
      "నిబద్ధ": 7703,
      "##ంగాన్ని": 7704,
      "పరిపూర్ణ": 7705,
      "ఉన్నవారికి": 7706,
      "కార్పొ": 7707,
      "కారకాలు": 7708,
      "##మూల": 7709,
      "##ందాన్ని": 7710,
      "తప్పని": 7711,
      "బోస్టన్‌ను": 7712,
      "ఆశించిన": 7713,
      "పరిశ్రమలు": 7714,
      "ప్రొఫైల్": 7715,
      "జంతువులను": 7716,
      "##లేకపోయాను": 7717,
      "లావాదేవీలను": 7718,
      "సంభాషించడానికి": 7719,
      "ఒకదానికొకటి": 7720,
      "నిరుద్యోగ": 7721,
      "ప్రోటోకాల్": 7722,
      "చమురు": 7723,
      "కరి": 7724,
      "జరి": 7725,
      "ఫన్నీ": 7726,
      "వండ": 7727,
      "సన్": 7728,
      "##్యానికి": 7729,
      "##ండిల్": 7730,
      "##యాత్ర": 7731,
      "స్పీక": 7732,
      "అధికార": 7733,
      "సంవత్సరానికి": 7734,
      "సూచిస్తాయి": 7735,
      "సాహసం": 7736,
      "బిల్డింగ్": 7737,
      "కళ్ళ": 7738,
      "బ్రో": 7739,
      "మూర్": 7740,
      "##ోంది": 7741,
      "##కలను": 7742,
      "##క్కల": 7743,
      "##స్ట్రీ": 7744,
      "రాజీ": 7745,
      "అందించవచ్చు": 7746,
      "ఫోర్": 7747,
      "వినండి": 7748,
      "వృక్ష": 7749,
      "ఇంధనం": 7750,
      "ఎదురుచూ": 7751,
      "అణువు": 7752,
      "తీసుకుంటాను": 7753,
      "పూర్తయిన": 7754,
      "డెవలప్మెంట్": 7755,
      "విశ్వవిద్యాలయ": 7756,
      "దుర్వి": 7757,
      "అడ్వర్టైజింగ్": 7758,
      "వైపరీత్య": 7759,
      "క్యాల": 7760,
      "శ్రామిక": 7761,
      "##,.": 7762,
      "అవయ": 7763,
      "##కాడో": 7764,
      "డేటాకు": 7765,
      "మిళ": 7766,
      "పర్యటన": 7767,
      "విస్తరణ": 7768,
      "వస్తువును": 7769,
      "నెలవారీ": 7770,
      "రీస": 7771,
      "నిర్మించండి": 7772,
      "ప్రతిస్పందనలను": 7773,
      "ఆసుపత్రిలో": 7774,
      "మూడేళ్ల": 7775,
      "విప్లవం": 7776,
      "వినాశ": 7777,
      "ధరి": 7778,
      "##కంప": 7779,
      "చేయవద్దని": 7780,
      "##పోతాయి": 7781,
      "ఉద్యోగాలు": 7782,
      "యూజ్": 7783,
      "పాఠం": 7784,
      "నేర్చుకోవ": 7785,
      "ఉద్భవ": 7786,
      "విషయంలో": 7787,
      "సమూహాన్ని": 7788,
      "పక్షపాతం": 7789,
      "బేసి": 7790,
      "అలవాట్లను": 7791,
      "##బిలిటీని": 7792,
      "2013": 7793,
      "గ్లాసు": 7794,
      "తప్పనిస": 7795,
      "అన్నారు": 7796,
      "తడి": 7797,
      "షీట్": 7798,
      "##ంతృ": 7799,
      "కొన్న": 7800,
      "చెప్పారా": 7801,
      "భూకంప": 7802,
      "##కుంటాయి": 7803,
      "కోల్పోయిన": 7804,
      "రాజధాని": 7805,
      "ముక్కలుగా": 7806,
      "వాదనను": 7807,
      "సమీకరణం": 7808,
      "నిషేధ": 7809,
      "హ్యారీ": 7810,
      "##సని": 7811,
      "##రియన్": 7812,
      "నిస్": 7813,
      "##మాగా": 7814,
      "##చేసిన": 7815,
      "తెలుసని": 7816,
      "##స్తున్నారో": 7817,
      "సెషన్": 7818,
      "చర్యలకు": 7819,
      "ఫిషింగ్": 7820,
      "నెలలో": 7821,
      "అతిథ": 7822,
      "చేయలేరు": 7823,
      "జోక్": 7824,
      "సంతృప్తికరమైన": 7825,
      "నిర్ణయించుకున్నాను": 7826,
      "కనిపిస్తోంది": 7827,
      "తేలికగా": 7828,
      "పిలిచాడు": 7829,
      "వెళ్లారు": 7830,
      "ఆబ్జెక్ట్": 7831,
      "అరటిప": 7832,
      "అమ్ము": 7833,
      "దైన": 7834,
      "మతం": 7835,
      "యాని": 7836,
      "##దనం": 7837,
      "##ీత": 7838,
      "##తోందని": 7839,
      "ఉపయోగకరమైన": 7840,
      "##రేఖ": 7841,
      "వ్యవస్థపై": 7842,
      "బలాన్ని": 7843,
      "యాక్షన్": 7844,
      "సేవలకు": 7845,
      "ఆఫ్రి": 7846,
      "ఆసక్తిగా": 7847,
      "ఉద్గార": 7848,
      "ఎదుర్కొన్న": 7849,
      "ప్రేరేపించడానికి": 7850,
      "సాపేక్షంగా": 7851,
      "థియ": 7852,
      "ప్రొవైడర్": 7853,
      "సౌందర్య": 7854,
      "దైనందిన": 7855,
      "నొక్క": 7856,
      "మంత్ర": 7857,
      "##స్తాడని": 7858,
      "సాధ్యం": 7859,
      "పరిధిని": 7860,
      "##వేషన్": 7861,
      "జీవులు": 7862,
      "##ాగో": 7863,
      "తిరోగ": 7864,
      "అందించాలి": 7865,
      "పెట్టాడు": 7866,
      "వర్షారణ": 7867,
      "భావోద్వేగాలు": 7868,
      "పౌర": 7869,
      "మహిళలు": 7870,
      "చీజ్": 7871,
      "నిజాయితీగా": 7872,
      "టాక్సీ": 7873,
      "రీసెర్చ్": 7874,
      "ఆవ": 7875,
      "కడగ": 7876,
      "##టెన్": 7877,
      "విజి": 7878,
      "##డియం": 7879,
      "సాధించడం": 7880,
      "ఉద్యాన": 7881,
      "దారితీస్తాయి": 7882,
      "ఇష్టపడే": 7883,
      "రీతిలో": 7884,
      "సైడ్": 7885,
      "వినూత్": 7886,
      "హోల్": 7887,
      "పెంపొంది": 7888,
      "మెరుగుపరుస్తాయి": 7889,
      "కూరగాయలను": 7890,
      "సున్నితంగా": 7891,
      "బ్రెడ్": 7892,
      "ఇన్ఫ్లుయెన్సర్": 7893,
      "పేలవమైన": 7894,
      "ఖగోళ": 7895,
      "టెస్ట్": 7896,
      "నవ": 7897,
      "వ్యయం": 7898,
      "అనుబంధ": 7899,
      "ఉండాలనుకుంటున్నాను": 7900,
      "వ్యాసాన్ని": 7901,
      "వ్యాప్తిని": 7902,
      "కస్టమర్లు": 7903,
      "##వర్తి": 7904,
      "సమర్థత": 7905,
      "మెరుగుపరచవచ్చు": 7906,
      "వ్యాపారానికి": 7907,
      "విస్తరించి": 7908,
      "హాస్య": 7909,
      "స్టాక్స్": 7910,
      "నడుపు": 7911,
      "రూమ్": 7912,
      "తెలివిగా": 7913,
      "పాలసీ": 7914,
      "నడపడానికి": 7915,
      "ఫేస్బుక్": 7916,
      "శీతాకాలంలో": 7917,
      "##టప్పుడు": 7918,
      "##జన": 7919,
      "##రికం": 7920,
      "##ించమని": 7921,
      "##ప్రి": 7922,
      "చూసింది": 7923,
      "##పోయాడని": 7924,
      "లాస్": 7925,
      "రుణం": 7926,
      "విశ్వం": 7927,
      "రాజు": 7928,
      "కొట్టడం": 7929,
      "ధోరణి": 7930,
      "వ్యవహరించ": 7931,
      "తీసుకువెళ": 7932,
      "రెగ్యులర్": 7933,
      "తారు": 7934,
      "ఫర్": 7935,
      "సాల": 7936,
      "##ణు": 7937,
      "##ించడాన్ని": 7938,
      "విచిత్ర": 7939,
      "వాది": 7940,
      "సాంద్ర": 7941,
      "చెల్లు": 7942,
      "ఉపయోగంలో": 7943,
      "గాజు": 7944,
      "సంస్థల": 7945,
      "గుర్తులేదు": 7946,
      "టాబ్": 7947,
      "సీటు": 7948,
      "అడగడం": 7949,
      "ఆప్షన్": 7950,
      "చరిత్రను": 7951,
      "పేజీని": 7952,
      "గౌరవం": 7953,
      "బ్రౌజర్": 7954,
      "విమర్శనాత్మక": 7955,
      "##డైన": 7956,
      "బాస్": 7957,
      "నీలి": 7958,
      "నిర్ణయి": 7959,
      "అభివృద్ధిలో": 7960,
      "ఉద్యోగులను": 7961,
      "అమ్మకాలు": 7962,
      "పదార్థాల": 7963,
      "ఆహారాలు": 7964,
      "దేవు": 7965,
      "సానుకూలంగా": 7966,
      "సందర్భాన్ని": 7967,
      "ముక్కలను": 7968,
      "కణాల": 7969,
      "హక్కుల": 7970,
      "న్యాయమైన": 7971,
      "వహించండి": 7972,
      "కూర్పు": 7973,
      "క్రిప్టో": 7974,
      "క్వైరీ": 7975,
      "ఉద్యోగానికి": 7976,
      "ఎనిమిది": 7977,
      "రెజ్యూమె": 7978,
      "లాగిన్": 7979,
      "కరో": 7980,
      "పదే": 7981,
      "##‌కే": 7982,
      "##ినట్లు": 7983,
      "##పుల్": 7984,
      "గురి": 7985,
      "ఇవ్వలేదు": 7986,
      "గదిలోకి": 7987,
      "పంచుకోవడం": 7988,
      "విభజించడం": 7989,
      "పెంపొందించు": 7990,
      "ఎత్తుగా": 7991,
      "ఆకర్షించే": 7992,
      "సంగీతాన్ని": 7993,
      "అధిగమించడానికి": 7994,
      "డయాక్సైడ్ను": 7995,
      "##పూట": 7996,
      "జీవవైవిధ్య": 7997,
      "గమ్యస్థాన": 7998,
      "##ంజ్": 7999,
      "##టరింగ్": 8000,
      "లేవ": 8001,
      "సమానం": 8002,
      "ఉన్నాయో": 8003,
      "భావించాడు": 8004,
      "పనిచేస్తాడు": 8005,
      "అవునా": 8006,
      "ప్రోత్సహి": 8007,
      "భాషలు": 8008,
      "వినలేదు": 8009,
      "ఉష్ణమండల": 8010,
      "పర్స": 8011,
      "కప్పుల": 8012,
      "కొనసాగించండి": 8013,
      "సమానమైన": 8014,
      "##వసరం": 8015,
      "సంభవించే": 8016,
      "ఆనందంగా": 8017,
      "స్ట్రీమింగ్": 8018,
      "ఓడి": 8019,
      "ఖని": 8020,
      "కుమారు": 8021,
      "పొందాడు": 8022,
      "అనిపి": 8023,
      "మనసు": 8024,
      "అనుమాని": 8025,
      "##పరచడానికి": 8026,
      "పెరుగుతాయి": 8027,
      "కథాన": 8028,
      "అనుసరిస్తుంది": 8029,
      "##వ్యవ": 8030,
      "చిట్కాలను": 8031,
      "ప్రీప్రా": 8032,
      "నుంచైనా": 8033,
      "వినూత్న": 8034,
      "లాయ": 8035,
      "##ంగు": 8036,
      "##నెంట్": 8037,
      "##రికే": 8038,
      "##న్నర్": 8039,
      "వాటా": 8040,
      "కోట్": 8041,
      "##మ్మీ": 8042,
      "##పిరి": 8043,
      "నిర్వహించడంలో": 8044,
      "ఆధారాలు": 8045,
      "అనాలి": 8046,
      "మైదా": 8047,
      "లోపాలు": 8048,
      "పునః": 8049,
      "ప్రేక్షకులతో": 8050,
      "చదవండి": 8051,
      "కూరగాయల": 8052,
      "ఆటగాళ్ళు": 8053,
      "పన్నులు": 8054,
      "ప్రకాశవంతంగా": 8055,
      "సమీకరణాన్ని": 8056,
      "స్ట్రక్చర్": 8057,
      "మైండ్ఫు": 8058,
      "మినహ": 8059,
      "##గలుగుతారు": 8060,
      "{.": 8061,
      "ఎగ్": 8062,
      "నృత": 8063,
      "కొన్నారు": 8064,
      "ముద్ర": 8065,
      "చెప్పాడా": 8066,
      "ఆకారం": 8067,
      "ముఖ్యమైనవి": 8068,
      "చేయగలడని": 8069,
      "కష్టపడ": 8070,
      "వైద్యులు": 8071,
      "ఉద్గారాలు": 8072,
      "పరిజ్ఞాన": 8073,
      "మరణం": 8074,
      "సాధ్యమే": 8075,
      "ఊహించని": 8076,
      "శరీరాన్ని": 8077,
      "వాక్యాన్ని": 8078,
      "నివారించడంలో": 8079,
      "ప్రసంగం": 8080,
      "డొమైన్": 8081,
      "కథానాయ": 8082,
      "నృత్యం": 8083,
      "40": 8084,
      "అంగా": 8085,
      "కమాండ్": 8086,
      "##ెక్ష": 8087,
      "##ండ్వి": 8088,
      "ప్రస్త": 8089,
      "వెళ్దాం": 8090,
      "పోలిక": 8091,
      "మాట్లాడుతున్న": 8092,
      "ఎంపికగా": 8093,
      "కుటుంబానికి": 8094,
      "గాలిలో": 8095,
      "బీన్స్": 8096,
      "ఒప్పించే": 8097,
      "అక్షర": 8098,
      "సంపాది": 8099,
      "కెనడా": 8100,
      "తీసుకువచ్చింది": 8101,
      "అద్దెకు": 8102,
      "సమ్మే": 8103,
      "మానుకోండి": 8104,
      "తారుమారు": 8105,
      "అనాలిసిస్": 8106,
      "ఇక్కడికి": 8107,
      "ఇదంతా": 8108,
      "కదల": 8109,
      "వారీ": 8110,
      "##శు": 8111,
      "చేయడాన్ని": 8112,
      "##్యాక్": 8113,
      "##కరెన్సీ": 8114,
      "తిన్నాడు": 8115,
      "వ్యవస్థాప": 8116,
      "##త్వానికి": 8117,
      "చేయగలరని": 8118,
      "క్లబ్": 8119,
      "భావిస్తాడు": 8120,
      "కూర్చుని": 8121,
      "కర్మాగా": 8122,
      "సమీపంలో": 8123,
      "సూర్యుడి": 8124,
      "జనాభాను": 8125,
      "ట్రావెల్": 8126,
      "మిళితం": 8127,
      "క్రిప్టోకరెన్సీ": 8128,
      "ఆచార": 8129,
      "ఇండ": 8130,
      "##ద్యం": 8131,
      "చూపిస్తుంది": 8132,
      "##టీరియా": 8133,
      "##ారిటీ": 8134,
      "సేవ్": 8135,
      "స్పందించ": 8136,
      "అవసరమైనప్పుడు": 8137,
      "సమాజానికి": 8138,
      "తీసుకోవడంలో": 8139,
      "పాడటం": 8140,
      "వస్తాడని": 8141,
      "సిఫార్సులను": 8142,
      "నిపుణులు": 8143,
      "వయసులో": 8144,
      "మైండ్ఫుల్నెస్": 8145,
      "ఆగ్": 8146,
      "##‌బాల్": 8147,
      "మాధ్య": 8148,
      "ఇవ్వగలరా": 8149,
      "జీవితానికి": 8150,
      "రంగును": 8151,
      "ధరల": 8152,
      "##ఫోన్లు": 8153,
      "దొరికి": 8154,
      "అపార్ట్మెంట్": 8155,
      "ఉపాధి": 8156,
      "అభిప్రాయాలను": 8157,
      "ధైర్యం": 8158,
      "విపత్తు": 8159,
      "మందులు": 8160,
      "కొనసాగుతున్న": 8161,
      "ఎదుగుదల": 8162,
      "స్క్రిప్ట్": 8163,
      "రిటైల్": 8164,
      "పర్సనల్": 8165,
      "సమ్మేళ": 8166,
      "బాని": 8167,
      "రంధ": 8168,
      "##ఈఓ": 8169,
      "##గ్రి": 8170,
      "##వాహ": 8171,
      "##కేర్": 8172,
      "డేటాలో": 8173,
      "సిగ్": 8174,
      "స్వల్ప": 8175,
      "ప్రయత్నాలను": 8176,
      "వంటకం": 8177,
      "బేక్": 8178,
      "ధృవీకరణ": 8179,
      "చేస్తున్నప్పుడు": 8180,
      "ప్రకటనను": 8181,
      "తెలివితేట": 8182,
      "డాన్స్": 8183,
      "వసంత": 8184,
      "ఏకాగ్రత": 8185,
      "స్కిల్స్": 8186,
      "జోడిస్తుంది": 8187,
      "ఆదివారం": 8188,
      "స్పూన్ల": 8189,
      "ఉత్తీర్ణత": 8190,
      "అనువదించ": 8191,
      "##్రు": 8192,
      "##రుగ": 8193,
      "##రుస్తుంది": 8194,
      "##రియల్": 8195,
      "##ద్దా": 8196,
      "సహాయపడింది": 8197,
      "జీర్ణ": 8198,
      "ప్రత్యర్థ": 8199,
      "యాత్ర": 8200,
      "సంతోషకరమైన": 8201,
      "##రితనం": 8202,
      "ప్లాట్ఫామ్లు": 8203,
      "##పూరిత": 8204,
      "అథ్ల": 8205,
      "మెయింట": 8206,
      "ప్రూఫ్": 8207,
      "''": 8208,
      "##షన": 8209,
      "##ౌకర్య": 8210,
      "విడ": 8211,
      "##డిద": 8212,
      "##ళ్లుగా": 8213,
      "అవత": 8214,
      "ప్రారంభం": 8215,
      "##కొద్దీ": 8216,
      "వ్యక్త": 8217,
      "##య్యారు": 8218,
      "అసౌకర్య": 8219,
      "ఉండేవాడు": 8220,
      "ఆందోళనను": 8221,
      "తీవ్రత": 8222,
      "ప్రతికూలంగా": 8223,
      "అవుట్పుట్": 8224,
      "మేధస్సును": 8225,
      "సిఫార్సులు": 8226,
      "కొలత": 8227,
      "సొగస": 8228,
      "తరిగినవి": 8229,
      "డిస్ప్లే": 8230,
      "తప్పిపోయిన": 8231,
      "అనుకూలీకరించ": 8232,
      "సెన్సార్": 8233,
      "క్యాలెండర్": 8234,
      "సొగసైన": 8235,
      "గీయ": 8236,
      "పశ్చి": 8237,
      "హలో": 8238,
      "##గరిక": 8239,
      "##ంపి": 8240,
      "అవో": 8241,
      "పోల్": 8242,
      "వినియోగదారుడు": 8243,
      "అధికారం": 8244,
      "టీనే": 8245,
      "దాటి": 8246,
      "197": 8247,
      "కార్యకలాపాలకు": 8248,
      "ప్రదర్శిస్తుంది": 8249,
      "వివరణను": 8250,
      "చట్టాలు": 8251,
      "ప్యాకేజింగ్": 8252,
      "అంకిత": 8253,
      "అంగుళాల": 8254,
      "జబ్బులు": 8255,
      "ఐక్యరాజ్య": 8256,
      "300": 8257,
      "ఆస్తు": 8258,
      "ఉల్లా": 8259,
      "##ులలో": 8260,
      "##నిక్స్": 8261,
      "లేన": 8262,
      "తీర్పు": 8263,
      "మాట్లాడలేదు": 8264,
      "శాండ్": 8265,
      "##ఫిల్": 8266,
      "కేర్": 8267,
      "కథలు": 8268,
      "సైనిక": 8269,
      "అసమ": 8270,
      "మైనింగ్": 8271,
      "బ్యాక్టీరియా": 8272,
      "అనుసరి": 8273,
      "వారాల": 8274,
      "ఎన్నిక": 8275,
      "ఆస్వాదించడానికి": 8276,
      "పరిణామం": 8277,
      "క్రమబద్ధంగా": 8278,
      "పరిమితులు": 8279,
      "యోచి": 8280,
      "అవోకాడో": 8281,
      "చౌక": 8282,
      "డ్రి": 8283,
      "##తానని": 8284,
      "##టంలో": 8285,
      "##ఖండ": 8286,
      "##బొ": 8287,
      "చేస్తున్నాము": 8288,
      "అనుభవి": 8289,
      "##స్టరీ": 8290,
      "వేతన": 8291,
      "మూవీ": 8292,
      "##రంగుల": 8293,
      "స్పర్శ": 8294,
      "వెళ్ళవచ్చు": 8295,
      "మానవుల": 8296,
      "కీని": 8297,
      "అడవులు": 8298,
      "కొనడం": 8299,
      "రంగురంగుల": 8300,
      "చూపించడానికి": 8301,
      "పరీక్షించడానికి": 8302,
      "##గొట్ట": 8303,
      "##రల్డ్": 8304,
      "విజువల్స్": 8305,
      "గడపడానికి": 8306,
      "శతాబ్దం": 8307,
      "మరెవ": 8308,
      "పునర్వినియోగం": 8309,
      "మీడియాలో": 8310,
      "కేంద్రీకృత": 8311,
      "బాలుడు": 8312,
      "పిల్లులు": 8313,
      "థర్మో": 8314,
      "చెల్లుబాటు": 8315,
      "చేతులను": 8316,
      "##ాలనుకుంటున్న": 8317,
      "##డిపి": 8318,
      "##ోజ్": 8319,
      "శాంత": 8320,
      "బలవంతం": 8321,
      "ఉద్యోగాలను": 8322,
      "వెళ్లండి": 8323,
      "వార్త": 8324,
      "సందర్శించండి": 8325,
      "ఇంట్లోనే": 8326,
      "ప్రదేశాలలో": 8327,
      "సంఘటనలను": 8328,
      "త్వరలోనే": 8329,
      "కలయికను": 8330,
      "జాక్సన్": 8331,
      "మెటీరియల్స్": 8332,
      "##విద్యు": 8333,
      "కాంట్రా": 8334,
      "జనాభాలో": 8335,
      "పురుషులు": 8336,
      "గోల్ఫ్": 8337,
      "త్రిభుజం": 8338,
      "రిమైండర్": 8339,
      "60": 8340,
      "ఆడుతు": 8341,
      "ఎదగ": 8342,
      "##దైనా": 8343,
      "##నవసరం": 8344,
      "##తురు": 8345,
      "##ప్లై": 8346,
      "ముగు": 8347,
      "మెత్త": 8348,
      "వెళ్తున్నాను": 8349,
      "వెళ్ళింది": 8350,
      "కనుగొనే": 8351,
      "సైక్లింగ్": 8352,
      "ఏర్పడుతుంది": 8353,
      "పంపండి": 8354,
      "నాయకులు": 8355,
      "నిధులు": 8356,
      "ఇటలీ": 8357,
      "ఆంగ్ల": 8358,
      "అబద్దం": 8359,
      "నార్": 8360,
      "భీ": 8361,
      "##శ్య": 8362,
      "##ోనెంట్": 8363,
      "##ఫా": 8364,
      "##వియ": 8365,
      "మార్చి": 8366,
      "సహాయాన్ని": 8367,
      "##ెక్సి": 8368,
      "విశాల": 8369,
      "ప్రాంతాన్ని": 8370,
      "కాల్స్": 8371,
      "నెట్వర్క్లు": 8372,
      "లీనియర్": 8373,
      "##్యుయ": 8374,
      "ప్రశాంతత": 8375,
      "వ్యతిరేక": 8376,
      "అంతరాయ": 8377,
      "అనువర్తనాలలో": 8378,
      "బహిరంగంగా": 8379,
      "కాంపోనెంట్": 8380,
      "హైడ్రోజన్": 8381,
      "ట్విట్టర్": 8382,
      "గ్లూకో": 8383,
      "రిఫ్రిజిరేటర్": 8384,
      "ఓదా": 8385,
      "తత్వ": 8386,
      "ధరించడం": 8387,
      "హ్యూ": 8388,
      "విడా": 8389,
      "ఉండాల్సిన": 8390,
      "డివై": 8391,
      "##్రేట్": 8392,
      "##తున్నట్లు": 8393,
      "మార్గాలలో": 8394,
      "##బోర్డు": 8395,
      "కోరుకున్నాడు": 8396,
      "అడగలేదు": 8397,
      "సవరణ": 8398,
      "తరగతులు": 8399,
      "పరిమాణంలో": 8400,
      "లెక్క": 8401,
      "సుస్థిరత": 8402,
      "కాలుష్యానికి": 8403,
      "లోగోను": 8404,
      "రిఫ్రె": 8405,
      "విటమిన్లు": 8406,
      "అనవసరమైన": 8407,
      "ఒప్పు": 8408,
      "మరుగు": 8409,
      "##కూర్": 8410,
      "##టంతో": 8411,
      "##ూయ": 8412,
      "####": 8413,
      "##ర్మం": 8414,
      "##ట్రిక్": 8415,
      "##స్తుందా": 8416,
      "##ముల": 8417,
      "కలిశాను": 8418,
      "సుదూ": 8419,
      "అందించడంలో": 8420,
      "ప్రారంభించవచ్చు": 8421,
      "##బోతున్నారు": 8422,
      "లాంచ్": 8423,
      "##బాట్లు": 8424,
      "చేయగలరు": 8425,
      "సంఖ్యలను": 8426,
      "షాప్": 8427,
      "ప్రదేశానికి": 8428,
      "నమూనాకు": 8429,
      "ప్రాతినిధ్య": 8430,
      "స్టాప్": 8431,
      "అకౌ": 8432,
      "కాన్సెప్": 8433,
      "అభిప్రాయాలు": 8434,
      "పరిశీలన": 8435,
      "దినచర్యను": 8436,
      "జీవనశైలిని": 8437,
      "చుట్టుము": 8438,
      "హెచ్చరిక": 8439,
      "అంతులేని": 8440,
      "ఎమ్మా": 8441,
      "##రాని": 8442,
      "##ించబడే": 8443,
      "అనిశ్చి": 8444,
      "##జిప్": 8445,
      "చూడాలి": 8446,
      "భాగంగా": 8447,
      "అమాయ": 8448,
      "తినండి": 8449,
      "మరోసారి": 8450,
      "##దృష్టి": 8451,
      "వంటకాల": 8452,
      "వంటకాలను": 8453,
      "అయినా": 8454,
      "బ్లాక్చె": 8455,
      "తేడాను": 8456,
      "రుచిని": 8457,
      "ఆలోచిస్తున్నాను": 8458,
      "విపరీతమైన": 8459,
      "గ్లూకోజ్": 8460,
      "ఎప్పటి": 8461,
      "కలుపు": 8462,
      "ట్వ": 8463,
      "##భ్రం": 8464,
      "విర": 8465,
      "తగ్గడం": 8466,
      "రేకె": 8467,
      "డిజైనర్": 8468,
      "రావాలి": 8469,
      "పోషకాలు": 8470,
      "నాయకత్వం": 8471,
      "ఊహించుకోండి": 8472,
      "వదిలిపెట్ట": 8473,
      "దృక్పథం": 8474,
      "లాభదాయ": 8475,
      "మూసివే": 8476,
      "దిశగా": 8477,
      "స్కోర్": 8478,
      "స్కోరు": 8479,
      "గడువు": 8480,
      "పారదర్శకత": 8481,
      "##ాలనుకుంటున్నాడు": 8482,
      "టాబ్లెట్": 8483,
      "ఒరి": 8484,
      "ఔష": 8485,
      "ఫల": 8486,
      "##ారక": 8487,
      "##త్పత్తి": 8488,
      "##ానాలు": 8489,
      "వెయి": 8490,
      "చూస్తున్నాడు": 8491,
      "##యాన్నే": 8492,
      "మాట్లాడాలనుకుంటున్నాను": 8493,
      "అందం": 8494,
      "అడవుల": 8495,
      "అసూయ": 8496,
      "తొందర": 8497,
      "మారుస్తుంది": 8498,
      "సంరక్షణకు": 8499,
      "సమాజాన్ని": 8500,
      "ఉదయాన్నే": 8501,
      "స్థానభ్రం": 8502,
      "ప్లేయర్": 8503,
      "భావనలను": 8504,
      "అలసిపోయాను": 8505,
      "నేపథ్యం": 8506,
      "భారతదేశం": 8507,
      "నియంత్రించడంలో": 8508,
      "వరదలు": 8509,
      "జలు": 8510,
      "సార్": 8511,
      "##శాయి": 8512,
      "##్రల్": 8513,
      "##స్తుంటే": 8514,
      "చెట్ల": 8515,
      "రెస్": 8516,
      "వెళ్ళను": 8517,
      "సాధించ": 8518,
      "సామ్రా": 8519,
      "తీసుకుంటారు": 8520,
      "తాకి": 8521,
      "పాత్రల": 8522,
      "ప్రాంతాలకు": 8523,
      "జరిగిందని": 8524,
      "ఆసక్తిని": 8525,
      "సూచనల": 8526,
      "ప్రదేశాలను": 8527,
      "శ్రేయస్సుకు": 8528,
      "కొనసాగి": 8529,
      "ప్రతిస్పందించడానికి": 8530,
      "కార్యాచరణను": 8531,
      "అదృష్టం": 8532,
      "జలుబు": 8533,
      "అసం": 8534,
      "హరికే": 8535,
      "##పన": 8536,
      "##లసి": 8537,
      "##రిడ్": 8538,
      "##త్వంతో": 8539,
      "##ప్ల": 8540,
      "విహార": 8541,
      "##వారిని": 8542,
      "కురి": 8543,
      "రిప్ర": 8544,
      "బోల్డ్": 8545,
      "బియ్యం": 8546,
      "కాలంలో": 8547,
      "కీట": 8548,
      "టీచర్": 8549,
      "వెళ్లాలనుకుంటున్నాను": 8550,
      "మోడల్స్": 8551,
      "మోడలింగ్": 8552,
      "##సైట్లు": 8553,
      "వంటకాలు": 8554,
      "పరిష్కరించే": 8555,
      "పేజీలో": 8556,
      "కార్యక్రమం": 8557,
      "లెక్కించడానికి": 8558,
      "రుచికి": 8559,
      "ఆహ్లాదకరంగా": 8560,
      "ఐరోపా": 8561,
      "కూడుకున్నది": 8562,
      "యూరోపియన్": 8563,
      "ఇన్వెంటరీ": 8564,
      "ఔషధ": 8565,
      "రిప్రజె": 8566,
      "పాడు": 8567,
      "##వతం": 8568,
      "చేయబడిందని": 8569,
      "##ద్రియ": 8570,
      "బ్యాంక్": 8571,
      "##ందాను": 8572,
      "చేస్తారని": 8573,
      "దిగ": 8574,
      "మారుతూ": 8575,
      "సేకరించి": 8576,
      "ఆవిరి": 8577,
      "కనిపిస్తారు": 8578,
      "సలహ": 8579,
      "హృదయపూర్వకంగా": 8580,
      "##వంతులు": 8581,
      "అంగీకరిస్తున్నాను": 8582,
      "##జినల్": 8583,
      "ఐరోప": 8584,
      "సుదూర": 8585,
      "ఈజిప్": 8586,
      "మిత": 8587,
      "##చా": 8588,
      "##మొ": 8589,
      "##ణిత": 8590,
      "మీటింగ్": 8591,
      "##ప్లా": 8592,
      "##స్తారో": 8593,
      "##ంబరు": 8594,
      "ఆకృ": 8595,
      "మొదలైన": 8596,
      "##ార్థం": 8597,
      "విస్తారమైన": 8598,
      "విద్యార్థులను": 8599,
      "వృథా": 8600,
      "రికవరీ": 8601,
      "చల్లబర": 8602,
      "రావచ్చు": 8603,
      "భావిస్తారు": 8604,
      "విలువైనది": 8605,
      "విరామ": 8606,
      "పొడవుగా": 8607,
      "శైలిని": 8608,
      "స్థిరత్వాన్ని": 8609,
      "హార్మో": 8610,
      "సంరక్షించడానికి": 8611,
      "వెలికితీ": 8612,
      "రిటైర్": 8613,
      "కనెక్టివిటీ": 8614,
      "ఐక్యరాజ్యసమితి": 8615,
      "##నష్ట": 8616,
      "##సాను": 8617,
      "##టెక్షన్": 8618,
      "టామ్ను": 8619,
      "##స్తాయని": 8620,
      "మెక్సి": 8621,
      "##ెక్టివ్": 8622,
      "డేటాతో": 8623,
      "రిజ": 8624,
      "##్రెడ్": 8625,
      "రేడియ": 8626,
      "##ించగలరు": 8627,
      "వైపులా": 8628,
      "హక్కులను": 8629,
      "జ్ఞాపకాలను": 8630,
      "సంరక్షించడం": 8631,
      "చేతితో": 8632,
      "టర్బ": 8633,
      "కవిత": 8634,
      "విచారణ": 8635,
      "కూడుకున్న": 8636,
      "వినాశకరమైన": 8637,
      "##ండ్విచ్": 8638,
      "మెక్సికో": 8639,
      "అన్య": 8640,
      "ఎన్ను": 8641,
      "పాలి": 8642,
      "పూర్": 8643,
      "బ్యాల": 8644,
      "##బయ": 8645,
      "##ూట్": 8646,
      "##ాలజీ": 8647,
      "##దిద్ద": 8648,
      "##వుగా": 8649,
      "వెక్టర్": 8650,
      "##ంట్లు": 8651,
      "##గలనని": 8652,
      "వెళ్ళమని": 8653,
      "##నాలతో": 8654,
      "సాంకేతికతలు": 8655,
      "నమ్మను": 8656,
      "పాత్రలను": 8657,
      "రోమ్": 8658,
      "ఏర్పరు": 8659,
      "నివాస": 8660,
      "హైకింగ్": 8661,
      "రోగులకు": 8662,
      "బాధ్యతలను": 8663,
      "##గలిగే": 8664,
      "##తున్నాం": 8665,
      "బరువును": 8666,
      "అకడ": 8667,
      "పేదరికం": 8668,
      "ఏడుపు": 8669,
      "డ్రెస్": 8670,
      "కండరాల": 8671,
      "శుభ్రపరచడం": 8672,
      "నిస్స": 8673,
      "ఆగ": 8674,
      "వరల్డ్": 8675,
      "విలు": 8676,
      "సంఖ్యా": 8677,
      "స్లీ": 8678,
      "##ారాత్మక": 8679,
      "##ంటేటివ్": 8680,
      "రాక": 8681,
      "రిజి": 8682,
      "##ట్టింది": 8683,
      "చేశానని": 8684,
      "##ెర్జీ": 8685,
      "శాండ్విచ్": 8686,
      "అసహ్య": 8687,
      "కుటుంబంతో": 8688,
      "ఇద్దరికీ": 8689,
      "ట్రాఫిక్ను": 8690,
      "ప్రయోగం": 8691,
      "అగ్నిపర్": 8692,
      "విటమిన్": 8693,
      "అవలోకనం": 8694,
      "అవయవ": 8695,
      "బానిస": 8696,
      "అయింది": 8697,
      "బంతిని": 8698,
      "##ంటాడు": 8699,
      "విస్": 8700,
      "నేలపై": 8701,
      "నాగరిక": 8702,
      "##పులు": 8703,
      "##సియా": 8704,
      "##వాద": 8705,
      "జీతం": 8706,
      "కంపోజ్": 8707,
      "సాధారణం": 8708,
      "అందించగలరా": 8709,
      "అలెర్జీ": 8710,
      "సంవత్సరంలో": 8711,
      "సంవత్సరాలుగా": 8712,
      "వాయువులు": 8713,
      "పరిష్కరించడంలో": 8714,
      "ఆపరేషన్": 8715,
      "చేయలేము": 8716,
      "కోర్సులు": 8717,
      "క్రీడలు": 8718,
      "వింతగా": 8719,
      "##లేకపోతున్నాను": 8720,
      "ఆత్మవిశ్వాసం": 8721,
      "సమన్వయం": 8722,
      "రిప్రజెంటేటివ్": 8723,
      "బైన": 8724,
      "చేయని": 8725,
      "##లేట్": 8726,
      "అవసరమా": 8727,
      "పొజి": 8728,
      "వైఖ": 8729,
      "##పోయినప్పుడు": 8730,
      "వ్యక్తిగతీ": 8731,
      "వెబ్సైట్లు": 8732,
      "దీర్ఘచ": 8733,
      "పోషక": 8734,
      "పూలింగ్": 8735,
      "స్క్రా": 8736,
      "రొమా": 8737,
      "ద్రవ్యోల్": 8738,
      "ట్యూన్": 8739,
      "ఇన్స్టాల్": 8740,
      "కరెన్సీ": 8741,
      "ద్రవ్యోల్బ": 8742,
      "##ైమ్": 8743,
      "##జువు": 8744,
      "##రిక్స్": 8745,
      "##ానింగ్": 8746,
      "##ారాలు": 8747,
      "##పోవడానికి": 8748,
      "పురుగు": 8749,
      "స్టాల్": 8750,
      "వివర": 8751,
      "నీకు": 8752,
      "మనల్ని": 8753,
      "ప్రయత్నిస్తాను": 8754,
      "రుజువు": 8755,
      "గ్రౌండ్": 8756,
      "దుస్తుల": 8757,
      "సమీక్షించండి": 8758,
      "చెప్పినట్లు": 8759,
      "కళాఖండ": 8760,
      "కఠినంగా": 8761,
      "అవ్వండి": 8762,
      "ఉత్సాహంగా": 8763,
      "ఉత్సాహాన్ని": 8764,
      "గెలుచు": 8765,
      "తేనెటీ": 8766,
      "ఎన్క్రిప్షన్": 8767,
      "అకడమిక్": 8768,
      "ఆరా": 8769,
      "ఆడియో": 8770,
      "గ్యాల": 8771,
      "##సర్లు": 8772,
      "##హితంగా": 8773,
      "విధి": 8774,
      "నిధి": 8775,
      "##ంతరం": 8776,
      "స్నో": 8777,
      "##లేన": 8778,
      "వెం": 8779,
      "పిలుపు": 8780,
      "నిర్వహించదగిన": 8781,
      "వ్యవస్థలకు": 8782,
      "కీలను": 8783,
      "విస్తరించడానికి": 8784,
      "మొక్కలను": 8785,
      "సభ్యులతో": 8786,
      "బూడిద": 8787,
      "పొందుతారు": 8788,
      "పరమాణువు": 8789,
      "చదివాను": 8790,
      "ఇంటిగ్రేషన్": 8791,
      "ఆండ్ర": 8792,
      "చర్మం": 8793,
      "సజ": 8794,
      "##జని": 8795,
      "చేతిని": 8796,
      "##డియా": 8797,
      "తీసుకున్నాను": 8798,
      "భయపడుతు": 8799,
      "హైపర్": 8800,
      "తొలగించండి": 8801,
      "విశ్లేషణను": 8802,
      "ఆలోచనా": 8803,
      "విభజన": 8804,
      "పడటం": 8805,
      "అనుకూలమైన": 8806,
      "సారాంశాన్ని": 8807,
      "క్రమబద్ధీకరించడానికి": 8808,
      "మ్యాచ్": 8809,
      "దుకాణం": 8810,
      "వ్యాధులను": 8811,
      "క్యూబ్": 8812,
      "జతచేయ": 8813,
      "గింజలు": 8814,
      "టర్బైన్": 8815,
      "సజావుగా": 8816,
      "షవర్": 8817,
      "వ్యయ": 8818,
      "##గిలించు": 8819,
      "పెప్ప": 8820,
      "వెని": 8821,
      "##ల్లెట్": 8822,
      "ఇష్టపడుతు": 8823,
      "##ప్పుడల్లా": 8824,
      "అనుమానా": 8825,
      "దాచ": 8826,
      "పెట్టుకుంది": 8827,
      "సైంటి": 8828,
      "కుటుంబాన్ని": 8829,
      "అద్భుత": 8830,
      "స్నేహితుడి": 8831,
      "రక్షించడం": 8832,
      "దృశ్యం": 8833,
      "నెట్వర్క్ను": 8834,
      "లేఖను": 8835,
      "క్షమాపణలు": 8836,
      "వాణిజ్యం": 8837,
      "ఒకదానితో": 8838,
      "కడుక్కో": 8839,
      "స్నాక్స్": 8840,
      "పెంపొందిస్తుంది": 8841,
      "అనుమానాస్పద": 8842,
      "గమ": 8843,
      "రెట్లు": 8844,
      "##మరణ": 8845,
      "##సేటప్పుడు": 8846,
      "##ించాడని": 8847,
      "##న్నింగ్": 8848,
      "##గ్స్": 8849,
      "##లేనని": 8850,
      "జీవు": 8851,
      "తీసుకురా": 8852,
      "చివర": 8853,
      "అసంతృ": 8854,
      "పరిశోధనా": 8855,
      "తరగతిలో": 8856,
      "ఉద్దేశపూర్వకంగా": 8857,
      "చేయాలనుకుంటున్నారా": 8858,
      "వయస్సులో": 8859,
      "పోషకాలను": 8860,
      "బ్రౌన్": 8861,
      "నడిచే": 8862,
      "అల్గోరిథంలు": 8863,
      "ప్రపంచంలోనే": 8864,
      "అనారోగ్యం": 8865,
      "వదిలివే": 8866,
      "శ్వాసకో": 8867,
      "##శిక్ష": 8868,
      "2019": 8869,
      "##ెంటికేషన్": 8870,
      "ప్రవహ": 8871,
      "అప్పగ": 8872,
      "##విద్యుత్": 8873,
      "కచ్చిత": 8874,
      "విన్నాడు": 8875,
      "##ినో": 8876,
      "వాక్యం": 8877,
      "##మిత్": 8878,
      "మామయ్య": 8879,
      "చెప్పాలనుకుంటున్నాను": 8880,
      "సిటీ": 8881,
      "పొగ": 8882,
      "జీవుల": 8883,
      "వేయాలి": 8884,
      "సాంకేతికతను": 8885,
      "వాయువుల": 8886,
      "##తనంలో": 8887,
      "ఉద్గారాల": 8888,
      "వ్యర్థాలు": 8889,
      "పర్యవేక్షించబడిన": 8890,
      "కలుష": 8891,
      "గడపడం": 8892,
      "నేపథ్య": 8893,
      "దోషాలు": 8894,
      "వినోద": 8895,
      "స్థితిస్థాపకత": 8896,
      "చింతించకండి": 8897,
      "బ్లాక్చెయిన్": 8898,
      "ఒరిజినల్": 8899,
      "శ్వాసకోశ": 8900,
      "',": 8901,
      "అన్న": 8902,
      "కన్నీ": 8903,
      "నలుపు": 8904,
      "బచ్చ": 8905,
      "##షిక": 8906,
      "##ూమ్": 8907,
      "##ంత్రా": 8908,
      "నాది": 8909,
      "కొలు": 8910,
      "చెప్పను": 8911,
      "##పింది": 8912,
      "డిష్": 8913,
      "##టర్ల": 8914,
      "కస్టమై": 8915,
      "సమయాలను": 8916,
      "క్రమశి": 8917,
      "నమ్మలేను": 8918,
      "దయగల": 8919,
      "తోటి": 8920,
      "విశ్వసి": 8921,
      "జరుగుతుందని": 8922,
      "హోం": 8923,
      "పట్టుదల": 8924,
      "నియంత్రణను": 8925,
      "నాయక": 8926,
      "అడ్డు": 8927,
      "ఆరుబయ": 8928,
      "ఎగువ": 8929,
      "స్టెప్": 8930,
      "ఉపశమనం": 8931,
      "ఉపాధ్యాయులు": 8932,
      "విడాకులు": 8933,
      "కాన్సెప్ట్": 8934,
      "స్థానభ్రంశం": 8935,
      "బచ్చలి": 8936,
      "క్రమశిక్షణ": 8937,
      "ఆరుబయట": 8938,
      "లాగ": 8939,
      "##డెంట్": 8940,
      "##కోలు": 8941,
      "##ముందే": 8942,
      "##స్టో": 8943,
      "వేర": 8944,
      "ఉండవు": 8945,
      "శక్తిగా": 8946,
      "వీధ": 8947,
      "ఆక్రమ": 8948,
      "సెంటర్": 8949,
      "ఎక్కడో": 8950,
      "మొదటిది": 8951,
      "అంతర్దృష్టి": 8952,
      "పట్టుకున్నాడు": 8953,
      "అధ్యయనాలు": 8954,
      "సమావేశానికి": 8955,
      "నిపుణుల": 8956,
      "క్యారెక్టర్": 8957,
      "ప్యానెల్స్": 8958,
      "శతాబ్దంలో": 8959,
      "అగ్ర": 8960,
      "ఉంచి": 8961,
      "పసి": 8962,
      "యంత్రా": 8963,
      "##బల": 8964,
      "##పిస్తాయి": 8965,
      "##షియం": 8966,
      "రాశాడు": 8967,
      "గుర్తించి": 8968,
      "యుగ": 8969,
      "శాన్": 8970,
      "ఇన్వ": 8971,
      "కంపెనీలో": 8972,
      "##బ్బలు": 8973,
      "ప్రాంతాల": 8974,
      "రంగుల": 8975,
      "పార్కింగ్": 8976,
      "రోల్": 8977,
      "గ్రాఫిక్": 8978,
      "చెందే": 8979,
      "బుట్ట": 8980,
      "లైట్లను": 8981,
      "ఉంచుతుంది": 8982,
      "వెర్రి": 8983,
      "థీసిస్": 8984,
      "గ్రిడ్": 8985,
      "పగడ": 8986,
      "సూట్‌కే": 8987,
      "నోటిఫికేషన్": 8988,
      "సంతోషిస్తున్నాను": 8989,
      "ప్రజాస్వామ్య": 8990,
      "##బెట్టిన": 8991,
      "##ాగ్రామ్": 8992,
      "లాయల్టీ": 8993,
      "బైనరీ": 8994,
      "పంది": 8995,
      "రౌ": 8996,
      "వ్యోమ": 8997,
      "ఉపయోగించాలో": 8998,
      "తిన్న": 8999,
      "##ించినది": 9000,
      "యుటి": 9001,
      "కోరుకో": 9002,
      "నిర్ధారించడం": 9003,
      "##ఫోలియో": 9004,
      "గ్రాడ": 9005,
      "బీరు": 9006,
      "వారాలు": 9007,
      "చెందుతుంది": 9008,
      "##మయ్యాయి": 9009,
      "నమూనాలలో": 9010,
      "బహుమతులు": 9011,
      "పునర్నిర్మ": 9012,
      "నిష్పత్తి": 9013,
      "తోటలో": 9014,
      "క్యారెట్లు": 9015,
      "రద్దీగా": 9016,
      "ఇటాలి": 9017,
      "అపాయింట్మెంట్": 9018,
      "విలువల": 9019,
      "##ట్యూ": 9020,
      "##లియం": 9021,
      "##గ్ధ": 9022,
      "ప్రభావాల": 9023,
      "చేసుకోగల": 9024,
      "సేకరి": 9025,
      "ఆకృతి": 9026,
      "##బోర్డ్": 9027,
      "ఉంచాలి": 9028,
      "మోటారు": 9029,
      "అక్కడకు": 9030,
      "కనెక్ష": 9031,
      "చేయలేడు": 9032,
      "ఆలోచించడానికి": 9033,
      "దీర్ఘకాలికంగా": 9034,
      "చెందినది": 9035,
      "టూల్": 9036,
      "టెలిఫోన్": 9037,
      "ఫ్లెక్సి": 9038,
      "రాత్రంతా": 9039,
      "పరామీటర్": 9040,
      "దట్టమైన": 9041,
      "##వశాత్తు": 9042,
      "80": 9043,
      "క్రో": 9044,
      "##ఫలి": 9045,
      "##టిగా": 9046,
      "స్మూ": 9047,
      "##తోష్ణ": 9048,
      "##ారామీటర్": 9049,
      "##గలడని": 9050,
      "తాగి": 9051,
      "అసెం": 9052,
      "మార్చవచ్చు": 9053,
      "భోజనానికి": 9054,
      "కనిపించడం": 9055,
      "హృదయపూర్వక": 9056,
      "##నిర్మాణం": 9057,
      "జేబు": 9058,
      "జర్మన్": 9059,
      "సర్వేలు": 9060,
      "ర్యాంకింగ్": 9061,
      "నిఘా": 9062,
      "##ాలనుకుంటున్నాము": 9063,
      "అర్హత": 9064,
      "నెరవే": 9065,
      "మడత": 9066,
      "అప్పటి": 9067,
      "పజిల్": 9068,
      "ఫామ్": 9069,
      "##పక్కల": 9070,
      "##తర": 9071,
      "##భరితమైన": 9072,
      "##ట్ను": 9073,
[...]
